1a
ae
cc
c1
77
ab
ec
9f
f3
44
88
c4
28
bd
4a
74
90
10
39
94
e2
b0
62
af
25
6e
16
dc
78
cf
49
48
f3
13
e5
43
ce
ef
02
ad
85
52
2c
6c
5e
55
80
54
8f
43
03
08
47
5b
50
b9
39
6a
e4
26
c1
4c
ad
24
9e
0c
5e
2a
6b
c0
b7
1e
a9
84
33
5f
7e
6e
c9
00
ac
8f
3e
d9
8c
0f
ac
cd
c4
be
46
db
15
3d
c1
f9
00
ed
cf
69
06
75
fe
13
89
c1
b0
af
a2
24
2e
da
a7
f8
fb
43
31
10
db
72
24
45
a6
fb
e9
e4
4c
5a
8d
2a
8e
8a
dd
a4
04
bd
39
c7
e5
2b
dc
61
be
15
0f
78
67
98
d8
50
a2
a5
70
4d
c5
44
a9
85
42
88
75
79
be
b5
c3
97
79
eb
f1
33
92
cf
86
c0
c5
dd
ef
38
ce
25
50
8c
ef
b4
34
24
1f
d5
d8
7a
2e
97
3b
ac
b0
7e
89
4e
9c
f0
6c
84
89
47
78
03
dd
eb
2a
2a
9c
e2
fc
f2
8b
af
0e
12
bd
ea
7b
98
8c
5d
c2
07
1f
2b
28
26
e3
1c
91
44
c0
e1
d4
ba
b6
c6
08
d5
4d
de
fc
d9
de
fb
6e
19
f8
d8
2e
01
f9
87
88
7a
56
e7
91
a1
cc
0c
93
f4
21
06
33
5b
e2
80
8d
0e
e2
29
6d
1e
9c
f0
d0
f5
ee
ba
b5
8d
af
f4
62
40
6f
90
83
70
40
41
5d
bb
46
46
bf
9e
a2
b2
29
cc
6c
6a
cb
c5
ad
1e
12
87
21
e8
e8
ec
2a
02
73
51
0d
da
0e
83
a7
cb
01
53
26
31
69
73
ad
40
fd
75
4b
67
5e
e6
ab
9e
ea
90
15
3d
18
1c
15
bf
2b
a0
82
b5
8c
6b
23
ce
e6
66
de
1d
dc
8a
2a
cc
39
28
47
17
6b
37
b8
5f
d5
4c
66
94
de
3a
a6
30
0e
47
e1
76
70
f7
50
e9
bd
de
e8
03
87
93
80
eb
48
e4
bf
e1
a5
1e
71
c8
d9
d9
ca
ab
1c
be
92
01
03
b0
a2
20
54
11
7e
b8
20
87
29
89
56
05
5a
0e
97
e7
37
f5
83
b9
25
82
91
31
b7
3b
34
e3
ae
bc
33
a3
66
10
fb
b0
7b
a1
ce
08
e5
34
50
a8
9e
84
e1
2d
ed
79
cc
00
c9
57
56
30
e3
54
30
2a
8f
10
96
bb
6d
27
86
c8
f6
67
48
45
94
a0
ec
30
85
1b
12
83
80
d6
72
08
91
a5
24
d0
e9
0b
58
40
1e
b3
01
c5
54
18
dc
a2
fa
52
ac
26
0e
81
a8
da
2e
2a
ac
9c
fa
21
a4
bf
ed
25
e6
6c
9c
ad
ad
25
38
b4
af
7a
e3
a8
6f
27
34
13
9b
f1
26
19
d2
fd
63
0e
d6
a0
23
14
0f
a8
c0
fb
7b
87
5d
b2
4e
b7
38
1a
5c
d3
48
ce
14
60
96
f7
ae
1c
91
d0
a1
35
78
b5
75
b0
2c
a3
68
71
33
e6
97
3c
45
fa
05
71
15
a5
e1
c8
96
2a
0d
55
47
da
84
60
06
6c
3c
53
15
3e
3c
d5
f7
97
e3
3e
c1
54
10
b7
82
20
f9
4c
db
4f
f7
63
f5
b4
ca
fa
1d
95
19
5f
66
a1
01
5e
dc
da
99
b0
2c
dc
b6
38
f2
5e
86
c6
88
66
32
d0
d7
d1
84
0b
18
94
4e
bf
e4
36
f4
23
62
ab
ca
88
78
64
c3
f6
76
42
ad
33
47
f3
a8
ef
b5
d8
6d
43
45
e6
ee
38
33
9c
45
25
05
9b
e7
47
2e
75
cb
8b
48
ee
23
37
97
16
2c
81
25
5b
64
70
ef
ae
65
06
2a
50
53
d1
0f
9d
b9
45
9c
6b
4e
a9
df
20
98
40
c3
fa
4c
aa
e5
1c
9d
14
11
50
1a
2a
40
56
0f
51
2e
ab
84
a1
a7
eb
a5
dd
a6
e4
62
33
b2
e4
83
c5
6f
b5
f4
5c
be
1e
a6
f0
66
f8
c7
bc
97
c0
1d
6b
6d
9e
ac
de
f4
aa
4e
af
26
01
99
56
ea
f3
c1
85
bf
0c
0d
d6
fe
5d
08
8b
50
e5
a4
54
54
5c
81
b2
69
44
8b
c1
5e
bf
8d
9c
dc
d6
96
b9
8b
53
2b
ad
1a
98
cf
5e
8f
0b
1b
60
1f
e8
05
b7
d6
57
ef
a1
3a
9d
5b
e0
9e
89
b2
55
6e
ee
9e
a1
1a
b1
45
29
5a
3d
29
58
6a
75
12
97
db
af
64
44
c0
77
4c
2a
65
ac
3a
56
71
04
6a
04
38
fe
40
c4
61
d8
28
21
d2
de
62
40
e6
00
b3
b7
8d
59
7c
f2
65
4a
0c
c0
5b
71
b2
12
3c
ab
84
75
83
f0
9c
ce
f9
d6
c2
c1
03
31
3f
29
c5
6c
be
6d
7b
20
e8
e0
e3
e9
93
79
83
c3
d0
b3
0e
fe
cb
b3
cf
70
2c
ca
a2
9c
40
bf
56
f7
ba
22
3a
2c
e3
2a
73
e0
d2
72
3f
7b
d0
61
af
9e
c5
51
c0
78
da
38
dc
c8
e8
c9
e8
56
8e
bf
f2
38
c8
9f
23
19
c8
a7
7a
26
16
e5
bd
a0
ae
71
e8
78
82
63
5c
34
d1
f0
4a
e9
18
a6
9e
84
5f
23
51
13
61
9a
af
76
26
84
99
a7
e7
0c
81
6d
7e
5d
2d
09
98
38
b5
d6
6e
a9
e8
e4
10
5d
b3
45
a1
96
f7
0e
56
0c
ae
5c
61
17
7c
c7
0d
1f
11
e3
8e
2c
af
3c
8e
1b
ab
17
85
89
77
bb
b0
bc
e6
61
7d
e4
0c
57
f9
7a
73
57
1e
98
e2
94
7e
c3
08
67
01
18
1f
f6
5b
2a
fd
79
bc
7b
8d
e5
5d
a0
a8
b5
b3
dd
c3
76
41
e2
28
5e
b7
03
43
89
b1
34
84
3f
77
9a
8d
36
4a
98
8b
bc
a3
16
8c
b8
c0
ac
e7
5d
e0
08
3e
d1
6c
d8
39
67
61
78
1e
88
28
f0
1f
79
60
1e
75
88
ad
2a
4d
f6
0b
be
48
b4
7f
ee
c1
2e
e9
dc
c3
d6
65
a1
ab
7d
67
46
d7
50
93
de
cd
7d
a2
5c
26
f6
9a
6e
62
d4
fc
0f
07
80
44
8e
63
53
2e
11
a5
da
ab
63
ca
d4
62
a4
0d
75
6a
81
b0
b2
4b
a0
f8
d5
57
98
22
2a
05
ce
65
18
3a
0f
f8
de
e1
aa
cd
1e
dc
83
d2
55
a4
f7
ef
1d
dd
10
f3
51
0d
cd
58
af
48
a7
22
5a
76
58
76
f3
5d
81
2e
19
36
5c
41
cd
b2
6d
42
91
8c
c6
96
d4
6e
c6
2e
1f
91
70
f7
05
ab
d4
cb
8d
d3
61
89
54
ca
ae
93
82
d8
ec
39
14
44
ee
5e
28
bf
35
14
fa
8b
b6
ab
62
87
a3
d7
33
4d
b3
26
19
db
fa
01
4d
5c
8e
cf
05
00
a3
99
ae
7c
5c
54
41
87
2c
a7
d0
60
eb
94
c8
43
00
73
1f
67
e9
82
eb
66
53
40
1a
ca
9e
c4
3a
ec
6a
d5
7f
cc
89
0e
f0
19
55
85
64
24
ee
37
71
d4
13
4c
a5
1a
91
2e
e4
7c
05
45
6f
22
84
55
f3
38
de
8b
d3
2c
b5
55
64
51
4a
00
91
95
0b
92
a7
36
47
b3
b4
72
02
da
58
53
bf
f9
ba
24
90
1f
e5
97
61
fe
b8
37
18
74
76
56
03
b1
0c
e6
53
f7
ee
7c
d1
f3
a9
a5
4c
77
04
ed
d1
f1
ea
b4
8d
aa
bc
7b
2a
39
12
6b
35
22
7b
11
00
de
fd
32
b4
dc
b0
20
af
1c
0c
b9
84
7e
9b
53
a5
8b
b3
bd
61
75
42
6e
6a
05
98
cf
cf
07
51
95
97
24
2e
ca
a0
7c
0a
c4
3c
a0
a5
63
df
68
87
62
6f
d4
e1
f4
38
32
81
47
0a
c8
59
0c
e4
de
43
44
ce
b1
a7
57
0e
7f
e7
28
65
55
d0
29
7c
e7
f6
5e
d9
71
1d
c3
de
29
67
7f
f7
60
6a
31
c7
45
5c
28
e6
64
10
6a
69
52
4b
b7
5b
b7
11
74
32
7d
5b
ed
90
1e
41
82
c6
08
d5
b3
f2
ec
31
bf
c5
96
50
fd
46
05
af
5b
c0
1e
0c
a1
c8
e5
54
06
b7
c8
6c
57
9b
67
1b
09
67
87
0a
a6
32
88
b9
86
77
02
28
40
f5
df
68
19
04
ee
cd
0b
36
eb
3f
07
8d
77
2c
40
a4
fc
38
28
cc
c0
87
c9
df
ef
9f
a6
8d
23
ec
97
e1
64
11
44
4f
92
02
29
4a
c5
41
66
93
37
e6
5f
95
a9
94
d6
3c
3a
7c
b8
c2
a8
fd
45
b9
7c
97
33
92
d9
f8
1f
f4
33
ed
7c
53
3b
3d
a5
e3
26
5e
e2
70
12
42
24
3e
78
71
84
c5
9d
fa
9e
8d
3f
22
cc
fe
98
ef
93
7d
1b
35
49
c9
0a
9f
b2
7a
76
82
bd
00
a7
2c
32
75
f7
69
7a
00
b5
99
65
d5
d6
29
bc
6f
31
76
bb
5b
c0
1b
94
d9
86
5f
d6
5a
d7
e5
fb
a7
c0
23
98
a3
cb
5c
1d
5f
ad
9b
52
b2
6a
03
23
f9
cc
37
51
93
dd
aa
86
3b
7e
38
17
7c
cf
8e
34
d2
4d
bc
74
93
34
76
a6
cc
b3
57
b1
d4
ec
55
be
de
07
ed
9a
d0
02
fe
c6
66
f1
fa
2b
aa
2d
15
d9
36
00
69
ea
89
60
10
aa
e6
73
4a
34
0a
b3
cc
3e
94
8a
d1
52
91
b2
2a
71
48
10
cb
b6
22
ea
96
24
5d
4e
ac
d2
bb
27
5c
d9
07
6f
61
9c
9c
a9
ae
79
7f
39
26
45
5c
ed
79
70
25
db
71
e3
9c
77
dd
fd
a2
b9
c8
18
12
89
55
1b
45
73
5f
b0
67
05
59
5b
db
5a
98
62
70
29
7e
56
29
f7
74
a3
6e
fb
cb
f4
72
0b
8d
7f
8e
ab
1e
15
83
64
2c
9f
88
8c
dc
26
a4
04
a7
90
19
6e
16
09
c8
aa
85
da
c7
7b
5a
d5
3d
6a
fd
a1
4f
d2
b7
fa
3a
1a
da
01
e4
8c
36
6b
ad
56
2c
1e
54
7c
23
64
35
56
b6
1a
af
e5
66
bf
6b
4b
b1
a0
bf
b2
93
a1
37
7c
af
a1
e1
c9
ba
36
cb
77
55
b0
f9
aa
c2
3e
a9
32
23
ce
e0
54
7f
7a
c7
2e
78
ad
61
30
8c
9c
28
0a
04
43
84
e2
22
ca
24
71
17
d9
94
99
fd
08
bf
fb
dc
69
d7
ac
e0
66
76
34
5e
c2
b5
fb
2e
1b
22
5b
cc
b4
74
06
3b
a2
2d
24
18
29
de
60
77
41
fe
b9
63
91
df
56
4a
f9
99
5a
01
76
3f
5c
19
0e
df
28
00
9c
50
4a
3d
b4
65
6f
f1
b2
56
18
30
c7
cc
e1
51
c0
27
e5
82
df
d1
6a
5f
bd
71
ce
4b
f9
eb
a4
b3
fc
e4
9b
66
23
ae
38
9a
62
39
40
f1
5e
48
7c
32
e6
b2
74
fe
2c
a6
b9
1e
6a
d6
61
5a
58
b8
d5
20
ae
87
aa
cb
ec
34
fa
3c
e0
70
c0
23
ab
9e
64
30
70
4d
ce
55
d5
6f
5c
c3
67
74
93
78
cc
55
9c
19
b3
58
d1
66
92
98
6c
4c
df
b6
26
50
54
7a
92
df
bf
92
0d
d4
9f
55
64
fb
14
4a
84
6f
c3
63
5b
42
2f
22
d2
6c
0d
99
2c
51
ad
88
c4
e4
d7
47
0c
10
60
53
25
34
80
85
f6
f2
e4
07
ed
7a
aa
9d
75
0b
34
54
9d
ac
71
8e
d6
06
c3
41
db
f4
c9
35
c1
32
db
6a
f4
bd
74
dd
f7
23
88
30
a0
f2
05
99
5f
9e
6c
e3
73
a7
c3
78
8c
9a
81
db
17
6e
3a
20
66
83
8d
11
fa
d9
88
3a
c3
f2
4d
b9
f0
aa
aa
f0
ea
90
ce
01
28
48
86
1b
c7
e6
59
0f
2f
6d
ae
27
c1
9c
41
a6
55
c7
1b
41
0c
63
4e
81
6a
82
5c
4d
79
a6
24
a3
cb
cb
54
3d
52
ae
d5
02
4e
43
c1
50
82
5c
a5
23
58
37
88
aa
ab
ce
4a
57
a8
14
19
41
00
9f
1e
8f
02
1f
a5
22
4e
aa
2a
48
08
75
a4
dc
c1
85
93
b2
e8
11
c5
88
9c
9b
00
60
60
36
16
de
39
5b
23
cb
25
83
73
83
6d
47
16
9e
41
92
86
be
0d
3e
9b
8c
78
81
89
fd
f4
a2
b2
db
53
da
05
a3
d4
b6
ab
b2
fd
9d
26
24
1a
7b
9d
73
e8
f2
08
a9
f8
eb
b7
b5
c7
d0
3f
1d
ca
f7
4f
16
0a
f8
a1
3d
9a
d6
79
0a
19
ea
10
e7
27
1b
ed
87
d1
3f
f8
95
db
c4
b1
09
4b
52
1c
92
ba
08
5f
af
1e
01
fc
ab
a9
d2
aa
cb
85
21
25
d2
a2
bf
30
de
9a
7d
36
27
de
0d
ba
23
a4
6b
e1
b9
de
77
1e
1e
9d
9f
63
9b
fc
d5
3a
69
0c
10
45
3d
9d
50
7e
61
d6
b2
52
cd
4b
e5
c2
54
ac
39
db
3a
48
aa
f4
f0
91
fe
f8
4d
ac
ad
48
b5
d4
48
c3
a6
7f
b4
83
cc
df
d5
ae
48
9e
27
5c
7b
d1
bf
be
a8
55
07
99
f0
a6
8e
37
fb
c2
de
99
2c
c5
1a
c3
7b
de
97
cf
2b
25
4c
9d
22
64
b2
5c
9c
5e
30
3c
7f
e5
e9
f7
81
b8
e5
7e
4a
76
8b
c4
5a
6b
5e
e1
bd
15
46
a5
91
f1
42
fe
93
ae
cb
98
7b
01
3a
fe
8f
1b
f4
fd
ab
85
51
69
f3
e2
d6
a1
4f
96
5c
4b
65
3b
35
8f
9c
3f
21
11
65
c5
eb
97
b4
d8
32
a7
69
69
6e
c3
40
27
72
93
a3
9a
b3
a7
4d
14
f8
18
f8
af
23
cb
64
d8
24
65
8b
e5
cc
0f
c0
ef
e8
ca
4a
fa
43
4c
ab
ad
f9
d4
25
3a
d4
ae
e9
e2
98
59
1a
68
f6
d9
4f
53
3b
bb
21
c2
c1
24
9c
0d
2c
e1
5b
3a
be
67
7a
18
a9
bf
c8
8a
ef
b8
29
b6
15
ef
b9
aa
cd
f2
c8
98
27
fb
29
27
91
9c
62
0a
17
bf
8d
6e
d4
6f
7e
b7
a1
5a
b8
ab
68
7d
6b
0b
ee
09
34
11
ba
df
88
18
a4
68
ce
be
d1
33
48
93
17
5f
3c
57
fc
2d
14
3c
5d
42
e8
64
88
d7
a7
5d
bf
db
64
ca
39
34
c5
b1
a8
ce
28
28
47
77
ac
07
d7
30
28
c2
df
f8
37
cc
07
3d
19
6f
52
61
6b
25
ba
21
7a
7a
8c
ea
8f
74
b5
4e
af
3b
fe
01
15
7f
fa
0b
2c
05
af
81
44
b5
31
98
32
86
b2
58
60
54
9c
f3
4f
5e
6e
7e
38
3d
8e
ed
a8
c6
f4
72
ef
99
46
16
1b
8a
85
ed
58
0f
6f
dd
d5
80
a1
d1
e7
5c
b9
4a
66
68
60
e2
64
b0
d3
13
bd
12
8c
7f
70
a7
e1
50
26
83
b1
c2
47
3e
32
5a
eb
4a
44
c7
b5
92
da
70
2d
21
09
d8
24
d6
53
23
09
6d
3a
c0
c5
f4
be
fe
ed
71
98
b1
61
93
08
8f
73
78
4c
ba
4f
da
c9
3c
d9
28
7f
c9
a9
2a
6a
fa
e0
e8
83
58
65
1e
1f
ef
9f
be
46
b5
14
5c
b4
23
3f
1d
05
d9
3b
58
dc
55
94
df
fb
de
5f
a5
a4
7e
11
68
fa
38
43
6a
fa
ec
05
a2
0f
56
34
cd
27
ab
4f
1f
ca
df
62
1f
40
48
70
19
b5
5a
60
b1
96
17
bd
56
60
f8
0c
b3
bb
fe
75
f5
7a
bd
4d
cc
60
b7
29
29
8c
b2
81
49
00
6f
da
f4
d1
c6
23
37
bb
fe
82
49
20
87
b1
1d
33
18
b7
56
37
fa
32
f1
40
d4
45
57
2d
23
43
e4
5d
9b
a4
28
b7
53
d2
00
b7
42
4e
f4
1e
97
3c
49
fc
fd
b0
e2
30
a4
1a
98
a6
49
a8
0f
3c
18
7b
c5
7b
9f
0c
a8
9e
f6
bb
96
77
2f
8f
a5
db
64
4c
8b
9a
54
3f
99
09
97
ce
f6
f0
b1
5e
c2
f1
bc
fc
98
c7
07
dd
5c
4d
05
d7
94
b0
00
3e
38
a3
a9
ca
37
84
fb
b6
e5
c0
cc
6c
24
76
44
8c
be
e5
f7
4c
16
5f
2b
b6
d6
1b
a3
4f
69
97
32
34
33
a2
c3
96
73
b7
15
f7
b9
d1
11
c6
f8
23
18
35
9c
58
b9
f9
a1
46
63
df
b8
22
45
ed
e7
96
a8
8f
0e
89
78
e5
fe
ed
de
c4
76
92
be
71
b2
ef
39
ed
c2
36
42
12
39
22
42
d9
a2
54
b0
92
e0
29
91
87
16
15
2d
64
59
c2
1e
76
43
0c
ab
04
b8
b4
e2
70
09
bf
77
41
05
fc
6d
a2
3f
bf
51
a1
5c
93
c8
28
0d
2e
ed
68
31
1d
1f
05
51
3b
9c
cd
07
d8
8c
41
12
49
da
de
1b
14
5a
28
32
1e
81
fa
e1
42
d6
ce
7f
eb
f6
56
d3
89
e2
03
f5
71
9a
bc
c7
9b
54
92
0f
fc
0e
f8
25
20
5f
8b
bd
f7
cc
f1
8c
50
2e
d1
f1
db
7f
ce
27
7e
5c
ef
58
e0
22
b8
4c
43
40
5d
9b
b9
76
41
f8
ec
99
17
31
e5
8d
f5
d4
36
ee
a0
1e
34
0a
73
ab
44
d9
9e
55
97
5c
f4
82
5d
c2
44
59
1a
45
5e
6e
07
69
4c
96
5e
d6
b6
48
2f
e2
7f
40
40
e8
f6
54
d3
75
cc
26
7a
71
71
f6
8d
e4
a7
2b
be
4f
6f
9c
7a
e5
e2
50
ca
06
4d
0f
0d
e5
6e
df
b3
a5
21
2d
c4
7c
c4
3c
23
12
f2
f6
d1
46
98
39
8b
c7
93
7d
85
d9
6d
0a
31
2e
45
83
be
13
2b
87
ec
65
cc
5c
98
4d
50
69
cd
11
bf
58
1f
b2
3a
e7
4e
64
34
81
aa
f4
a7
fa
16
02
c8
fe
28
90
3a
45
29
32
06
14
8e
38
e8
a1
f6
b8
2c
0c
7f
4e
ac
ec
fe
ba
23
65
83
01
9e
f6
47
29
16
d2
83
a6
e4
1b
ee
6e
d0
df
fa
34
4a
b8
ba
c1
2d
a1
5b
12
86
e3
9d
b8
43
e9
37
19
09
a6
29
39
7b
e3
5e
11
4d
0b
8f
eb
02
48
0c
5b
33
82
e1
b0
7b
65
84
95
1e
11
0b
8a
bf
cd
b3
96
28
0f
4f
d3
76
40
bc
e4
0f
cb
13
0e
1a
08
9e
32
2b
93
63
1f
56
a8
21
8b
da
5d
78
cd
49
3c
58
1d
92
a9
eb
08
24
24
f5
55
82
e0
d7
d9
c5
ad
f8
42
cc
2e
01
16
90
9e
8d
63
90
59
2b
93
e0
b8
86
16
10
8c
c9
0e
36
86
1d
a3
f1
0d
ee
b6
54
17
48
b2
d9
1a
de
3d
f7
3a
a8
c2
d2
90
be
86
d0
4b
8b
f5
2a
66
c1
02
26
5d
c2
21
aa
80
0e
df
fa
26
60
b7
ef
f7
f1
1e
21
62
59
98
45
18
cb
ad
84
5b
9c
44
13
03
4e
48
0a
a4
05
ce
e7
d1
5e
89
4b
10
34
b6
c4
8c
f2
9f
68
fe
68
d3
d8
3e
ba
61
9f
3d
56
a5
2a
7e
1b
5f
d4
e5
16
ee
23
a4
38
e5
75
53
0a
81
09
05
81
52
ef
89
3c
d5
0b
1e
4c
54
5b
89
c0
1e
e9
ba
d2
f1
ee
ca
4d
fb
94
a8
1e
f3
f2
47
8e
6c
c7
9f
31
04
31
4f
cc
44
25
fd
37
09
68
4b
74
3e
4b
7a
3c
c5
92
ce
46
8d
c5
7d
bd
af
ac
e4
f7
95
04
99
a2
c3
fe
21
2c
e7
b9
3b
10
91
2b
22
f5
64
cb
ed
41
cb
85
15
93
eb
f2
0b
1a
ee
d0
ee
32
74
e5
ca
fa
6b
65
2b
a3
97
70
bc
03
f6
3b
f4
09
0a
aa
0e
97
16
d7
3e
24
22
5b
ec
d5
d5
ed
ba
99
e2
6f
d1
47
49
34
b8
5b
fe
ea
8c
73
dd
13
dc
87
e3
68
db
7c
de
f8
f3
5c
cb
ce
5d
bf
ab
83
41
68
b7
4c
be
ab
c9
1d
c9
39
19
0d
61
6f
c0
7c
1c
7c
be
04
d9
b1
08
e7
be
3d
05
07
bc
e5
d2
ba
1b
a0
fa
d6
ce
44
a2
1d
c9
ba
8b
94
62
a5
95
c4
c0
a3
db
03
b7
53
7e
65
40
e1
aa
b7
16
c3
5f
0d
6a
cc
fa
23
27
30
01
07
7d
28
f5
48
22
94
ed
1f
bd
1a
17
6c
14
fe
a6
22
f1
e6
de
71
c8
7f
e2
b7
eb
48
90
56
6b
b9
57
e3
c7
1b
ce
18
f6
e1
02
19
4f
1a
79
7f
a4
a5
bc
82
e1
a8
30
e7
95
02
40
6b
84
c7
d8
81
3b
29
9a
a8
73
c6
e0
11
54
e4
f8
fa
60
e5
0c
1c
2d
25
e4
0e
00
93
47
74
bf
a7
19
04
2c
67
94
5e
54
45
75
b0
5b
d9
0b
13
02
09
b1
5c
0d
31
26
e7
03
35
f1
2a
8f
02
bb
6e
aa
ca
69
bb
26
04
89
66
49
c8
ce
08
5f
03
45
4f
a7
8a
1e
13
29
e9
21
35
df
5e
ca
de
5a
4f
52
0f
1c
40
30
10
23
ce
d7
7e
57
ef
01
49
b1
a3
05
9d
d7
b5
01
ae
f6
4a
fc
06
ed
56
13
38
36
15
37
d8
d8
1e
e6
4d
0c
e0
7c
25
20
d7
f5
f5
55
4d
f3
98
ac
dc
9f
de
64
e9
6f
58
41
ef
61
99
d5
f8
cf
6a
f3
28
08
9f
86
7c
78
02
15
5c
7d
c4
ed
a9
ad
3d
d4
11
66
4e
81
b5
5c
ea
d2
4d
99
a1
e7
a7
77
2c
74
99
2f
e9
25
3a
2c
53
84
6e
92
d5
23
da
a8
f8
05
25
f4
c1
23
44
dd
6a
11
87
d5
74
bb
fd
d2
3c
48
cf
de
27
92
09
5b
3a
18
50
e0
d7
06
bf
37
b4
4b
26
16
a4
8b
3f
92
3e
99
ce
7f
cf
38
a2
24
aa
0c
2b
3a
88
1c
87
59
fa
d2
c9
0b
4d
ce
32
e4
c7
03
2e
47
7b
6f
1a
ca
9e
88
bc
ef
2a
86
49
ca
95
3c
c0
4c
23
c3
37
5b
50
57
b1
99
13
ea
6c
27
02
ea
d1
28
a9
d0
39
85
e5
98
eb
f9
97
7a
6a
87
60
5c
82
4d
c7
64
d6
8d
d7
ca
2c
e7
2a
a1
50
66
1c
1d
d2
20
1a
43
1c
0b
5a
8d
18
1a
d1
6a
be
38
c2
50
15
53
5a
0c
a4
8e
0c
01
17
fb
cb
74
8b
53
cd
8f
00
f2
27
d1
45
4c
34
cd
14
9d
b1
a4
31
e6
d9
5c
22
3c
a5
c2
ab
f1
17
97
fa
ea
a6
80
0b
d7
a7
0f
1e
0d
b2
59
93
43
cb
ba
4e
14
85
e9
cf
b2
27
c1
c4
f3
a1
a9
9d
fb
71
43
c3
ac
91
24
cd
33
3a
80
6e
52
8d
6b
6e
f9
82
93
88
ab
d4
db
dc
13
71
36
e3
b1
76
bb
49
4a
c2
dc
f5
81
eb
b1
e2
71
b9
bd
9f
6e
b7
b3
b3
50
17
62
98
c1
88
6c
1f
8f
59
8a
4d
b5
58
18
d9
b7
10
3b
81
57
a6
35
ae
2a
4d
2f
bd
80
c1
1f
b9
3f
ea
7c
d2
2b
c2
13
a8
82
e9
6a
13
7f
2e
5b
38
0d
57
57
fb
1f
22
f0
0a
d1
ab
de
d2
68
63
47
45
ef
3a
c6
b8
be
bd
ad
ad
5b
13
b6
d0
a7
90
6f
e3
74
0b
f6
ed
6d
9f
b4
16
09
95
5d
80
f3
a8
c0
a5
85
d8
21
ee
45
8b
bb
33
21
24
fb
ba
8e
e0
56
04
72
77
81
c5
63
2f
37
b0
27
e4
51
90
da
e9
2a
5c
bf
ef
33
f9
eb
49
75
f5
a7
18
3a
2b
25
37
a7
b9
e1
a1
d9
7a
de
18
4d
d8
ab
53
70
e7
6a
14
79
1c
51
9a
8a
9c
57
69
2e
72
08
4f
fd
21
61
05
f9
dc
d5
4f
4d
13
aa
ac
53
ba
dc
4f
d0
2f
0d
e1
61
1c
30
6b
fa
8b
fa
ed
77
f4
05
c2
bf
09
f2
b4
ed
8d
d7
5f
38
40
46
f4
67
36
07
46
21
a9
30
06
34
be
d1
2f
e9
2c
c4
2a
e1
93
d5
56
70
9d
ae
59
a9
38
cb
47
c3
9a
96
f9
9e
f5
7b
9d
60
10
df
07
3c
ef
48
09
b2
be
3d
55
69
13
4a
7e
43
03
d1
f5
c1
94
48
ee
a7
41
f2
8d
e0
bf
8c
d8
73
0f
21
47
a5
d1
ad
43
e6
f8
b6
65
ca
25
5e
31
fc
1b
e2
8b
41
38
02
9c
bf
3c
a6
59
d6
64
9d
9e
03
20
c8
cc
43
4c
f2
15
5b
f5
b8
32
5e
63
0e
8a
b4
ea
f5
7c
3f
36
37
49
55
18
49
b5
51
5e
ca
67
56
05
40
d4
bc
8f
d1
4f
29
d0
af
ac
e3
0f
98
9d
a1
b5
e5
df
89
33
b8
8b
54
83
f3
e3
b2
25
09
28
d2
f6
10
98
61
56
aa
e2
b1
fc
45
9a
6d
d3
2c
63
34
79
1d
3d
b6
1c
09
1e
cb
9c
c4
35
cb
5b
a9
4b
31
7d
8c
94
a7
c1
80
fa
b5
55
6d
5f
25
4b
d2
e4
0c
eb
2e
18
e4
e7
da
0b
52
b3
1d
1e
a0
a7
23
68
17
12
cb
33
df
ab
8d
df
59
60
1b
e8
9a
9a
e9
ec
5f
d0
86
53
de
df
44
f4
b5
39
51
7d
39
a7
3b
39
4b
ce
26
b6
50
20
b0
64
cf
a8
55
98
af
a1
5c
71
33
20
23
81
02
b2
44
31
5a
04
e0
59
26
89
71
c4
91
e2
a5
8a
de
c7
0e
50
63
0e
0f
1e
af
19
e0
95
dc
9d
95
b5
45
06
a4
ed
b3
5c
63
3c
63
ce
5c
8b
62
b0
5a
06
9c
c3
e1
a9
b2
94
21
62
ca
96
f7
5d
78
cd
8d
dd
38
f1
a4
74
3f
70
dc
a1
6d
bc
c1
ed
34
86
57
80
9a
e7
a4
2d
48
57
79
b2
bc
83
55
8d
1e
27
76
78
5d
ad
72
5e
55
be
56
a0
ef
bb
f6
e0
ba
89
8d
b4
04
c7
e0
78
ae
3c
4b
ef
06
cf
30
c6
c6
f8
99
d3
8c
31
e3
1b
ef
0c
50
c3
f4
e1
8e
e2
51
a7
1b
5b
80
60
61
c4
fe
74
5d
09
f1
0f
c7
b2
24
48
22
9a
1c
21
86
f7
3b
25
9f
62
75
dd
a2
5c
69
03
ed
e3
8f
50
5b
3b
00
e6
c6
9b
59
22
40
5b
ab
ac
03
fb
0e
21
4e
b1
4f
a3
3b
25
33
38
48
e7
82
39
15
c5
94
95
47
33
39
af
de
17
07
5e
23
94
fe
d9
3a
64
69
56
1a
2b
14
3b
83
76
d8
40
e6
a8
3e
85
3a
31
69
21
c8
03
24
29
b5
6b
36
8a
cd
17
8f
0b
5d
60
2d
3c
43
e8
f4
f3
c2
57
57
c2
79
0b
af
09
68
a1
cb
4b
7b
7f
38
5b
c0
9d
5e
65
63
f9
d9
9a
b1
b3
e5
3b
05
34
0f
89
a9
d7
98
1c
10
6e
a6
d0
b2
b0
be
64
a2
b6
53
51
61
36
ee
c3
8b
d1
f7
d0
b2
e7
18
4c
95
49
d1
43
b9
1f
9d
35
c9
f3
45
12
4c
05
f1
e8
fc
21
eb
42
c0
9c
2e
ce
e0
0b
ab
71
e1
f0
0f
4c
31
06
f3
b7
2d
ac
df
ad
1d
77
da
d3
fe
2a
ba
33
e3
81
28
0b
7f
d9
e4
65
d0
b2
ea
35
14
ab
e4
54
24
9f
52
a4
8a
6d
08
9d
f0
08
b4
22
05
15
43
58
d5
7d
8d
3a
92
b2
f2
90
e2
78
cc
dd
90
85
19
76
71
b2
b8
19
5b
84
96
99
00
a6
1f
19
e6
4f
bc
97
d7
7b
35
cf
ed
da
bf
86
cf
31
88
14
60
d7
34
d2
5f
59
1b
59
c4
46
93
ae
76
f3
83
68
b8
ed
2c
1f
fe
16
8b
50
22
59
34
b3
a5
85
33
0f
dd
22
ca
27
d9
66
f8
6f
2d
3c
e4
1a
8a
a0
a7
56
c1
38
c6
4d
c5
3b
27
d7
45
15
00
62
9b
56
88
4b
8d
09
64
2f
bb
43
c4
1b
af
f3
d7
0d
0a
6b
eb
76
43
45
89
f3
61
41
f5
24
97
b9
e4
8c
d8
fa
0e
6a
c1
fb
85
9e
e8
95
ed
3e
d8
fd
99
78
c5
51
0e
b6
ed
9f
c4
6a
a9
39
54
0d
e1
b5
86
49
4a
3a
84
a0
23
3e
dd
4f
98
07
79
e7
f0
0f
da
ab
02
b8
a5
e3
1c
78
23
25
82
27
2b
04
a7
4c
fe
6d
a0
64
20
7d
ed
f2
73
25
e1
1c
7a
ca
86
2a
d2
22
1b
8c
09
4e
e6
46
1a
dd
fc
13
66
e7
84
03
5a
00
d5
b3
97
13
ec
d6
bf
60
32
fb
2e
36
08
53
d1
d1
f0
80
7b
80
fc
2a
09
48
6a
c5
fb
68
dd
76
92
5c
e9
bb
77
ec
58
31
5f
bf
15
d7
f5
d3
72
7f
48
81
ea
c7
10
15
02
1e
de
d8
0c
bd
db
cb
97
b3
5b
5f
aa
4d
5e
e8
02
4c
4b
1f
2e
49
32
8d
85
00
53
1f
6e
88
c5
a4
0a
bc
28
0a
2e
71
9e
20
4c
05
9a
27
06
0c
59
5a
8f
5c
09
49
7f
45
09
35
6d
92
c0
13
e0
d8
17
fa
d5
59
00
52
39
2e
1d
d7
66
94
cf
b6
07
fc
c1
39
b0
fe
6d
c2
60
4e
19
55
d7
71
6f
b7
4c
57
87
61
a2
3d
86
83
d2
d2
20
fc
31
f4
d6
1b
38
3a
75
48
15
ba
72
e1
68
c8
8a
e3
a5
23
2a
4a
77
c9
8b
e2
64
68
5c
4b
3a
37
c2
08
ec
ac
bd
b5
6c
2d
d1
58
e8
c4
e1
5f
7e
fa
e8
64
0b
88
b3
ad
eb
6e
f7
bd
0f
a1
64
f5
4e
34
72
4b
b1
f3
2b
c7
c4
66
fc
f4
ab
70
67
d8
62
3e
67
8b
15
77
2e
9d
c9
95
42
45
9f
6d
2b
d5
94
ac
d7
42
d9
10
1d
82
13
0d
39
98
1a
4f
7a
e1
b2
b5
d0
03
60
0d
ee
8a
2f
4c
9d
24
91
50
a1
6a
5e
d8
ad
80
97
95
9c
cf
85
90
23
65
d8
b9
0b
1b
8d
19
16
b2
3a
9b
e4
0a
d3
20
28
a8
a1
d3
f1
a9
e3
5a
b2
b4
c2
9e
24
b4
f0
57
3b
ee
c9
d4
bd
42
b8
43
5e
fa
ef
8d
4d
e0
1e
c0
a6
6d
dc
85
23
b5
ec
02
f0
46
07
f8
d5
3c
ca
95
cb
a7
9a
a9
c8
bb
f0
d8
ec
63
9c
08
53
de
ba
4f
58
ca
51
d9
ee
fd
3e
20
81
12
e8
d6
d5
65
9e
f3
de
81
b1
2e
d4
12
5d
28
97
ce
e3
e7
6d
8b
f6
d5
ce
d7
25
1e
41
b3
55
df
b1
67
a6
44
e7
cb
df
a1
76
b6
44
cc
80
63
65
1c
83
78
b2
f7
26
03
67
ed
9d
68
b9
87
d2
e3
cb
f1
52
0f
25
d2
55
30
41
2c
5d
a4
3e
0d
3a
d1
59
9e
18
ae
b8
d2
11
e4
ab
80
15
f0
65
7f
e4
39
77
4f
1f
fa
af
ae
e2
01
61
0f
ab
24
7d
fa
3d
ce
f3
0a
72
43
4e
42
21
90
06
2e
51
f7
f3
5b
5b
a0
42
41
2d
fa
00
11
b1
67
10
0d
25
6b
7b
29
2a
cd
7c
fe
d2
5c
41
fe
31
cc
fa
99
56
af
4a
57
a6
e4
b6
11
22
29
8f
b7
f3
68
21
99
9f
86
34
93
b4
18
6f
c1
66
57
8c
ab
f9
b4
89
19
d8
6f
88
c9
ad
7d
e2
1d
f9
37
9f
fc
c8
a5
c2
08
aa
b0
09
09
fc
d9
4e
59
c1
71
c9
66
63
cc
cd
8e
03
fb
55
b4
0b
b0
0b
a4
3d
66
a8
18
79
68
3a
43
b3
fe
a6
f1
89
7e
ae
87
2d
66
16
e1
b7
c8
93
71
80
56
bb
59
c6
81
61
75
f6
73
5e
b6
d3
e8
7d
b5
52
b8
fb
ba
5a
ee
f9
45
aa
15
e7
e3
c7
0a
b1
ca
23
56
1c
47
5c
a6
62
83
70
13
ce
05
b5
c2
7e
82
1e
ec
12
ea
9d
ec
44
b9
28
a9
7b
8a
a4
81
71
a1
1b
e4
01
96
42
9c
98
9e
62
f4
ec
0d
57
15
0d
7e
3a
ee
9d
4c
da
40
1a
63
0a
aa
4e
87
1a
d6
bb
17
ab
b3
2d
d8
df
4e
d2
00
8e
9a
0c
10
6d
8c
44
67
82
73
73
6f
1f
35
08
20
ea
cf
94
57
5a
c3
e5
2f
ee
2a
67
87
cb
51
76
ef
2d
c3
ea
59
54
fd
bf
02
e5
22
f5
55
0b
d0
11
3f
28
ae
1a
f4
ea
ea
b1
18
86
b0
d6
bd
2a
d6
2a
aa
81
d3
0d
e7
92
0b
b8
e0
e9
25
b6
26
4a
ab
93
40
5f
46
1a
eb
34
f4
e1
be
ae
7d
2b
82
ec
72
b5
20
1d
80
c0
f1
be
1e
f4
69
33
73
df
37
a8
cc
6f
ee
19
7d
12
5b
59
fd
16
1d
39
fd
63
d3
5a
34
15
da
2e
cc
0f
33
1c
e1
52
32
77
44
b3
60
c4
66
2b
f5
8d
1b
01
8b
50
ce
e7
99
e4
4a
35
9e
00
5d
89
c9
43
e7
6e
66
f2
e7
66
56
04
8f
2e
0b
8a
b9
52
d0
1e
3d
fb
9f
b1
40
85
8d
6e
2d
89
12
99
e0
3b
46
11
3c
27
4e
0a
7a
38
d2
c8
46
08
4f
78
68
3f
e3
21
6a
00
06
bb
c2
f2
05
82
a1
bd
56
bf
e8
25
2f
49
58
24
ee
ee
c3
4f
17
88
4c
91
87
b4
8d
25
2b
a9
17
0d
6b
0e
a8
db
61
fe
ac
d1
2b
17
16
d3
17
e3
c1
5d
b7
07
70
92
83
06
9a
a0
00
5c
dd
8b
9e
13
7b
d4
27
ae
2d
27
6a
5c
4b
b4
42
23
e9
d3
eb
b1
6a
e7
0a
e9
e3
e5
eb
96
9d
ce
d4
40
74
f2
64
6d
3f
4f
62
3a
92
c5
83
ba
1f
a5
fb
9b
83
27
6c
f6
2e
46
d6
af
5e
bf
4d
77
b5
25
e2
8f
4e
a8
68
56
19
02
1c
8b
6a
1d
bd
56
67
49
5b
e7
09
b3
be
2c
63
a8
7b
67
07
2f
fe
4d
2d
2d
99
ec
66
cf
07
71
39
e7
8a
43
c0
13
ba
81
57
02
6e
25
10
cb
ab
c2
bd
bc
1b
9b
87
59
fd
d0
fd
18
49
65
a3
81
5d
7c
bb
bf
16
b2
49
5b
32
98
e0
e0
d2
84
36
f1
65
5b
16
13
40
25
b1
52
5b
d8
30
6d
f3
03
d5
2f
28
2c
17
83
e8
05
2a
ea
e4
cf
ca
6f
de
d1
35
04
10
0a
84
44
94
37
19
72
ad
a1
b6
74
40
85
94
29
93
50
f2
6a
db
ab
2c
1d
0b
04
35
3b
48
4d
d0
6c
6b
91
4e
8f
fe
38
5e
09
9e
77
0a
b4
50
af
3b
29
26
73
9e
84
3d
3d
2b
c1
7c
fb
02
48
b0
bf
c8
eb
65
da
59
3d
03
5e
e8
30
91
ce
a8
9c
0e
ea
70
6f
c6
a0
68
dc
c8
09
c8
fd
d2
9e
26
18
d8
fc
a2
1b
03
d8
d5
36
59
04
f8
3d
29
cd
0d
97
65
d8
4a
d3
3d
e8
07
91
64
56
5b
46
b3
1e
f9
d3
1a
27
48
f0
39
b6
c3
7f
d8
ea
19
3f
46
3d
74
90
f2
fb
2c
bd
ec
1e
ef
e6
88
d5
6d
67
e3
63
28
ad
8b
f5
73
24
93
42
61
1c
90
d3
d7
98
93
91
a4
93
64
d5
36
00
1f
f5
db
0a
cf
0e
43
0b
b3
38
e2
0f
cf
8a
83
d5
48
59
49
86
57
81
92
f3
20
18
e9
06
8a
da
ec
89
f4
b2
0e
96
f7
a3
a3
de
61
37
11
5b
7e
4c
c7
73
bb
66
59
46
ed
15
29
44
31
fe
92
15
be
b4
36
8b
c0
b1
60
45
58
e6
12
88
49
e5
c1
4e
d0
96
b3
0d
7a
09
5d
96
cd
02
9d
4e
f6
a2
e6
32
67
65
0a
2a
82
1b
0b
87
58
ab
32
01
61
d0
1b
ea
e7
2e
2a
0c
48
42
5e
db
a3
8d
69
55
a3
ce
38
13
0b
44
a1
f3
cc
70
94
f4
c5
04
c5
3a
70
11
74
ac
f7
c3
45
e3
9c
50
4d
51
b9
54
78
79
85
af
12
7d
76
59
75
07
5e
79
f9
ef
70
2c
e3
b9
50
d3
c7
ab
2f
23
5b
26
e6
92
2d
56
18
3d
a8
37
35
8c
32
b3
bb
9f
06
8d
c5
9a
2e
d9
af
4a
82
26
b5
96
7d
56
67
c4
96
79
bd
f7
11
6b
8e
94
f7
af
d2
80
da
a7
0c
98
d8
36
3e
94
df
d0
54
dd
5f
07
65
43
da
94
5f
b5
f1
4d
20
a8
12
d0
99
79
10
0b
0d
b1
6d
88
ed
6d
af
4c
f8
9b
53
3a
1a
20
fd
5b
c9
3d
77
9b
f7
fa
57
e5
e4
d8
58
f4
5a
1d
c5
20
16
4d
62
68
db
b6
0c
3c
e1
ed
d5
da
95
a9
26
84
2d
04
99
75
ce
6c
50
ef
a4
e3
71
0b
1a
95
0a
0d
44
fd
cb
d9
da
91
ac
9c
8b
b2
e2
fb
e0
d2
1a
d5
94
a9
1c
d8
b8
b4
8d
0b
df
c1
10
6b
c7
a3
b8
6e
ba
de
52
e7
3a
7a
b0
b7
da
0d
af
c9
39
87
c5
b0
45
01
d1
ef
08
4a
12
73
3c
f6
0a
de
ae
62
42
b2
28
fc
fa
18
52
ec
ee
da
63
52
a6
3a
69
4f
1f
00
8f
54
ae
69
6a
98
55
43
5c
2c
03
60
02
d3
30
92
9a
51
6c
f2
80
85
11
d9
0a
bb
11
28
3c
06
f9
8d
52
5f
d7
d2
44
ab
db
c2
e3
29
fc
64
07
35
9e
c9
cf
42
b2
11
e9
32
5e
2f
ca
78
52
e0
9a
19
dc
a9
bd
33
5a
2f
44
c2
f5
1c
67
17
f4
29
4e
06
9a
ae
26
31
a9
27
cc
7c
45
5f
6e
fb
12
69
45
fc
16
f2
70
18
0f
21
1d
f9
fa
f2
41
4c
f0
81
1c
55
8c
58
4d
dd
f3
f4
dd
c1
29
d6
4e
3b
3c
ce
5a
1c
83
91
4e
28
ba
3b
db
db
00
71
87
88
73
25
c3
88
6b
21
a6
c8
e0
86
31
43
43
32
cd
31
68
63
a9
28
6b
34
59
67
fd
d7
af
9c
c8
3f
d0
8b
33
f3
8d
7b
57
40
8f
5c
22
0e
57
8e
bb
52
6d
50
bf
7a
8c
fa
1f
34
66
77
c8
40
da
e1
c9
56
08
73
27
2f
d1
40
bb
55
82
27
b4
61
ec
8c
85
65
9c
1a
e5
76
6a
65
64
b6
bb
8d
e1
64
dc
51
23
32
ba
2a
f3
46
42
57
60
9b
3e
3f
b0
74
4f
8a
b8
b5
ab
0d
bf
31
25
3b
7c
a8
57
f6
25
50
c6
d2
c6
1d
0a
b9
36
a5
25
67
fb
4d
4d
77
67
43
cb
a4
d5
cd
45
a7
65
52
e7
9d
c7
60
e2
1f
24
64
4c
23
46
b9
f2
af
43
b6
1f
f8
01
bc
d2
47
96
72
90
de
25
56
44
7c
85
3d
af
0e
74
8d
59
c5
ef
3e
8b
d5
11
3c
26
1c
75
4a
9d
bc
0e
f9
97
68
6d
2b
a2
f8
1d
45
a7
d3
16
c2
33
27
5b
d6
d7
ed
94
a0
d8
55
a9
80
19
cf
c9
86
6a
96
e9
a8
d1
ec
12
ad
f1
26
10
96
c1
e6
ee
11
10
f0
7f
76
86
02
27
be
41
ce
9a
27
a1
6f
56
e9
46
4e
f9
1c
a5
79
5f
d9
65
10
7a
57
69
ce
98
4d
22
85
af
b3
b3
cb
89
b1
c5
ed
69
bb
d0
f8
0a
90
39
4b
ab
1d
73
f0
4a
e5
68
58
4b
8a
a8
53
48
ad
54
19
a1
4d
01
49
b6
1c
ea
7c
7b
7f
71
bb
c4
6a
91
b4
41
a6
da
ae
d5
f7
38
a2
a0
02
05
21
84
6b
59
b7
0d
c3
9c
5b
8a
99
02
c7
12
07
dd
8e
26
3f
16
75
37
47
c2
22
15
a4
14
45
0c
53
f2
6a
db
fd
b1
62
cd
99
b9
59
9a
8a
0e
3a
f6
99
bd
8d
89
60
a3
3d
ac
5a
12
65
9e
5a
a9
94
fb
3d
ea
2b
0f
20
35
66
37
6e
46
71
95
19
6c
99
b7
40
6e
22
5a
b8
69
c0
54
56
13
9f
1f
9f
f8
23
74
f5
5a
ac
5d
ce
69
65
27
b0
cf
86
c2
c4
e1
9e
b2
02
51
8a
84
53
ef
63
64
f3
b6
54
d5
47
77
d6
d5
7d
09
33
c0
40
8d
93
58
fa
07
b8
b7
61
35
15
34
7f
0c
a9
f7
74
01
0b
d1
ee
76
5e
e4
cb
c2
64
8a
ae
b9
61
e7
3d
c2
73
83
e1
9e
19
ad
38
a9
7c
60
25
a9
87
40
f5
fc
ce
5a
3b
ad
1e
21
31
66
2f
74
68
85
c1
a8
04
73
8b
e6
f4
f2
07
04
be
d8
5d
9a
07
97
96
4c
69
5a
39
41
d1
20
9e
f0
c8
aa
c3
50
69
72
9f
f2
be
ad
60
54
e2
6d
e2
d4
4e
b1
3f
23
f3
97
b4
08
b0
0e
2b
66
2b
55
f1
07
2c
4b
cf
92
aa
e5
43
fa
36
81
88
79
e3
b8
15
4f
b8
92
6f
bd
ae
65
af
df
58
e6
3a
f8
06
b8
fd
1f
a5
50
ab
fa
e6
49
89
63
0a
33
f7
b7
c2
d9
c6
e0
2f
a0
f6
9e
e9
f1
56
af
29
65
d3
db
1b
c1
12
dc
89
03
26
39
a9
3c
04
a1
3b
ec
4f
2e
8d
c8
fa
22
89
da
b3
01
e6
74
5f
d6
7f
d8
70
05
eb
de
42
d6
4c
50
a8
7f
ac
00
45
b8
a1
cb
af
d8
40
c1
54
08
90
22
3e
57
9a
84
11
1d
82
c8
db
34
eb
ab
a3
0f
a1
71
19
f6
08
46
cc
99
47
b0
5f
24
3b
57
6f
c3
29
d4
25
bb
b7
0d
02
04
49
79
73
00
d1
ec
1d
22
b4
b3
a1
96
75
41
06
45
03
e2
3a
d6
a1
d7
a0
f5
9f
18
5e
3e
fb
c5
ca
e2
3e
b5
1b
6e
d1
e8
5f
b5
1c
14
27
f4
e3
2b
45
06
c7
38
65
9a
51
7b
fd
25
bf
dc
48
cf
2d
2d
b8
c9
08
3b
94
09
5f
b3
ef
f8
c8
9c
84
8e
e7
fb
77
7f
81
a1
bd
fc
bf
bc
3b
34
7d
5d
74
84
93
8b
1f
ec
01
6c
17
ca
8a
20
5a
2f
68
c7
fe
72
8b
51
1b
2f
ea
1e
6a
b2
8b
b2
32
72
12
88
80
f7
49
80
71
7d
9d
a9
4b
7c
13
1d
2d
1f
0e
d7
63
e3
7f
5c
bb
8f
83
1c
fd
35
6d
45
9d
56
af
d2
73
4d
e8
a3
31
3c
9c
b0
13
28
cf
3e
42
2b
f6
bb
79
65
2e
01
78
c4
f4
d1
4b
76
ce
f0
ce
54
34
40
2b
75
bf
78
98
d8
80
5a
61
e5
3c
57
b6
21
4a
82
bd
8b
fa
e9
79
ec
a7
cd
59
ae
7e
c5
26
17
7a
df
8e
7e
4e
3e
35
74
ce
f3
87
95
db
20
ec
85
83
87
07
ac
45
bf
d9
00
01
42
aa
4a
54
50
d6
95
d2
c7
62
83
d0
5f
1f
2b
36
96
40
f1
6c
83
89
a4
85
89
71
46
b3
6e
65
4d
60
68
93
6d
bb
27
94
92
88
6c
23
97
12
4d
72
01
40
e4
51
d1
be
3a
38
01
bc
5e
3e
1e
0f
14
14
75
be
19
b4
3c
8f
30
a7
66
31
05
f9
71
d5
93
a4
f8
da
7e
11
5b
8f
c6
47
73
ed
e3
23
a7
73
c6
07
64
e0
dd
a4
90
24
f8
37
56
05
8b
42
3f
39
80
4b
ca
13
e3
1c
ed
d5
e5
9f
25
c1
03
ad
c2
58
f2
cc
6b
b6
0e
db
b7
42
ed
30
a2
1a
ba
73
8b
28
dd
91
04
09
73
0a
ce
16
a7
93
8e
88
41
ea
83
71
ee
62
2c
b2
76
ed
c4
47
4d
d5
11
0c
fd
63
42
5d
ef
06
b6
7a
67
9f
f0
65
41
d1
bb
5e
5b
6b
c9
84
43
12
6e
fc
ac
be
c5
bb
a7
c7
c7
ae
b4
10
4b
d1
ec
2e
0a
d8
ca
03
52
e9
e3
99
85
6e
3d
2a
f0
20
e1
2f
71
9c
0f
98
b4
6c
8b
23
54
ad
ee
4d
58
72
28
52
3f
6f
93
07
62
85
e4
b8
02
8f
2c
26
63
17
61
9a
01
d4
54
a0
f7
b7
79
02
6f
0b
92
7f
d1
08
69
da
42
5b
0f
81
ae
a5
8f
c7
d1
2a
2c
48
9f
a7
92
7a
1e
47
1f
e4
c0
e4
fe
ea
e4
b7
b2
e5
a0
56
52
68
0c
11
2d
43
8b
89
3e
04
f9
70
c1
2a
9f
75
cd
a7
31
c0
f8
14
b3
65
c8
03
c5
49
3b
b9
65
58
fa
4b
ec
19
c6
2a
e0
49
d1
00
ca
5f
19
15
10
a9
46
87
e3
1a
c4
3c
38
56
f0
dc
cc
3a
d6
fa
e4
3f
b1
8f
5f
b2
a4
33
84
7f
17
5b
7c
69
4b
ba
78
2a
74
d2
2a
1b
38
8c
3f
86
ba
b7
ac
7c
9a
55
c7
00
67
03
7c
8c
ac
80
44
bc
e6
07
dd
6d
1a
30
c3
9a
03
bb
e7
59
c3
43
2f
87
9f
66
69
7f
18
a1
e9
0e
a3
3f
03
a0
58
f8
6b
92
51
e0
d7
f6
0c
2f
48
2c
af
ac
58
1d
d2
85
75
40
ba
f2
2a
99
74
e6
c0
32
84
4e
d7
d5
e5
bb
8d
bd
6c
0e
65
7e
1d
00
7b
28
f9
04
69
8d
84
4f
e3
2a
e1
59
57
5d
df
c7
ab
83
f0
5c
fe
b5
c0
1a
3e
11
7c
72
d4
42
fc
d7
72
9e
56
1f
d8
50
7e
1e
78
78
0c
0b
c5
8b
e6
fb
4b
7a
1a
a1
50
3c
21
66
68
11
90
45
51
ee
f8
80
4d
c9
f9
d4
81
b5
22
81
38
08
d8
87
13
96
e2
11
c0
57
76
7b
b6
9a
76
d7
81
d5
80
8d
fb
fc
a3
9a
bb
19
f4
6a
26
82
a9
c8
e7
b7
d7
2f
41
04
0c
e2
38
66
0d
9d
aa
dd
64
48
d9
da
9b
7b
2e
e7
ad
7a
38
d4
fb
a3
d1
75
39
37
2c
59
70
89
51
42
d2
f0
a4
ef
c8
2f
30
d9
76
e6
6d
80
8b
07
c4
5a
84
bb
d5
74
ef
e5
21
88
58
b9
90
27
63
12
3e
19
70
d5
03
43
94
6c
56
d2
c2
0f
57
a3
66
ba
48
35
38
34
03
71
e2
8f
10
6e
a4
e7
e7
a8
47
da
09
f9
59
6e
85
51
61
a4
3d
9e
c1
f7
9b
98
7b
33
3c
d9
7a
82
32
ae
8d
08
da
75
1a
b1
39
6b
32
9d
ee
52
99
13
25
a8
bc
6c
15
86
35
ba
fa
63
f4
f8
e4
06
4a
a8
e6
62
36
dd
3a
88
27
d9
97
b6
7f
e3
41
9e
65
b4
79
e3
2b
cb
4a
df
40
96
91
25
9c
bb
85
dc
e0
fd
1e
c2
b6
96
2d
13
f7
ed
d1
9e
da
94
d1
60
cc
f7
f1
c3
12
e2
f2
05
ce
1d
44
04
79
b4
46
69
53
fc
d2
df
6e
5b
97
a0
f8
a6
f6
83
32
56
8f
8e
4b
55
02
2e
ee
8a
e4
77
d9
da
84
42
20
d7
4d
b1
1e
c7
82
99
72
95
f9
9a
a4
33
97
d9
6e
df
12
13
5d
e9
20
ee
34
77
8b
09
08
bc
05
e8
04
bf
66
2b
72
e5
ac
31
e0
7a
da
57
b3
00
d4
91
63
08
6c
96
51
9e
66
eb
89
5e
03
c1
d0
0b
94
4c
05
d1
e4
43
0f
27
35
0f
73
79
7a
1f
19
7e
f2
24
0f
6b
31
2d
f9
c3
36
fa
c8
34
8a
46
4e
42
6d
fe
52
71
8b
9e
a8
3f
94
79
5f
1c
19
28
ad
aa
61
49
30
a3
23
85
6a
d9
af
a0
05
74
d5
21
69
ce
2f
f0
9a
bd
a5
80
2a
2a
11
73
6f
a5
19
b5
7c
6c
ae
28
8e
da
62
06
0f
f6
a7
2a
72
40
f5
ca
e5
11
9e
18
68
9c
6b
8d
88
cc
b7
6c
11
66
15
40
f7
a8
72
a4
ea
4c
69
70
85
82
37
cd
a2
88
08
65
cf
9f
f8
90
c4
6c
55
84
59
f2
66
ab
2b
05
9e
67
2e
61
ae
32
a8
0f
6a
67
7f
57
9a
e4
0f
82
71
f9
ee
38
c0
02
d7
e5
6f
44
7f
00
09
e5
24
44
91
ce
bf
6b
06
67
3e
1b
2f
74
e5
c6
86
a5
c6
e0
62
d3
a2
9e
ad
7a
ca
43
df
62
6b
af
88
fa
e3
37
39
0c
95
89
60
c5
fc
52
40
ca
d4
8f
6a
36
0d
d3
5b
4e
a7
e5
e0
70
c0
8c
2e
75
3a
e5
6f
50
2c
18
4a
6a
fa
d7
b2
cb
7a
dc
e1
ab
d2
bc
39
16
34
29
fc
ec
51
a5
96
8a
21
1b
bf
d9
aa
29
84
b4
da
1d
fe
60
c0
5c
f0
51
fb
24
fd
53
e0
b1
c6
71
7b
6b
58
96
1c
bf
36
3f
d6
46
54
24
47
e5
65
bb
5a
53
1d
42
98
9d
84
c0
e9
d6
61
e5
be
52
9f
7e
49
c8
61
03
de
27
57
8b
27
92
53
c4
f1
85
38
f7
7e
95
2a
24
77
93
3f
93
3e
af
fb
6e
63
bc
5f
6a
53
a7
b5
b1
f5
97
b1
c7
90
06
dd
82
f3
c0
12
6f
38
97
e2
cf
d2
ed
3e
af
1c
6d
52
92
5d
92
0a
1e
a0
82
70
0a
ac
c1
65
fe
22
aa
e4
cb
98
9a
d5
b7
87
87
f0
85
78
9b
55
0d
47
88
70
87
09
4a
3e
b9
bb
d1
fe
70
3a
0b
34
15
3a
18
29
84
b5
95
86
d7
f9
d2
67
d4
3d
28
7b
59
32
db
0b
45
55
f7
4d
8c
d6
06
12
9e
a8
3c
91
54
71
48
5e
4e
34
03
33
f4
c2
c0
27
84
b6
3d
c1
d8
93
8a
10
8f
b0
46
77
88
d1
65
a1
31
1f
81
1d
2f
7d
1a
0c
fe
63
4e
03
9e
c7
76
33
87
d2
5f
c9
11
c1
81
4c
b1
b4
7d
d0
1a
2e
09
94
a0
29
2f
c6
dc
89
59
f0
4a
e9
f4
89
91
94
32
d5
08
2c
5c
7b
10
9f
a8
90
af
a4
10
d0
a2
78
be
23
89
e0
f4
c8
c0
5c
25
bf
74
1c
9f
dc
93
d6
f9
08
7b
28
63
cd
cb
d2
32
16
05
6c
63
bc
26
cc
d0
dd
42
12
e1
e8
bd
e0
3c
f4
59
5a
2b
2a
7d
f7
9c
c7
23
d3
9b
a5
b7
e1
31
30
b4
bb
b7
a5
e0
24
d3
3c
01
47
97
a8
46
b6
dd
e9
65
37
68
89
81
c9
e8
5a
c0
47
11
e9
fa
08
74
ce
ad
80
71
b7
36
dc
25
90
f9
6d
75
bc
77
fc
1b
aa
e5
95
83
06
48
6d
40
df
0b
9b
05
dd
91
d4
97
f1
af
bf
db
cf
ad
98
53
49
15
ae
43
13
0f
24
0c
7f
f0
63
91
6a
8d
a7
3a
2b
bc
21
7f
b1
c9
06
58
95
7e
16
b3
48
1d
7d
ec
6a
bf
44
d3
e8
8a
72
aa
b6
b5
24
6f
b3
84
4a
1c
a2
91
10
a2
da
3b
89
d7
5e
f0
c9
e5
7f
43
a1
2c
d2
1e
31
ab
78
65
e9
a5
d2
0a
c1
5f
92
9f
e5
7e
95
2e
a0
30
b6
9d
34
53
6d
f1
93
d9
8d
eb
a3
8a
65
e9
7a
df
9d
df
f6
0b
a3
94
21
4c
eb
f5
2a
92
d1
c4
88
69
c4
9c
cb
f3
3d
34
f5
10
54
6f
dc
c2
f3
53
91
e4
29
76
3f
41
fd
96
1a
4e
b7
13
33
a4
4f
4c
db
3f
ef
18
62
b6
3a
cf
49
24
ea
d6
8f
62
f4
9d
87
ad
3c
fb
73
19
15
be
c4
09
ae
97
84
c8
14
db
78
69
81
47
82
f9
10
05
6c
da
59
b2
f2
46
fe
da
d4
52
25
1f
f2
cf
a9
38
7b
26
d1
5d
95
be
7f
6c
30
55
bc
fa
c7
b9
5c
c8
5e
6b
03
bd
54
0e
a9
68
7c
6b
ef
d0
37
c7
68
94
bd
cc
c6
54
fa
18
8b
d4
a1
a9
83
60
67
54
9d
77
11
eb
0e
96
b7
56
42
8e
de
8c
06
62
1a
87
c9
2c
ce
c2
01
b2
a6
78
30
8b
fb
43
0d
6a
c2
2a
c1
28
b4
cd
0f
eb
9d
83
9f
8a
5f
42
1b
31
97
13
6b
06
6d
f6
4b
47
1f
e4
68
49
31
3d
ec
5c
8c
37
7d
d5
19
80
18
e7
d3
07
9b
13
0b
1d
de
b1
b3
70
2e
9a
ee
b9
9a
90
63
5a
9f
01
ca
de
b3
d2
31
61
bb
81
ce
19
59
a2
43
8d
20
60
15
e4
b7
43
c7
c6
94
09
73
4c
5d
b4
a8
db
9c
fe
e9
e5
28
b9
5a
0d
96
6d
7e
1b
e6
94
7b
14
fa
08
18
60
75
72
8f
78
f2
dc
b4
fc
1f
d6
82
ee
ec
f2
9c
61
e7
c8
85
7a
5f
a7
09
5a
39
46
c3
d0
19
93
cd
44
74
67
18
15
9e
50
21
81
54
f7
8d
aa
cf
1d
c1
e0
7b
5f
8a
e0
50
62
96
67
12
82
f3
3f
b1
25
44
1c
6e
da
97
5d
09
76
bf
f2
9f
6e
27
7a
ba
dd
3e
09
10
f0
57
4c
61
56
50
da
61
31
b5
0c
dd
d4
4c
22
af
9f
bc
37
f6
0f
3e
40
4b
6b
23
7d
b6
f8
00
24
d8
e2
95
31
1b
03
12
97
99
1a
78
3c
84
87
b6
fe
e3
fc
93
46
d9
ce
b8
50
6f
e8
a5
24
03
73
c5
a3
15
7d
8a
b3
19
08
45
f2
f7
a7
d9
c2
47
f6
79
e5
1a
eb
be
1c
f6
39
17
5a
21
e9
75
14
08
16
66
d8
17
e2
9a
8c
0e
d4
ea
d5
a6
ae
d8
f5
ae
1e
79
b1
e9
5c
f9
ea
6e
26
6a
81
45
ea
0b
52
e1
1b
77
47
f1
94
78
a7
49
61
aa
3e
55
24
d0
62
c0
e7
48
5c
62
28
b8
8c
58
e5
7c
75
42
07
79
8d
5b
65
c6
86
ec
bb
f8
d6
83
b5
ee
98
10
93
09
2f
df
f3
8a
a7
03
9a
d0
e6
2e
07
08
d6
28
43
e6
4c
c5
33
8f
94
93
18
4d
5d
71
b6
04
35
f3
fe
18
db
ef
7c
ec
05
40
a7
75
78
ba
51
51
75
c7
54
2e
3c
b3
2b
79
77
c5
ed
6f
f9
1b
86
11
3a
1b
78
fa
b8
c8
f5
2a
6e
ba
a4
cb
9a
68
8f
86
09
6f
1f
e5
99
43
76
7f
98
7b
36
81
3d
e9
ed
fc
e3
84
18
7a
6c
01
b3
3e
1d
bc
a8
a1
38
72
be
e0
b7
7b
e0
2e
5a
b4
60
28
04
f9
88
09
e4
af
4e
c3
8f
aa
28
ef
46
fd
67
59
18
1a
94
95
f4
cb
45
be
72
d8
3b
a1
04
d9
09
71
d4
ee
76
cd
95
ca
07
0a
ec
d7
cd
d1
5d
72
88
12
8d
b3
e4
8a
59
b6
cc
aa
c6
84
34
df
db
e2
c9
45
17
b2
8f
4c
59
2c
b7
d0
b9
93
b8
05
64
b4
4b
e3
49
21
b0
2d
53
06
11
17
cc
e8
7e
db
aa
36
d6
3e
13
1c
e9
83
98
b3
43
89
b0
15
c0
d8
56
4c
d9
8b
0e
f5
71
47
cf
93
8e
79
6b
95
ab
e1
e7
68
35
be
ed
6f
13
bb
4d
06
6c
31
01
a6
25
0f
58
7d
e4
af
a6
d9
ef
8c
ab
31
a7
ef
d7
d1
73
65
32
fd
85
13
cb
11
c8
54
9a
c9
f9
77
a9
32
a4
3f
98
b3
36
b3
54
34
3d
df
b2
57
88
81
f4
a0
e1
e0
79
90
7f
88
d9
3d
a0
55
99
91
32
54
64
66
a0
d1
bf
56
a6
f3
11
8c
f6
56
13
b6
5a
46
44
8e
83
df
a6
8c
b9
ed
13
e8
80
13
6e
ba
8e
49
61
a4
38
bd
58
42
22
19
0c
23
10
f5
70
d7
40
4a
7a
3a
53
2e
04
91
3c
e3
8e
0c
15
05
53
2c
53
63
5f
32
e5
6e
ba
2d
7d
ee
f2
28
55
68
43
80
94
ab
f6
4f
83
28
a9
0f
fa
1d
fc
c8
42
1e
e0
58
d1
38
66
80
8a
9d
63
bc
34
c7
3f
14
47
12
fc
ee
a2
0c
9e
18
7a
04
0f
3d
01
b2
b3
28
3c
5e
d3
70
37
a1
c9
fd
34
29
81
ed
62
94
a3
c7
85
1d
11
60
10
a1
7a
cd
96
42
da
ea
c5
3f
c3
4a
e6
c8
4a
f0
88
d1
ce
ef
ad
da
8b
8f
8f
28
5f
93
17
de
66
0d
a8
79
4a
1a
31
32
a8
64
5b
86
65
17
f3
1f
40
62
b5
e2
2c
1c
af
9c
81
cb
fc
98
aa
80
ab
10
66
35
f6
c6
53
ba
9e
ce
a7
f6
f5
fe
db
b2
58
8a
40
48
51
5f
26
45
54
21
e7
5d
ea
c1
a1
3e
d3
ea
b8
15
e0
65
8e
f0
49
90
48
ab
86
e6
a6
73
18
19
a6
94
bf
a0
54
4b
bf
06
22
8f
7d
4e
3a
b2
a9
a1
f6
64
c5
1e
97
d5
60
c8
40
f8
e9
09
bd
a1
8f
89
1d
d8
aa
9a
8c
cc
3a
d6
85
1d
45
ec
8e
1f
21
21
bf
a9
9a
a0
a0
30
47
14
d0
69
97
d8
bf
d6
f9
10
11
08
b5
8d
7b
68
86
b6
42
a8
fe
7f
3d
c3
18
67
4e
73
18
51
40
f4
4a
ba
6c
b3
2f
49
3d
cb
50
30
3b
5a
09
f4
9a
19
bf
1e
9b
05
9a
3a
f9
18
85
22
02
b7
b0
be
a7
aa
e8
88
24
54
e7
db
0c
27
3c
c6
24
5c
d8
2b
10
93
b9
94
c6
0e
02
9d
61
e3
f8
47
11
3e
71
6e
7f
f0
e2
11
33
02
51
26
88
b5
76
e9
da
62
3e
9f
33
4f
af
c6
13
15
98
1b
00
c6
c3
e9
64
37
d2
7a
6e
4b
c6
9e
cf
f9
01
0d
c6
34
f9
de
65
34
af
37
9c
dc
6b
e9
a8
ce
0d
2f
72
20
d5
f0
90
4a
ef
38
ba
19
a7
5a
e7
96
d5
29
ab
e5
39
53
de
f3
89
b6
86
45
bc
a2
61
0e
b6
2f
41
08
55
37
8a
ab
fc
3c
7d
01
b8
05
b6
25
58
fe
db
fc
3c
02
92
c1
7e
58
21
a2
ea
1d
ad
3a
41
fe
69
70
69
96
28
40
9a
a8
b6
1d
96
e9
ae
33
48
f4
36
a3
7f
4d
77
7d
86
c2
81
db
d0
da
6b
60
47
6c
0c
9b
d2
93
e8
43
c0
48
c1
47
1b
4c
dd
95
d1
03
68
fa
36
ce
ce
b0
2f
35
79
a5
78
73
0c
5d
4f
2e
41
41
86
56
74
67
02
c2
9d
67
1c
bc
97
3e
5f
fe
0d
e0
b5
72
7f
ba
e3
03
53
b2
96
89
9e
1f
e1
34
1a
08
b7
74
4c
c4
f5
93
86
d1
5d
16
18
72
a1
48
c3
bb
7c
7c
fd
62
ae
a6
19
c9
6d
42
5c
e7
81
ee
8f
50
11
42
50
ed
4a
c5
cd
a9
e3
44
4f
9c
72
ef
3e
11
f7
db
d9
e6
82
b7
bf
d5
02
b8
15
1c
c9
bf
b5
45
8d
a8
cd
8c
aa
b8
c9
53
e0
c9
73
87
1a
cb
8b
26
5b
78
a3
34
3a
3e
6c
dc
5d
a2
5b
50
08
f7
96
20
2f
d3
64
75
8e
5e
73
f4
51
18
f6
1a
95
ae
9c
6d
ab
eb
62
1f
55
77
35
57
ad
a5
0c
f5
f1
0d
7c
1e
85
1b
b1
93
e9
0f
7d
81
ab
60
3d
c5
d0
9a
bb
e8
5a
3c
98
ab
e6
c1
9f
02
15
f8
67
c6
84
df
01
c2
a2
51
f5
44
8c
4a
57
49
84
99
d0
a3
c1
f2
e1
68
f1
f3
45
30
55
e2
9d
81
51
fb
16
0d
fd
d4
d2
64
16
8e
a7
2f
ab
cf
8f
cf
d3
7c
42
3e
6a
76
8b
8f
f8
34
d9
b3
4b
76
75
a1
49
1c
3f
8c
2d
1e
07
90
11
ec
b4
2b
99
7f
c6
e5
9f
cd
e7
19
bf
8b
74
1f
df
90
8f
49
b9
47
34
05
53
86
b2
4f
f9
6f
6b
5a
df
bb
e1
f3
07
6f
4f
51
ab
87
61
a2
5c
d7
55
fb
1a
71
93
4f
76
ad
3d
db
35
80
4a
b8
9f
99
bf
b3
31
30
c3
c6
5c
df
ac
93
98
ad
1e
d7
26
aa
87
bd
94
e9
41
54
1c
a6
42
8b
93
19
bf
59
89
36
fe
fc
a0
4c
b7
a9
ba
03
35
23
df
ac
33
ac
c7
a4
07
6b
28
02
ac
c0
6e
ab
1b
4f
4b
54
68
8e
e6
c2
14
90
25
4c
b7
c9
82
65
f0
b8
dc
96
83
b6
7b
b3
a2
7b
19
7a
fe
70
94
7e
6a
17
dc
5e
27
5b
f3
e0
5a
ab
40
25
ce
be
2d
36
c6
1b
eb
17
27
a6
b5
69
b7
f3
85
5e
39
2b
be
ce
40
52
f9
47
1e
63
a3
47
a1
b3
a8
64
02
12
09
6f
40
99
d3
61
2e
66
da
d1
54
17
31
a7
64
a0
d1
40
59
64
39
06
e4
27
8f
e2
14
4d
72
8f
95
ac
99
79
10
e0
9b
64
67
35
c8
71
b4
4b
3a
08
eb
cd
f6
8e
b3
da
37
a2
5d
34
96
85
22
22
bb
6a
d0
6c
b8
9b
b1
d8
a9
a9
cc
39
a5
f9
a8
c8
76
dc
37
3f
15
eb
79
72
30
d9
c6
fa
4a
f9
1f
5b
e5
b6
46
69
67
e8
8a
fc
4e
f9
2b
c8
89
41
64
1c
93
dc
d4
ab
43
99
2f
a6
db
69
b9
e6
b9
d8
64
e9
e9
27
cd
d1
75
e5
e1
1e
71
2d
09
27
63
62
d5
a2
49
1a
da
5e
4e
9c
fb
fe
72
43
f0
80
9a
a3
d7
af
76
39
2b
23
31
29
24
40
09
66
63
8a
86
f4
40
c5
5c
78
8a
1f
66
b3
46
6b
b4
c7
53
25
77
7d
60
49
75
77
f7
17
ea
2f
34
e5
3b
96
56
ad
5d
e7
7b
4d
7e
f1
3f
c1
78
33
4a
11
e2
d1
b1
d7
05
29
f6
09
1e
1c
63
dc
eb
f4
d9
6a
04
15
8b
54
e8
a4
19
c0
7d
ce
20
80
70
da
08
63
0c
7d
35
58
65
9b
0e
2f
57
be
1d
07
e1
b6
23
8c
e8
9e
68
eb
05
32
cc
02
0f
4c
f5
d6
79
1b
64
d1
7a
c6
d8
68
17
04
36
ac
a2
37
c2
0c
05
ad
46
05
3d
3f
3f
b9
cf
0e
35
81
27
d0
38
10
62
71
64
4f
cd
f6
9b
1a
55
48
cc
54
2a
9e
11
88
52
50
86
f8
e0
e1
ec
87
49
19
74
4d
89
3c
e1
e1
cc
82
f0
c3
b0
07
5f
d7
69
b9
b0
23
78
23
91
4e
2c
ac
ec
56
7f
05
0a
38
9f
23
c7
c2
e5
ce
f3
9a
6c
8b
c3
1e
8b
b7
61
09
6e
fe
ab
45
82
51
8d
40
83
c6
c1
70
b9
df
11
6f
d3
20
6a
53
f6
e0
b1
a6
50
65
cf
fb
1c
41
c9
0e
83
69
61
3d
71
18
28
8d
ae
79
93
ba
96
70
28
0d
18
fc
1c
40
ea
ef
62
d5
da
16
05
dc
a4
56
e8
7f
5e
91
b5
2f
b9
4c
e7
82
cb
3f
de
4f
fb
50
2e
79
ec
dd
50
19
84
de
fd
5e
f8
c7
cf
56
da
f3
7d
0d
8a
63
70
dd
6c
42
c2
de
99
13
34
cc
f2
f3
b2
7b
26
48
c0
d6
e7
71
db
be
89
9c
95
7f
b2
ac
84
1e
33
65
5b
e5
54
30
6e
ac
99
11
ae
57
31
1f
f9
c3
16
34
5b
c0
85
24
8d
b9
0e
66
6d
03
35
73
c8
12
55
46
d6
f5
6a
d4
52
3b
e9
ee
b2
30
9b
a4
e5
e6
ad
b8
94
ef
5c
86
8d
9f
98
44
df
5d
68
44
b3
35
51
12
d3
eb
f8
0b
b9
cc
13
cb
e6
5a
93
18
13
f5
76
b5
42
53
97
2a
47
94
96
a7
7e
b9
33
df
4e
0d
2f
10
40
c9
dc
7c
70
e5
f7
de
e6
41
52
bd
8f
5d
89
e2
66
8a
20
c9
ef
af
d1
cd
59
dd
06
75
70
ba
38
74
ba
1d
20
bf
82
b7
78
f9
4a
34
b4
2b
62
8d
2b
4a
d9
85
ab
47
09
78
5c
a4
cb
79
5c
b8
9b
a3
91
80
6a
cc
89
01
88
3b
e4
1e
6a
be
11
ab
c4
cb
81
e6
46
48
e3
9f
42
58
5a
97
0e
4f
ab
18
33
8b
5c
a5
ac
d6
c9
34
a2
34
5c
aa
a2
bc
03
74
62
7e
bd
8d
33
6a
f4
01
e7
50
e5
e8
b7
1e
f8
49
e7
b7
6b
e9
1b
e3
90
56
2c
30
41
30
90
ca
a0
bd
a4
b3
e6
19
cf
e0
1d
af
52
3d
ea
fe
70
65
48
c6
75
0e
3c
0d
3c
2c
a9
38
35
52
94
be
5d
34
5e
17
03
88
26
42
4b
95
d1
6a
e0
51
d3
a6
f9
57
63
df
42
14
12
10
08
fd
7d
7a
ca
a4
55
2e
97
a4
d3
b8
85
d5
b5
17
b5
1e
a4
7d
f6
b7
92
fc
08
4c
7a
0c
fe
54
ae
6a
3f
20
fe
49
18
5d
0b
08
7f
7b
f8
26
c7
a7
7b
75
0c
1e
3c
03
ad
92
95
ba
cd
19
84
6d
75
d0
b9
66
44
e7
74
20
0d
bf
61
5e
0b
16
3e
26
94
ba
1d
ad
e0
4d
f2
fb
51
a9
6f
dd
b2
bf
58
f7
b6
80
23
c4
1d
b9
f2
29
75
3d
ba
00
98
8e
de
cc
16
76
cb
4a
89
44
27
d0
09
d2
6a
8e
80
07
da
25
c0
e7
94
de
4e
d6
ea
95
d0
07
4b
7c
fe
60
d3
b3
be
cf
42
8c
33
83
3f
fd
2f
a1
80
ee
e3
07
fa
6a
3b
8e
16
a2
98
a7
25
62
dc
4a
0a
58
32
ed
31
4e
46
22
3b
c2
59
55
61
a7
51
49
bb
8b
a7
96
de
69
2f
02
80
b0
fd
5c
bf
17
5d
56
fe
94
ae
c2
a4
f6
eb
db
ad
a1
44
25
04
4b
aa
41
d7
75
0d
1d
d2
3e
6f
17
e7
8d
e6
0c
47
61
c4
bf
cd
c5
26
11
14
05
5f
16
81
dc
2f
9e
7f
d0
12
0d
e0
62
ad
39
fe
b3
de
ca
5a
79
82
e1
f6
4f
fe
30
54
3e
8c
e9
fc
55
cd
cf
88
54
57
5b
66
66
17
e0
14
5c
4b
eb
8e
c4
ba
77
20
62
34
ab
08
f4
39
30
93
d6
6c
9c
29
e3
a0
64
0e
9e
e2
07
39
07
2c
93
07
8b
92
a7
d1
4c
16
3b
f8
77
49
df
9e
1d
02
f2
14
cd
b6
75
7f
a0
85
ee
8d
24
b0
42
18
b9
9b
9c
70
ef
72
e3
e0
a1
b3
a3
79
df
bd
3d
c5
88
02
94
3a
ab
ca
11
49
b4
1c
25
e9
42
8b
cc
30
0c
be
fb
11
3b
4e
dd
c1
1b
0c
48
3e
09
37
78
eb
0a
9f
09
31
4e
1b
73
db
04
08
79
7c
72
bd
5a
c9
12
66
0d
72
bc
99
ca
2d
cb
34
87
2c
31
58
e5
1c
a0
af
22
4e
95
04
50
a7
7f
7a
15
42
b9
3c
70
0a
b0
7f
8c
02
99
bf
98
68
93
47
41
4b
8d
3a
28
30
54
21
a1
cf
b6
de
c8
a8
09
c5
bc
3c
36
a4
64
5b
58
f2
98
48
8a
39
b7
0a
e3
5a
60
09
08
28
d0
25
eb
1e
6a
4a
d7
7e
db
59
d0
24
84
1f
81
3b
79
f9
03
3d
2b
21
b9
71
79
4a
26
9c
a4
a4
5b
68
8e
47
13
90
ae
6d
cc
fc
af
d6
aa
56
83
ac
94
39
55
d8
5a
28
ea
7b
1c
7a
f9
f4
23
29
e2
14
86
ee
fa
a3
e5
7a
55
c1
a9
fb
09
73
b6
9f
e5
39
04
d1
75
09
a7
7d
d2
49
48
94
f0
07
6b
53
70
66
3a
32
bd
73
46
dd
24
76
59
4d
fe
ab
de
a6
db
8f
63
ce
eb
7c
98
04
05
c4
ac
03
f9
46
d9
18
20
aa
87
88
ab
04
ba
3a
eb
25
03
54
38
76
16
ba
47
38
1b
13
d7
8a
7c
ed
2a
4d
36
39
05
2d
83
39
94
83
6e
c3
ef
d5
7f
e2
c5
b0
8d
0a
31
42
76
0d
e7
1c
ec
19
97
cd
c7
f2
45
d3
c8
58
bd
76
ca
67
7f
7e
e8
24
19
cd
4e
f9
9b
0d
7c
aa
e4
86
e0
ee
9c
e5
ac
ee
d2
31
1d
98
5d
76
df
ed
e1
5a
30
e5
bc
f3
f5
75
c4
bc
41
65
46
71
37
b5
23
60
70
2d
4f
d6
c9
91
4e
5c
fb
c4
39
97
1a
f6
e9
cb
74
e2
4a
14
07
ce
43
23
8c
93
da
a4
e3
6d
e0
0c
5e
7f
40
22
89
71
22
20
04
bf
9e
ac
2c
e2
46
ca
80
92
fa
34
89
64
12
28
66
5c
44
e0
09
49
55
d0
ad
d4
6f
0d
08
cf
c4
1a
7a
57
91
a2
48
d1
5d
af
a1
57
32
f3
4a
8a
fc
f5
be
4a
7b
d9
d0
47
0b
3a
18
7f
c2
87
7c
4d
ef
15
72
73
51
81
10
b1
66
cb
3b
e6
15
06
1a
74
c7
ad
2e
12
99
92
a2
c0
e7
71
82
60
8b
41
f5
e2
47
52
43
53
bf
da
c8
4a
7e
8e
a4
de
18
9c
81
cf
45
f7
b3
34
bf
84
71
ac
30
59
02
4a
96
b9
2f
9b
91
3c
0c
86
9c
90
40
21
51
a5
d6
92
ea
43
db
97
bf
07
d4
a5
30
bf
c9
fe
73
6e
1b
68
d6
11
74
f9
b7
c4
2c
61
3c
cd
b0
7b
e5
03
68
4b
29
1c
bd
ef
77
02
94
92
8d
d1
d7
21
69
dc
65
dc
cd
03
f4
d0
33
02
0e
07
60
f7
83
c6
58
8d
49
00
2b
f4
4e
77
cc
07
ab
d5
94
1b
d7
ca
ca
30
ca
f0
31
68
52
70
e5
eb
9a
ea
f8
1a
ba
6e
62
21
af
fb
29
8f
fc
0e
99
f4
be
ac
f6
2f
19
1f
c0
31
d5
98
45
19
5c
6f
a8
79
07
3d
9d
f8
e0
f4
e5
bb
be
2f
60
fe
6d
bf
57
f9
8f
7d
34
2c
6e
45
53
e1
9d
03
ec
f4
65
49
26
43
72
86
34
4c
19
37
8e
71
a3
bf
fa
c0
34
36
5e
2b
50
f1
bc
a9
9f
28
31
02
ab
24
fa
3d
a0
10
b4
af
c1
6b
bf
c0
21
75
5d
bb
35
97
e5
84
c5
a7
be
b9
69
cb
0a
83
01
fc
b2
d5
2c
77
3c
4c
8b
3d
1e
b9
4c
a1
c2
c6
47
a9
6d
6d
79
fd
2c
b6
6e
87
ab
8b
c9
a5
84
93
fd
02
54
c6
a5
5e
97
c1
5a
04
58
52
e8
5a
d9
5f
3e
1b
ef
57
b6
48
61
0e
07
5d
6e
af
d5
97
14
8c
18
50
b2
2c
63
bd
30
3c
04
15
cf
63
a3
f7
ce
1f
68
d7
e2
23
61
69
e8
80
aa
2c
5d
4f
1b
fb
17
f0
55
4f
12
19
c3
74
32
ef
c8
25
98
9d
ce
dd
ab
25
5e
c3
c1
dc
8e
b6
ee
a6
82
53
3c
47
22
2b
22
59
1a
30
4d
db
fc
7c
fb
78
83
ad
92
7c
b4
50
89
43
86
e8
d4
b9
e0
b5
17
91
9a
a8
43
84
c7
ed
17
15
59
e9
d4
e7
32
73
0c
80
84
cc
7e
3e
5a
cb
77
16
05
c7
e9
9b
c1
2f
8e
e8
9a
a7
b3
2a
c3
77
73
22
6e
54
cd
26
99
06
45
ba
ab
10
90
60
e5
0c
b4
49
91
0e
90
79
cc
ad
85
a5
19
c6
11
42
e6
3c
0b
b6
45
42
a9
11
22
ef
59
25
75
3b
25
e0
ee
80
22
2d
03
2d
75
4a
2b
aa
75
63
01
0e
55
7d
f8
ae
c2
1c
33
c2
09
4f
2c
c1
a9
a5
62
13
40
94
f1
49
2b
12
51
7b
f0
64
76
fc
b5
41
af
8c
1c
10
d0
b8
a2
25
b2
be
5c
5d
71
13
6e
45
b9
92
dd
c8
b3
df
33
2d
f4
f2
b6
5a
2f
5a
d2
b8
85
d4
cb
56
65
15
40
b9
71
13
95
f5
f5
05
96
24
a6
ac
e3
09
c6
6b
a7
41
58
af
96
df
3e
d7
91
e3
25
89
58
02
22
76
7c
50
6a
e6
d7
25
25
6d
f1
34
ac
5f
39
cb
9a
b2
af
ac
b5
a9
fe
58
f8
32
f4
00
75
e5
bb
3c
e1
f1
5b
ac
e3
2e
64
59
04
1a
c0
63
77
e8
ce
a0
1b
96
df
53
af
82
ed
fa
86
bb
c1
d3
b1
cc
f1
48
40
7d
37
aa
a2
6a
fc
b9
bf
41
33
bd
fd
ea
e5
b4
59
3e
d2
79
b8
c9
60
ae
28
18
88
8e
48
59
4b
b0
c1
c5
a3
55
9c
16
87
86
af
ca
4e
8f
91
e5
24
23
b5
04
00
51
fb
a7
0e
75
e4
b2
b6
a7
71
4c
17
d2
04
f3
b0
ca
36
dd
54
fe
75
77
ce
88
3a
97
55
61
6e
d0
84
07
84
e8
21
8e
f4
6c
57
49
2d
2c
f1
90
af
06
e9
7e
bd
08
4d
7e
e0
54
45
ba
04
b0
03
a2
92
0e
67
7f
36
e0
93
69
de
28
e0
91
be
44
c9
ad
13
e0
9c
67
0c
58
e7
20
3a
71
a6
3c
95
92
c1
ad
2c
96
ae
f8
b0
a2
0a
be
6f
b5
dd
49
00
1c
f1
f2
c5
a7
99
e8
de
36
a2
14
e8
d3
db
db
be
0d
e7
40
38
62
11
c6
4d
5d
da
9d
6d
00
a6
8e
af
5e
fd
fe
96
a9
aa
50
46
94
fc
ec
1a
80
5f
b5
cb
cb
20
bf
26
ad
c7
59
25
b4
42
4c
16
91
d2
92
94
97
e6
35
50
6b
51
e5
22
41
fb
d8
77
43
eb
d3
7f
dd
06
9f
ca
42
13
29
16
8c
95
b1
52
00
9d
b2
36
bf
18
bb
a4
70
b1
c6
a1
a7
56
8c
3f
68
a3
00
21
39
95
84
d6
70
1b
37
a7
7c
2c
4f
e4
38
d2
35
93
21
f4
08
54
9d
09
c4
a8
14
7a
5a
5e
b8
aa
0c
be
eb
6f
76
f7
6e
9d
ae
26
cc
3a
5a
94
49
02
5d
a3
2b
4d
56
62
bb
55
19
56
23
81
3b
dd
f9
9b
51
eb
f4
8a
fd
95
86
b9
2d
42
5a
fc
d4
3f
f1
e3
b0
80
e9
86
71
51
06
33
f5
a2
79
9b
34
9c
b8
01
fb
d8
67
7e
dd
c1
1a
5d
36
48
c0
85
2e
ca
f5
8a
85
34
93
67
08
61
34
14
1c
93
3c
f8
ed
7a
51
b2
b1
25
bd
95
79
dd
a1
ca
51
69
a7
de
dd
d7
6a
42
61
09
ec
0f
38
67
f2
b8
6f
b9
63
50
9c
03
6d
2f
66
38
e8
de
96
03
d7
cb
46
e1
4a
44
4b
f8
3f
57
9d
0e
3b
12
d5
e4
4a
a7
ad
35
95
e3
21
ea
bf
17
69
74
14
93
31
b4
7d
f6
a2
86
b1
e3
ca
ef
08
8d
24
87
36
7b
46
63
56
cf
48
a7
e2
df
14
ac
aa
c2
a5
90
28
58
88
69
8a
ed
6a
2a
95
c8
e7
81
0e
6a
2d
92
be
70
2e
af
1d
7e
d9
88
ad
06
e3
5c
bf
9d
7b
f8
53
07
9b
af
de
21
e4
d3
e5
7d
18
cf
f8
77
77
11
51
dc
f6
f0
c5
11
6b
f7
da
21
2b
c7
cb
63
a1
3d
25
51
bd
c6
b0
ba
d9
e1
1b
b1
ac
8a
36
fc
86
36
60
7a
3e
d4
fa
f5
77
70
2b
32
fa
39
2f
e5
57
c0
7c
e4
45
56
d9
39
27
e9
9b
f8
be
58
fa
27
f3
24
35
73
8c
20
f7
ea
4d
a2
b3
2d
c5
d2
b0
58
66
95
12
48
f0
62
c2
ed
5d
19
2a
58
d3
f2
1d
32
ca
c8
6b
ef
b9
68
01
49
48
74
a8
55
75
27
ad
37
32
2e
69
63
1e
d8
c3
74
cc
1b
70
01
5c
b9
df
ea
ec
d3
37
7e
30
25
c0
c6
50
85
00
78
06
01
67
ae
59
71
02
5e
6e
a7
dc
4c
73
e1
15
93
63
8a
49
50
05
39
c3
8e
8d
a4
fb
b2
42
5a
7a
f4
74
65
52
12
03
94
5e
85
c3
d4
69
63
a4
f4
c7
84
41
cf
e4
fe
c2
de
7e
b5
7e
85
80
9b
cd
e0
19
e8
b5
d2
98
65
91
f2
b9
e0
7f
94
33
50
1d
7f
c3
76
ac
e4
4b
e3
5c
b5
fc
a8
d9
bd
7b
49
1e
08
17
d7
e0
7a
8e
78
90
a5
ae
0e
d6
70
c1
fe
1f
d4
4b
bb
60
c5
25
d2
44
63
3c
e6
68
90
ef
8d
61
e2
3f
b1
dc
c6
37
5a
21
78
65
81
c2
35
7b
d5
b4
f5
ce
a1
7e
33
08
68
0b
cf
6a
52
a9
b7
e8
a5
cd
84
21
3f
60
72
44
d6
ee
ae
5e
25
f7
d1
21
54
7b
b9
5a
8a
d8
02
1e
5d
ef
28
07
23
90
5b
45
12
71
a4
43
a3
13
8b
0f
f8
c9
74
cf
56
db
fb
d2
4d
9f
8a
48
90
7f
3e
62
d2
2a
01
63
74
39
9d
0a
37
4b
ef
e8
a8
f4
91
96
39
96
db
4e
8d
fe
82
71
a1
5a
eb
03
26
d2
af
9a
da
ad
7d
2f
9c
82
87
94
04
d1
f1
91
c7
8c
0d
1b
f9
04
be
8b
91
54
fe
2c
ac
8c
76
0b
5c
2e
f7
75
54
82
52
e7
3c
ad
0e
81
01
cc
7d
b6
ae
d6
e4
02
81
18
00
a1
f3
91
9f
e5
bf
ad
09
27
01
a4
f0
53
93
92
f3
9e
af
55
89
69
64
f4
d2
a5
65
09
1a
32
3d
b6
da
91
4b
2e
15
c6
04
d7
fb
e3
8e
56
29
7d
18
82
30
63
6f
62
06
49
78
04
1a
84
46
3b
59
c0
25
09
19
31
2b
b0
35
4b
41
c7
0b
2c
b4
fe
67
1e
9f
d2
51
5d
ad
2a
c8
3b
6a
51
8e
27
a1
dd
3b
49
ae
92
da
8f
68
c4
43
8c
f0
af
2b
fc
45
05
66
4d
55
cb
f4
4e
e1
3b
6d
74
14
93
9e
58
94
26
e0
32
f2
f1
58
7d
43
ce
60
f3
c4
a4
7e
5f
82
c4
e3
35
ae
57
eb
e2
a1
2b
91
d6
c7
46
c3
d0
f0
86
de
7b
24
b1
f2
1a
e3
6b
8b
62
1f
32
80
9d
1c
3f
62
a9
f4
80
56
00
14
e0
a0
b1
25
c4
6b
d8
cf
dd
06
04
d1
fe
0a
7e
ab
f1
72
44
75
df
d7
86
6a
41
19
7a
01
55
37
3e
94
27
21
de
14
f1
1d
e2
3e
3d
e7
c1
8f
cf
88
75
e4
46
76
72
32
a9
ad
30
aa
3a
f7
76
18
63
81
9b
70
cb
49
cc
b3
48
51
22
68
78
79
b7
76
34
54
ad
bd
d5
4d
fa
35
ad
2e
6d
23
ca
e3
f0
82
16
78
a0
bf
87
27
7b
7a
76
04
fb
23
d5
48
55
47
b3
bd
c5
46
9f
f8
5f
9f
48
ae
27
be
dd
14
9b
e9
c1
bd
a7
b3
35
48
4b
5f
69
9e
45
6a
2d
03
a6
9f
80
35
16
19
89
94
78
3b
1d
6f
ca
0d
bb
e9
2c
fa
6d
c7
47
da
80
bc
d7
94
20
a8
19
9a
b3
48
5e
fa
7e
8b
9f
02
2a
57
5e
d6
d9
3e
f6
7c
6e
e6
e5
4c
06
21
a2
c8
cc
10
c9
f4
cf
92
76
ea
f3
b7
5a
bf
9d
a9
70
c2
95
0a
d9
f2
a9
f5
5b
67
19
f4
e1
c4
72
2d
7b
0a
bf
70
a0
c3
3f
1b
bf
24
a2
b3
d6
1f
73
3b
4d
73
a6
39
89
cc
d3
0c
d4
01
cc
97
05
92
78
cd
ed
2b
1c
d4
e2
ad
b3
17
c9
94
12
bc
4c
30
0e
ac
5a
0a
7d
39
c1
27
4f
e1
ca
f7
b0
95
b6
e7
48
d0
2a
33
3d
ef
af
f5
34
9b
82
59
65
92
48
74
37
34
fc
d8
a3
8d
8c
ee
cc
f7
3e
87
6c
70
3e
82
e6
1e
19
91
2c
d1
1a
09
b5
53
f3
a1
17
de
1f
ef
82
15
d1
b6
2b
21
19
e2
b1
a0
c8
58
53
f3
2b
f8
3e
d5
d3
25
52
f0
3f
49
e6
96
fa
36
ed
5d
a2
47
36
86
17
10
a4
ec
45
5b
e5
04
b2
46
c3
a4
5c
7c
57
0c
46
df
40
3d
dd
b7
6b
37
9d
98
d7
14
df
bb
04
04
00
9a
0e
b7
f5
42
de
27
e9
0f
55
b9
53
bf
53
fb
a0
bb
15
d7
6d
c1
84
ea
80
37
09
a8
d2
8e
a0
fc
fc
96
5a
dc
61
9b
bc
84
8b
f9
fb
5a
66
aa
b3
9e
a9
15
8e
91
b8
cc
6d
d5
48
00
1b
e6
7d
45
38
ea
63
ed
72
db
5b
b6
a0
c7
8c
df
84
69
02
a8
7d
6f
96
6d
3a
a5
17
51
6d
d4
46
d6
1f
b8
18
0c
01
f9
1c
99
fb
bb
88
22
c7
f3
43
2d
30
1a
70
d7
b6
f0
98
28
db
e5
66
7e
48
c3
44
eb
ce
ec
24
a2
b2
d5
86
38
31
07
a3
67
d2
37
0c
0a
c6
18
25
54
3d
e8
ee
5b
88
46
b6
1c
c5
83
e3
fa
41
fb
f6
1b
c0
01
ee
a5
67
6c
bc
10
1f
fa
c2
5c
e5
71
ca
8c
b0
9c
c1
2e
b8
b6
f4
34
9b
a9
48
b6
3e
4c
66
30
43
07
d8
66
9c
f4
53
fe
8e
fb
aa
87
cc
48
18
54
85
d1
7d
b9
42
32
a4
fe
c7
d0
ab
de
45
b8
19
1f
1c
d1
00
b3
1a
af
a3
11
9f
4f
af
c9
04
fd
7a
34
5b
4c
d3
fb
ab
c6
be
37
a6
f3
2e
ae
66
50
7b
91
61
8b
b8
af
21
f9
f1
73
c5
dc
a5
b2
29
44
7b
31
67
63
ac
fd
5e
69
63
38
e7
f6
18
b8
19
b7
8f
db
f6
e2
8c
45
2f
d0
a7
42
96
bf
0e
a6
7b
1d
ad
c2
d4
db
7c
cc
b1
36
3b
3b
96
65
d1
3d
6b
86
a0
be
f2
1f
ed
99
ea
d1
27
e9
76
7e
13
af
24
2a
fa
b6
5c
19
61
ae
31
e1
60
6f
df
22
0b
26
d2
32
c4
2d
44
4e
dd
77
cf
d5
0a
00
9d
26
e0
3d
b6
07
2c
15
39
db
65
fa
05
4e
88
b5
23
42
47
34
39
8a
84
51
ec
6e
d3
a0
5f
be
be
3d
5f
d5
b1
f4
7b
80
22
db
97
10
3b
90
73
88
7c
36
f8
66
0a
70
f6
14
a3
21
0a
fa
c8
3b
9e
e7
27
ce
6f
ce
24
c9
8d
49
2d
58
db
d2
a5
e5
bc
3c
c0
92
2f
d9
3d
1f
84
21
81
3a
61
e7
e9
b8
96
a0
4b
8d
9b
3a
08
ce
18
93
70
6f
f6
0b
5f
90
4e
c5
db
d1
ba
40
92
0d
bd
69
79
54
58
e9
5c
ea
59
ea
8b
30
f0
5a
a8
1d
98
33
28
ae
f4
7e
61
82
34
a3
3a
81
ae
2f
17
a3
06
c8
b5
d7
7a
b1
be
34
9b
b3
50
ca
fc
40
03
63
25
ba
9a
f7
81
29
3c
46
fb
bc
9c
35
14
31
d1
cf
5f
23
51
1c
85
7c
45
39
bb
d5
0f
8d
34
b5
b7
ec
5e
ef
3b
ba
ab
9e
5b
4d
34
fd
99
89
11
38
77
95
9f
ed
ed
e6
0e
a5
fe
ad
c8
fd
d9
ee
45
ed
a5
4d
a7
ef
4e
ad
af
87
a3
0d
7f
4c
91
50
e1
e6
4e
08
14
d2
48
8e
b4
fd
1f
7c
d8
c6
95
9a
82
f2
1f
a5
fb
03
9e
20
b8
c9
a1
6b
6b
37
65
3b
00
3f
75
19
a8
ce
04
36
d6
84
8c
3d
ca
6b
c3
58
16
d0
3a
de
ae
64
69
93
68
be
1b
b7
50
41
f6
a7
df
57
43
91
dd
7e
f3
7a
37
35
cf
71
cb
8f
b9
a7
da
6c
72
24
14
99
99
ee
d9
9c
b6
b8
61
47
fe
bb
f4
aa
68
db
ec
94
92
16
47
ae
ae
c0
5b
8e
ad
3c
df
d6
b8
d9
44
6f
6b
9a
91
a3
9e
33
71
4a
69
da
08
07
87
3d
de
f5
df
0a
f1
5e
59
d8
85
bb
cc
ea
e3
21
56
1b
a2
df
f7
7a
49
0c
24
1f
88
1a
18
8c
19
d3
a6
89
19
31
f9
1a
69
ea
79
b4
62
87
d1
15
62
96
0c
c3
f8
0d
cf
ca
f9
b2
6c
23
19
7c
50
06
cd
dd
21
14
77
38
ed
84
55
94
0f
a1
ba
d4
60
6a
f6
a8
db
1d
14
3b
3b
6b
15
8f
3b
e2
f8
08
89
c7
02
35
67
3c
c4
83
d7
42
be
f1
72
bb
7c
26
83
08
12
30
8b
a2
94
ec
28
9d
fa
41
86
22
0d
38
92
c8
16
b6
71
48
19
09
c2
3f
89
f8
70
2d
44
2f
a2
31
a2
a9
d0
80
4f
91
6e
10
ed
ee
a4
fb
b1
a2
47
d9
3d
5f
6d
ef
dc
be
7a
5d
bd
d0
4d
ef
8b
24
e1
1a
67
38
2c
1b
53
b0
d6
b0
dc
e2
ae
e2
eb
34
e8
b0
2b
6b
c7
35
37
d1
a5
18
67
4e
fd
19
f0
07
9e
1d
c9
ec
a7
68
77
67
3c
2e
9a
97
84
e0
d3
c2
df
43
7a
dd
63
e6
c2
ea
98
9a
d9
70
ed
06
10
d9
08
bd
db
1b
41
6e
89
f0
bc
e5
49
5a
a9
68
ab
32
50
18
d7
73
5f
37
b1
a2
01
23
5d
4a
cc
d0
e3
38
be
f6
d3
0c
b9
01
73
a2
97
f1
15
d3
04
8e
04
b7
68
df
16
b3
07
ad
cf
31
76
84
a8
30
fe
aa
03
7a
98
26
87
dc
30
19
d1
2f
f8
e3
ee
d6
5a
91
eb
e0
8f
d4
d4
60
a6
71
79
24
a4
9c
ba
b8
38
96
6e
5c
bb
c5
49
16
d5
e0
d4
bb
f5
43
1d
a9
c5
70
1b
fc
3f
5a
86
7b
c3
6e
d2
1c
1b
49
a9
85
d4
a7
07
f3
53
f9
ba
b1
41
bc
05
9c
3a
d5
b2
08
98
ec
92
85
c9
a6
5b
ef
3a
69
84
d7
b4
45
11
cb
9f
33
60
11
b5
c5
76
90
b7
45
a2
93
63
0f
31
01
04
f5
dc
0a
d6
e9
b4
07
8d
f4
50
77
ba
a6
d4
92
89
5d
b6
70
19
b8
66
68
64
1c
1a
69
89
2d
91
eb
0d
2f
6a
1b
ee
29
64
59
3f
cc
0c
06
04
86
9c
0e
16
ce
ba
d4
27
b6
9d
f3
67
9b
f3
d2
85
30
07
c6
b8
e2
3d
51
41
fe
25
c1
18
ef
21
f9
ee
89
31
3c
a2
7e
7b
e6
7c
e5
77
6b
7f
b3
e4
a9
99
4b
e8
36
b7
c6
e8
cb
cb
40
eb
1a
5e
5b
e7
a4
2a
97
0e
d4
33
39
df
87
1f
74
e1
96
90
0d
53
0b
2d
72
10
eb
db
af
a4
39
b5
57
a2
41
58
e2
8d
0e
41
5a
ca
22
b6
4c
83
69
29
b2
f4
f3
fa
f8
02
d4
3a
24
1a
f3
6a
d3
d2
3f
a7
33
a8
88
ca
dd
b5
44
a0
e4
de
f6
85
40
60
23
bf
f1
31
db
1d
f9
b7
2f
0d
03
7a
34
8f
44
f0
3e
cb
e8
7d
94
b7
b8
27
40
58
28
33
e9
af
b4
de
b4
33
6c
9a
7a
58
80
f4
89
a4
23
be
ce
37
23
a1
32
eb
20
cd
df
f7
9f
45
fc
4f
1e
26
82
06
09
30
2b
d3
00
56
41
8c
e0
d0
c7
82
cf
32
72
41
66
b7
2b
ea
0f
73
d9
54
d2
3e
03
72
28
62
3b
03
b7
df
1d
7a
64
45
5a
47
bc
2a
09
fc
28
ba
a8
b3
26
a3
48
80
fc
0a
e7
0c
29
57
43
21
bc
06
a5
70
8d
90
90
d4
60
b0
68
50
d6
dc
d9
99
31
56
71
3b
bf
c9
ea
37
37
0b
7b
11
0d
79
d1
5e
89
60
48
da
b9
6e
20
70
9d
e8
5e
b2
87
8f
cf
03
86
df
06
a3
32
dd
ae
55
7a
b6
fa
cc
b2
67
75
f8
6f
98
8a
5b
cc
a0
20
5f
04
a9
3e
45
25
d8
de
aa
2a
e4
08
d5
88
28
fc
0c
0a
39
2a
e3
91
e5
81
74
34
7b
c1
8f
bc
4f
c7
d9
a8
f1
4c
37
cb
cd
4c
54
7e
00
a7
94
ee
c3
79
a9
5a
23
ca
93
2e
92
a7
9c
9b
54
0a
50
b9
64
05
ae
31
89
e9
a4
52
ef
b0
85
f6
84
8b
d4
d4
03
a4
15
e8
e6
f8
f1
5b
51
c9
36
fe
0a
fe
7d
40
2d
b0
f6
c2
ef
2e
11
a6
7e
3e
51
63
05
62
cf
37
4d
08
25
90
d4
b1
fe
28
00
f8
29
d3
c4
ea
f6
6d
92
e2
96
14
7a
fd
40
67
9e
ee
dc
b5
51
94
cd
76
66
fa
3e
51
56
d7
62
18
12
6a
5f
0e
33
27
7e
cb
aa
40
f1
6c
54
ef
0e
32
bc
f5
0f
aa
20
f4
d6
51
6f
c9
45
fb
de
46
e8
f0
17
f2
0d
8f
cb
b9
e8
9b
75
33
e8
5f
ca
79
92
99
5d
48
17
ed
56
bb
4b
76
de
3a
4d
e0
88
0f
ec
c2
72
a0
97
02
37
f1
1c
d4
bf
2e
0a
7a
31
90
5d
78
a7
1e
e9
fd
40
7d
b2
26
7d
57
48
40
30
20
db
90
bf
02
9b
d5
ca
ce
3b
8a
d5
de
ce
3f
56
e9
15
11
d8
e4
35
be
d1
a2
4a
48
00
48
96
48
90
8d
dc
01
3a
c5
6a
f5
e0
0c
73
65
6c
96
de
94
f0
37
87
c6
80
64
9c
a7
85
cc
c5
40
b7
63
16
73
96
43
a4
14
eb
67
e3
16
76
90
0b
66
57
60
fa
03
b9
2e
f5
25
fb
8e
88
fb
39
5c
d7
b2
12
af
a9
d2
a4
b4
8b
a1
ca
f3
3a
50
2c
79
ea
cd
1a
e4
8f
1d
42
bf
91
f3
fc
cc
1d
d9
f8
82
ba
3f
9d
14
7e
d2
55
82
06
79
21
c8
54
3e
8f
4c
e1
f4
e3
46
53
43
23
92
88
b7
17
4f
20
fc
33
7a
df
cf
32
ce
36
7d
26
79
4c
77
44
1b
11
cd
c4
7c
8a
6f
a0
d4
a2
a7
b6
83
d2
c8
58
bf
16
0f
66
b7
f6
25
e7
ec
28
bb
45
bd
6e
53
39
f5
fd
37
f0
39
21
b2
36
db
be
dd
07
7e
01
71
41
e6
f1
5d
38
52
72
42
32
14
d4
82
66
3f
a4
33
51
34
6e
ca
a6
bf
5d
42
b6
a6
a4
d0
a8
d4
8b
d8
32
41
7b
45
ce
32
23
96
ae
09
e5
b8
91
8f
31
a0
4b
61
91
68
88
9b
39
81
2c
0f
7c
7c
5a
ee
12
df
11
11
94
ad
a1
cb
b5
31
11
e4
bd
14
c8
32
e1
f0
7f
2c
61
1c
f5
2c
a0
37
bf
c2
84
7d
cd
92
77
11
47
44
53
6b
33
6d
83
ed
ce
e1
40
50
db
2f
47
6c
6f
48
1e
c7
5c
d6
f8
15
86
de
5e
fc
51
17
d8
e5
fa
68
db
49
ce
71
0a
7d
61
50
0f
4e
35
a3
b0
d6
62
f5
ad
33
8b
bd
92
35
44
14
5a
c9
30
29
b5
b2
ee
c7
39
00
be
ca
bc
be
59
66
62
bf
b3
e3
6b
ab
58
f4
dd
58
28
14
9c
2c
7a
f6
1b
60
b5
6f
21
66
36
b7
3f
32
4f
f8
5a
a3
65
4e
eb
eb
df
93
17
7e
9d
70
ea
9e
eb
fb
1c
ae
8c
20
80
3d
b0
1f
89
dc
ef
ce
51
e8
58
1d
73
6a
27
8d
18
ce
70
3e
f7
da
28
6f
96
f7
01
d5
3c
65
51
6b
0e
f1
85
bf
b2
23
b1
5d
e4
81
de
bc
da
b4
29
25
8a
41
16
24
74
a9
d9
8b
d1
ce
1c
8c
9c
7a
bd
e2
9c
6c
35
bc
54
6a
fc
55
da
ab
03
c5
b9
a7
89
5f
21
52
0b
c1
3e
a3
25
83
b0
24
b7
f2
d5
64
d4
30
de
0b
4c
5a
8e
a7
85
1e
a5
8c
af
d6
87
07
e1
8c
cd
d5
52
a5
e3
21
3e
67
01
9a
0c
cb
f3
ba
5d
1e
08
d6
30
b0
5c
a2
36
fd
14
3a
f4
d1
3b
00
a0
8e
76
c1
5b
80
f3
a3
4d
e0
e5
8e
de
2a
76
6d
66
b7
b0
72
d2
14
4e
82
47
e8
7d
70
96
af
9d
cc
c1
9f
37
7c
f6
79
40
a8
4c
49
99
0b
33
49
a8
a1
e2
88
55
c7
e1
bc
f5
41
99
2a
15
c4
c7
19
0a
93
40
f8
a3
ee
e9
db
f0
11
07
68
68
f9
4e
6f
9b
ad
54
3d
ab
4e
42
3b
07
54
cb
89
c9
ad
0f
6f
64
4b
5d
38
1e
58
2e
88
17
c3
e3
ea
8f
0c
99
96
82
4b
07
9e
17
48
70
51
37
e3
00
ca
cb
73
73
d7
27
7c
27
97
e3
b2
b5
95
cc
31
a3
3d
14
7a
23
39
5c
2f
a5
31
dd
2a
a9
4b
33
ca
e2
88
28
eb
06
df
9c
c4
5e
a6
02
61
15
ed
ec
58
e2
03
b7
e8
4d
a1
1b
f5
3a
d8
c1
36
07
0c
46
12
2f
48
fe
a5
e1
e0
dd
e5
1d
2e
3d
c1
fd
c8
fc
9e
86
54
a4
53
90
21
52
d2
4b
2b
85
7b
fb
d9
5e
f9
f2
0c
7b
24
1d
7a
aa
35
85
58
e0
f9
0c
13
73
c2
3c
90
fd
8b
80
5b
df
3b
89
c6
eb
95
ab
49
c3
0f
90
1c
07
8d
ba
31
19
33
02
4e
40
1c
5d
c0
2f
83
41
4d
a1
f5
39
2a
09
40
ea
44
f6
bd
16
e1
e5
03
5e
5c
9c
f2
2c
b4
9b
05
34
ce
8c
90
15
ad
42
88
e7
dd
33
96
af
2a
c7
44
d5
02
fa
86
f5
7b
7a
9d
63
a7
97
5e
e9
ec
be
bb
77
85
1f
bf
9c
b1
1c
f2
a0
e5
b8
ae
fc
02
fd
e1
0f
89
7c
d9
14
c6
be
cb
7f
19
d5
68
2f
eb
de
86
f3
af
24
8a
2b
49
6e
2e
54
d0
41
b0
d1
3c
be
09
52
f4
f7
90
69
e8
b8
20
6f
d9
79
06
16
3e
4d
6c
6c
44
24
46
27
a6
3f
95
9e
b3
a8
12
d2
42
6e
74
74
6a
7c
89
e3
9b
13
9c
a4
5b
c7
13
24
53
78
ad
fb
61
2c
63
b8
3c
27
2a
35
c7
5a
1d
df
d7
a2
6b
32
49
f1
e7
88
70
8e
83
00
08
9e
9e
6b
f8
00
42
22
90
dc
e2
a9
05
df
a3
8a
ee
71
01
10
a9
c6
d5
59
c6
79
0a
09
e8
84
d8
81
4a
e6
2e
d4
b0
e2
6b
8a
02
74
c0
ee
d9
c5
05
b8
fb
29
94
25
45
26
0b
fd
69
cf
c8
65
92
f3
72
db
41
81
1e
16
f3
16
c3
1f
38
35
d4
79
7a
cb
9d
21
fc
34
c3
c7
95
72
a7
1c
3a
88
2e
60
a4
63
b5
28
9b
5c
cc
d2
65
9e
16
ba
ca
be
ae
0c
0b
d8
40
e7
a7
37
7c
46
3f
bf
24
6b
81
8a
85
b0
05
af
2c
99
23
ba
d0
a0
6b
66
36
0b
3f
31
ec
2a
04
6b
26
22
51
59
45
5a
f8
99
6d
d8
f5
84
0d
bb
fe
57
8d
ab
04
f2
5a
51
b5
9c
cc
33
e0
73
32
23
72
98
91
25
58
92
d1
5f
cf
36
7a
c1
82
d3
6a
8e
76
d1
1f
98
be
78
f3
86
74
ec
80
e4
a6
d2
a3
2e
0a
c0
78
5f
75
6b
b3
37
55
83
5b
d2
19
89
7c
f0
79
0b
07
43
12
3f
45
e9
40
e1
37
8b
53
a4
ec
e5
56
c4
40
a2
a6
c6
90
88
0d
49
c1
c5
04
94
aa
c8
93
42
5d
e4
6e
d7
df
e4
73
ef
c2
42
97
a8
cb
ca
8d
b9
c4
c5
03
d4
d3
f1
e7
31
c1
0b
2b
5f
52
1a
75
36
ee
25
e1
d2
b3
af
bd
49
12
51
ed
a0
d8
fe
15
52
f8
12
11
15
c2
19
c7
0a
ca
b3
3d
53
d0
cf
18
d6
92
21
b9
4c
c2
ef
23
05
f3
32
89
fe
4b
98
8a
3c
76
04
bb
51
cc
18
6e
f8
ca
6f
bc
7d
9b
f9
7b
90
6e
36
ae
f9
0e
c4
45
a3
70
c9
d3
47
97
79
16
7c
bb
e0
61
90
37
50
a1
4a
5f
ea
d6
82
6f
de
27
e4
b4
17
af
6b
de
e5
12
d6
64
29
0b
2d
0f
fd
c3
65
1b
02
8f
6e
b5
9a
53
b4
ee
47
bd
b5
96
01
ec
68
29
06
8c
1a
bd
c2
53
eb
6c
b2
75
1b
13
8d
fd
d7
d0
d2
6d
86
c2
51
51
f3
99
00
f5
30
c9
67
1a
63
35
bd
38
32
73
52
8c
74
2d
2f
34
b5
71
ce
32
83
ce
65
fc
8f
6d
4a
f0
75
f7
65
e9
ad
2f
37
53
a6
d7
fa
e9
f4
84
81
ed
f3
90
50
9b
9e
8a
a6
90
ea
05
5a
83
c7
9f
e8
bb
03
63
44
47
29
b1
45
33
3f
08
2c
56
aa
44
82
bd
e5
0b
8e
86
91
5c
36
0b
a1
bb
e9
f3
07
6e
cd
44
8f
d4
16
21
3b
2e
30
bc
4c
23
33
02
8a
27
cc
d2
67
7e
c7
98
1c
aa
8a
af
e3
ba
a4
f4
44
12
52
c0
f6
f3
dd
2a
5f
ee
6a
7b
57
1a
12
5e
da
5d
6e
a4
ad
2c
32
b9
c5
b6
ee
9d
a0
e5
8f
91
f1
23
89
d5
d5
15
7d
db
fb
6e
38
a1
21
7e
e3
05
0c
a1
62
20
0c
f7
6f
97
4f
57
6d
4d
ca
34
13
32
0e
ef
4f
dc
0c
f6
fd
2c
4e
fe
24
92
c7
fc
50
3e
c0
05
8d
1c
05
b9
4e
e7
4b
8a
70
9b
a1
0a
80
df
bd
7e
f4
90
77
f8
ab
bb
30
f8
0a
41
9e
69
2d
0a
be
3c
f2
09
60
28
6f
54
14
80
69
16
05
9f
fe
4c
b9
67
d7
d8
9c
62
ce
9b
20
a2
68
af
33
63
88
37
cd
e1
2d
0b
8b
f3
34
08
ac
34
d5
6d
a8
33
ef
6f
f7
e2
83
e2
8d
08
2d
b9
f1
95
b4
7d
b1
11
26
08
70
da
b3
9f
bb
0b
96
0f
07
0c
9c
43
c6
c4
45
97
90
28
1a
96
d0
00
e0
64
fd
39
19
f5
f1
12
4d
df
ea
97
37
62
c7
44
d7
f2
1b
cf
83
2c
ec
0c
70
86
13
36
07
f8
3d
96
f4
08
8d
c9
5d
72
9d
34
06
c7
fa
99
1a
6e
a5
6e
85
bf
7c
f5
f9
99
74
db
50
c8
9d
8a
b4
bb
2a
50
bb
ce
a5
57
01
59
f0
34
04
c8
15
3c
71
64
bf
85
24
7a
c2
9e
db
68
8e
6a
f5
53
a1
16
68
3b
08
4b
29
4c
42
e6
8f
04
00
17
8a
b8
89
9f
a3
05
f3
00
5a
f8
e0
8a
a7
56
6a
ce
11
83
01
c7
84
29
1f
75
ba
92
ce
54
d7
1b
b5
86
0d
d3
cd
6a
29
4a
1d
04
53
f0
5a
aa
b9
9e
79
36
63
2f
97
7d
c6
45
67
2a
e0
11
72
93
39
36
0f
07
a3
10
84
24
68
0d
1a
7c
e2
b9
75
a3
55
bf
e2
72
8e
57
85
81
2e
45
0f
61
2a
f0
26
d7
db
86
87
5d
70
79
ea
d4
60
1b
98
44
59
4a
ae
bc
e6
82
df
8f
2c
de
26
61
73
cd
92
7b
01
3a
dd
d9
ea
8e
b4
ea
1a
33
9f
43
c2
ea
71
e7
10
7a
99
89
24
05
46
74
1f
ab
50
07
eb
fd
2d
ae
a2
10
85
f4
c8
6e
d2
bd
bd
85
0f
d4
4b
a5
ce
14
3e
d0
91
44
0c
61
b9
17
33
61
6b
ab
60
67
4a
99
66
f4
33
ab
4b
e6
67
9b
31
64
eb
75
d9
0a
92
b5
ab
18
bf
c3
f4
14
c2
eb
5f
f1
38
2b
9e
5b
28
c6
36
57
9f
97
f8
d5
a7
c9
81
d2
42
cd
1c
6d
b8
54
b4
be
79
2a
55
a5
8c
6f
37
a0
71
9c
4c
3e
be
9b
a3
a9
0d
c6
bb
38
09
3a
07
b5
cd
1a
7f
7a
7b
e5
7c
78
d3
55
50
75
3a
68
8b
bd
5b
fb
77
8b
7c
3d
a2
08
ef
ed
68
be
5a
d7
b2
bf
d7
dd
ca
4d
99
e7
31
3a
7a
2f
f7
99
02
7d
45
67
76
16
da
51
d4
d8
f4
04
b3
42
97
59
6c
c7
c6
e7
27
ce
72
27
ca
97
6b
e2
cb
04
3f
d7
d1
e7
b7
32
6b
41
ee
d8
a0
1b
a4
52
13
e3
9a
30
33
1e
6c
d7
68
2e
c1
bf
be
34
1f
93
14
4e
9a
ec
d7
ba
ef
26
8e
85
46
54
b3
6c
9b
79
23
e4
73
39
21
53
27
a1
d0
a8
c9
c2
d3
7d
d0
60
ce
ec
19
2e
28
ae
69
8d
69
0c
87
ca
cb
32
b1
7e
80
b4
18
09
f6
2e
66
6a
57
73
d6
48
4a
c2
a5
ec
bc
df
a4
f5
94
a9
27
e5
60
49
d3
38
21
f6
92
19
b4
1b
bf
07
17
c1
06
df
e1
35
05
a1
c2
27
73
e2
d7
b3
8e
87
9e
da
7d
4f
5e
6f
16
7e
fe
43
e1
bd
65
9b
17
8f
b0
48
2c
f9
bf
32
9e
2a
2a
fd
14
27
3f
aa
e8
01
60
f3
ae
09
41
b8
61
6d
a4
d7
eb
86
b7
fa
55
68
ed
00
4d
dc
23
d1
20
ac
39
89
26
ce
47
dc
23
74
29
d7
e9
1e
3f
28
0d
ea
e1
3a
61
03
e1
14
4f
8b
67
c9
70
f7
f0
18
02
ed
f2
16
01
68
7e
4d
f1
8d
81
83
ae
9b
7b
df
13
aa
53
2d
e0
d7
22
a5
60
18
e8
07
d3
47
08
25
eb
78
13
c8
34
68
98
78
25
2e
55
67
02
33
6b
c2
e9
f9
65
8e
40
e1
e9
c2
70
f9
be
fd
06
a7
f1
0e
6d
ea
2e
74
fb
57
3c
0b
16
73
9d
0b
ef
42
ba
bb
99
52
46
20
99
9a
60
5a
2c
b9
96
68
8e
40
62
b1
28
5d
c0
06
65
67
cc
ad
4e
44
19
a8
58
26
35
c9
01
06
5c
2c
97
7f
67
9e
bd
a5
79
43
8e
12
7c
d4
9d
46
c7
6a
07
59
7b
9a
9f
aa
85
ef
37
ae
77
e6
fb
b4
22
03
cc
87
41
9b
d5
be
a5
d6
b0
f6
7e
dd
77
24
a8
d6
14
34
39
c8
d6
78
c8
3d
31
79
cf
f4
a3
47
f6
b5
04
57
7c
cc
96
09
b6
c5
81
20
38
19
cd
c7
c6
fb
f6
c8
49
6e
35
7c
02
c4
d3
1f
50
9a
45
1d
cf
86
cc
0a
0b
96
f0
35
89
ad
92
3a
72
de
10
5b
07
03
90
36
88
76
02
40
32
00
b1
b6
cc
e3
d3
dc
15
3e
57
cd
2d
aa
bc
1c
90
fe
84
6f
4e
93
3e
9b
99
1f
ac
98
24
d9
fa
31
bd
bc
c2
1b
df
86
66
0f
a7
89
3e
b6
53
a9
25
eb
e4
72
f9
40
a1
a5
bc
88
1f
49
c1
81
e1
96
f9
a1
67
ed
9e
d0
66
b3
34
0c
65
58
f0
66
53
74
49
4e
55
3a
49
0c
c2
7e
30
b2
7a
d3
9e
43
19
bf
a5
d8
30
70
0d
00
af
04
c4
11
4a
ed
6b
12
4f
cb
b9
c4
9d
bf
1d
d9
4b
7d
25
08
7d
2e
37
41
5a
fb
18
4c
15
fb
5c
97
05
51
cc
a1
36
f7
90
03
3c
d1
01
77
cc
45
bf
f2
f0
0e
c3
74
31
61
6f
de
04
16
62
31
7f
cd
20
69
95
71
b9
a0
e4
bc
aa
10
18
61
6d
3e
35
c0
85
5f
f6
84
b0
a7
eb
1c
a8
a5
f9
18
e0
59
b4
b3
1e
c3
c5
82
d6
80
2d
b8
f6
06
c0
e9
59
01
da
a7
d5
11
2c
fc
52
19
5b
18
bc
2d
65
38
1a
63
60
3b
a5
b4
a3
83
5b
d3
0b
6e
ae
8e
a0
64
dc
5e
f5
93
02
66
a3
aa
23
41
d0
19
cb
41
24
92
55
01
bf
ef
ab
f0
c4
89
ba
da
00
bf
2f
c1
a5
5c
86
ed
53
a6
57
26
6f
42
4f
53
89
65
e2
f9
48
28
de
f5
fa
0b
10
3e
d7
ef
cf
1c
c3
8c
d3
23
31
40
8a
54
f2
5c
92
6d
94
d7
3a
69
6b
23
7a
c4
1b
d5
7a
a3
32
bd
73
b8
49
f7
1f
9c
d7
ea
ba
fa
e6
11
60
0b
f5
85
20
6b
69
a4
80
0c
94
48
67
c0
9e
06
b8
aa
95
3e
4e
bc
ed
1c
b7
9b
5b
24
69
4c
21
a3
18
5d
c7
14
bc
53
9d
32
95
97
2c
f1
ed
85
fc
e4
24
3c
63
e8
3f
32
ca
f3
eb
8f
3c
54
d0
44
1b
b5
18
57
03
44
0a
ef
7d
5a
6d
d9
d9
72
d3
c6
5c
eb
30
d1
c8
37
e7
15
8a
13
92
31
a7
0c
26
ad
0c
59
2c
fe
8c
8b
8a
32
48
c6
18
19
fe
f8
db
8c
d2
3d
aa
64
1b
c0
cd
e7
2f
9f
bf
fd
a7
ec
4d
cc
5c
8a
c9
53
28
f9
6e
34
58
d6
b4
df
e7
33
d2
65
41
7c
42
cc
58
80
e6
71
0a
c1
a2
c5
38
b0
e7
b7
30
51
1e
6f
f1
c4
c7
47
9f
5e
58
fe
3a
2b
41
5f
dd
40
97
2e
af
38
25
59
f7
43
e9
e8
85
43
01
b6
55
b2
de
9a
6d
cf
36
89
70
88
9d
4e
c9
f6
0d
c8
ea
97
d5
ba
41
42
37
52
35
b7
2b
97
58
38
2b
23
70
dd
9f
89
d6
e3
e0
a9
7f
40
44
88
fc
e2
a2
a6
73
8e
f5
b2
59
b1
4b
0b
22
e7
2f
e7
d8
d5
1d
06
f8
0f
07
c3
cd
cd
b4
d8
6c
45
b3
cc
6c
0d
67
76
6b
e2
0c
bf
d7
fa
41
37
21
a4
7b
f0
a6
a1
71
9e
17
0e
f9
7c
88
a3
bf
89
63
0e
8c
93
ce
31
4e
8f
55
3d
c0
4d
ce
9f
ad
9a
83
5a
57
82
03
53
31
52
d6
19
fd
0f
70
14
ad
75
67
54
35
64
e4
7e
3d
43
75
85
4a
26
df
c2
05
80
cf
07
b6
46
81
e5
61
13
bd
d3
f1
2c
af
b4
31
ce
62
9b
9c
e3
c4
99
36
a5
d0
6b
86
84
3c
bc
6c
4e
13
49
19
32
3e
72
dc
a4
ef
87
ee
ea
57
56
14
09
b1
0d
5e
73
56
1a
b5
b4
f4
f3
cc
b1
f0
c7
30
3d
68
09
6f
a0
9a
fc
39
71
ef
c5
0d
b8
51
e0
59
96
5d
25
52
31
b6
e9
26
9d
94
23
80
1e
52
b0
c7
7f
b8
3d
b5
45
6a
a3
e3
d3
a3
ca
67
79
2f
62
89
56
c3
18
64
b6
8a
62
23
df
3a
35
57
8f
7e
7b
bc
30
aa
c7
99
61
2f
fa
3b
fb
02
50
5b
d7
c1
ae
be
03
2b
da
c0
fa
cd
a5
5e
57
39
4b
5a
15
f3
64
fb
e4
b1
bd
bd
76
83
e0
d6
43
9a
0a
15
b9
60
b5
7c
2c
42
d6
f8
03
e4
20
11
81
1e
54
ef
c7
78
53
db
20
4b
49
6d
d2
72
2e
8f
54
a3
80
05
b7
11
81
d5
6a
b1
e8
b2
74
15
ac
1b
93
64
bc
a2
28
49
20
6d
11
26
e1
65
3e
88
29
f0
d5
3d
a3
03
e1
06
0b
95
27
85
5e
7f
f2
0d
4f
1c
35
8a
99
0d
c7
a4
d6
b5
d4
69
46
11
88
11
1e
4b
83
bf
d0
b0
ae
fd
27
61
16
58
32
0c
3e
58
e9
82
3c
21
f9
26
4e
ce
07
c6
52
97
b5
26
89
e4
5a
2d
dd
80
0a
a2
5f
0c
d9
29
33
8d
54
a3
9e
de
5d
e2
c7
25
51
68
e6
ce
e1
d5
e7
35
ea
61
2d
12
42
c8
0a
1f
1c
e4
9d
18
c1
5c
f8
3b
e9
c0
cf
da
d7
24
03
64
4d
49
03
1f
c6
c3
31
2a
c0
69
45
da
f5
b2
7f
2f
23
ab
c1
91
aa
cb
b5
df
35
89
a7
79
7b
09
73
b9
0b
31
f0
26
ae
f2
fa
69
a5
31
4f
53
9c
80
64
d9
ce
a4
21
84
04
9b
9a
e9
05
21
7c
d8
3e
4f
5d
8b
ed
6d
f7
61
9d
10
af
47
31
57
d3
2f
bb
14
68
d1
fb
e6
48
c8
a1
72
37
dd
b7
24
11
a9
56
5d
8f
f5
e6
e5
e3
d9
cb
ac
1d
ac
d1
9e
ec
32
6e
6e
ee
a2
09
6d
7f
9a
ef
c5
55
7a
4a
69
e1
cf
81
13
8c
96
ee
7d
77
98
40
d6
3d
ed
3b
98
00
16
fc
c6
01
f6
e1
d6
5e
6e
53
78
23
75
7a
40
56
0b
d5
14
cb
24
39
0b
6b
74
8b
8a
81
20
1b
dc
fd
dd
0d
fd
07
c8
c9
80
86
36
5a
9b
8e
51
24
c7
19
8f
b7
6e
f4
a0
58
9c
27
29
9d
8c
80
35
91
fc
7f
7b
0f
95
00
74
07
67
83
7b
95
e2
9d
4c
75
2b
53
60
b4
52
c0
b5
55
fd
9d
0f
a0
83
61
fd
99
71
ec
69
17
2c
72
0f
5b
c8
06
40
0c
28
48
8e
5a
6e
ca
a9
c9
d7
71
a0
88
57
fb
64
00
7e
3a
a5
2a
ab
9f
b2
c9
41
c2
bc
76
9f
43
27
68
53
e3
b0
a4
99
81
7d
65
6a
f7
dd
a2
db
d5
f6
1a
c8
d4
8a
ac
93
30
89
12
6a
21
8b
4c
0e
4a
63
e7
6d
6a
09
5b
6c
0a
b2
a8
93
5a
03
16
ad
f2
45
9e
ad
80
f9
3b
f0
d1
6a
92
dc
0a
ce
1e
18
3b
e4
b5
aa
9a
9c
36
d9
d6
82
ce
16
6e
c2
b2
a4
22
be
cd
11
7d
8f
f3
7e
f5
84
ae
7a
28
30
c8
67
e3
7c
97
76
8a
97
ba
c2
32
a4
12
33
70
f3
9d
73
f4
e8
b2
ac
2c
f7
80
06
3f
f8
f3
65
be
83
cf
9e
61
b5
7a
d5
c7
00
e2
16
c9
ea
b3
2c
e0
62
dc
33
56
b6
ec
02
82
f8
f4
5c
3a
42
16
6e
85
ea
20
d8
30
86
b0
91
96
3a
43
2a
59
c4
39
e5
2b
a7
6a
97
1b
81
31
d1
05
73
a6
d4
42
39
3a
a7
12
cb
4f
67
ad
7c
46
c5
fd
86
a7
c9
e6
0a
8e
a2
56
aa
c3
30
f9
4b
f5
09
f1
98
71
bc
26
39
ee
f6
74
c4
1e
3f
ce
b2
ef
2a
d6
fe
7f
99
97
a0
4c
48
c9
2d
df
ab
1a
12
98
10
ce
f6
3a
9e
a3
f2
6d
0a
d9
57
b4
3c
56
0d
f0
38
bd
a0
0d
65
2a
3b
5d
37
5f
69
53
43
fd
17
e6
c6
ae
78
fc
c6
b0
05
88
30
b0
01
b0
25
e1
7b
47
a1
4d
b5
c0
15
a1
cf
d7
b3
1a
82
fa
6a
36
8f
80
c1
08
1f
d1
e5
da
16
a7
03
b2
c1
fa
b8
c3
e0
8c
44
a8
d6
29
03
07
f0
18
b3
96
ab
6d
ce
d4
eb
4c
21
bc
35
7a
da
e1
30
fe
f3
f8
d7
f2
c7
72
77
08
26
08
1f
81
77
66
36
1f
6e
f6
2b
23
4e
17
6a
7d
47
18
0d
80
1b
3f
4c
07
06
8c
98
ec
a0
47
86
1c
e6
85
1a
1f
3f
b2
2f
1b
33
38
3f
65
a4
dd
21
ec
39
11
4b
e1
99
7a
a1
1a
b4
73
5e
da
16
6f
d0
1b
dc
15
05
4a
44
ee
ca
dc
ec
ca
fb
c7
b2
04
86
a5
09
ee
23
30
4d
ee
41
81
ea
67
6a
94
51
33
ac
08
3f
22
c4
a6
5c
41
25
5b
2a
0e
e4
90
7c
47
37
58
95
3f
7b
be
94
b0
61
c5
2f
1b
f6
5f
c9
5b
7e
b3
48
ec
3c
d2
47
82
73
34
d7
00
74
d0
0e
95
7f
0f
72
02
f5
2f
f9
48
7e
8d
9f
f8
bd
05
30
2b
6d
0b
75
9b
f0
e3
37
8f
4a
68
70
27
dd
18
f0
4d
48
19
78
a0
43
a7
34
38
1e
58
09
08
aa
97
b4
2e
70
24
4c
9d
e3
2d
53
4c
a7
07
cb
61
1e
0b
5f
0e
e7
f5
49
c0
bb
2f
42
ca
75
3c
e0
ee
48
46
69
52
68
0f
1a
13
b5
b6
05
3d
f7
16
3d
88
44
70
b9
52
68
9e
92
1e
b1
60
c0
9e
cf
a9
1f
fb
e4
af
11
65
b3
dd
81
9c
52
3f
15
94
cf
c0
1d
f3
e7
1b
d0
eb
1a
61
a7
9f
54
ab
89
1b
7d
57
d4
77
61
b1
67
c2
c8
e2
68
8f
9f
fd
d5
46
7d
5d
e8
33
33
69
c3
fb
52
33
dc
59
f6
0e
be
9f
d7
7e
82
6c
6e
ca
e0
d5
d3
fc
b6
f3
7b
87
26
df
a7
e0
15
84
18
0f
6b
75
69
a3
b1
d2
c8
e0
01
3c
7e
80
07
cc
b7
f1
95
55
c0
7f
1c
4c
33
02
7f
9e
65
5a
8f
3b
34
f7
a5
52
64
ba
1a
49
a3
6f
1c
5f
23
b8
08
3c
36
57
81
17
be
73
8e
0f
b3
de
55
be
db
9c
0a
be
37
08
0e
b1
6e
05
0b
a6
89
73
11
df
e9
a9
94
f7
05
04
45
06
f4
2f
5e
48
18
a1
60
cb
8e
90
4c
68
01
9b
13
51
92
51
e7
3a
1c
88
42
a3
98
8d
92
7c
cf
b9
96
6d
4a
a2
7a
18
c5
2c
f6
f3
0d
fa
7b
54
aa
31
b1
4b
e2
6b
22
9f
4c
12
aa
34
db
16
b7
ce
45
73
f6
c3
b0
4c
47
13
80
70
33
62
95
2b
56
ed
c8
0c
13
54
5b
62
1f
35
f3
9a
22
fd
f9
5b
23
99
43
68
70
f1
9e
2e
d7
8f
66
0c
52
21
17
43
1a
f6
a4
0c
43
3c
0f
02
62
cf
6c
24
3e
0a
f6
9d
7c
bf
ab
54
94
fc
1d
b9
9c
50
19
d2
1f
3d
be
a8
17
13
3d
4c
5a
be
14
05
d6
79
8b
9f
ab
b8
21
a5
f6
10
ab
6e
9d
20
e9
09
d3
7c
d2
32
cd
c1
fc
fa
8c
e8
f6
00
61
0b
5c
4b
8e
20
c3
14
0c
36
0c
93
35
0d
08
8e
9c
9a
22
d4
8a
ca
fd
62
a2
a9
de
a0
63
d8
b1
7e
33
3e
ba
a4
8b
db
9b
6c
5b
1c
da
39
72
b7
04
f8
c1
4e
fb
09
95
ce
8b
95
0c
c8
6d
1f
5e
fb
06
6a
25
16
5e
bc
9c
d1
4c
8f
65
7a
cd
d7
02
a0
06
fc
3b
af
32
fc
28
ef
ca
41
b6
c8
bd
66
55
16
ad
c3
4e
af
87
fb
a5
9e
4e
29
2c
bc
6a
de
de
78
ce
c9
1b
e0
41
7e
50
3a
77
9d
97
ec
d0
d8
9b
7f
97
a9
61
4d
d3
75
ed
1c
80
7b
c9
e4
c9
a3
0f
11
14
33
d4
c0
25
3a
e1
cc
a1
d4
93
b6
98
de
68
bc
e8
32
4d
7d
67
58
26
94
52
06
90
91
a4
7c
50
a4
9e
52
19
f2
76
bd
da
13
65
60
d3
bf
d8
8c
9a
40
46
c2
a1
08
77
a0
96
72
b2
15
93
36
c1
ec
b7
de
bf
f9
26
90
33
fc
13
20
fc
19
75
8e
ef
f6
19
c0
a9
cc
a5
d4
c1
7c
2f
1b
e8
c5
c4
d1
29
cb
6c
d0
94
6a
e0
82
00
5a
c6
8b
5a
d5
ad
fa
db
72
4c
50
d1
da
2a
24
8b
ee
3a
0a
4c
c4
b3
14
c7
b8
b4
aa
3f
8c
c8
34
a6
24
53
c2
76
1d
7b
c3
92
9e
b4
ce
d8
f4
34
21
6c
4c
9b
c7
06
0f
33
f9
c0
1c
f8
fd
7d
15
3d
b1
fa
d7
3c
67
9a
6f
f1
04
cb
4d
94
a7
22
c2
62
0f
30
06
a5
dc
18
7d
37
37
3e
f4
1c
cd
2e
f2
da
d9
2f
81
2f
45
9e
8a
13
06
49
01
27
15
c7
49
81
4b
e7
5a
61
ec
8b
d7
48
ef
63
0f
56
13
fc
6a
5d
ec
8d
f2
91
88
f0
22
1f
fb
0d
6e
88
42
eb
5e
df
c2
d2
e6
76
23
53
12
df
39
6c
bb
cd
55
5f
9c
e2
c6
88
60
a6
cc
40
ce
2b
9e
80
bc
f8
75
90
fd
e7
4b
02
01
84
97
0a
c1
db
67
85
b6
22
3c
3f
b2
db
d9
8e
55
7f
f2
51
dd
4c
68
e8
fc
a9
b2
a9
4c
25
66
53
08
21
aa
64
68
67
94
84
6e
5a
c2
d1
0f
7c
67
08
e7
20
e5
5b
aa
dd
22
75
70
d5
1f
3c
62
b9
39
f6
60
f7
32
ad
f1
f7
d1
41
d1
7c
12
c2
b4
d1
84
4b
b9
0f
a0
c2
8b
79
43
78
c1
13
26
a2
c8
d9
ee
3f
00
79
29
d8
f8
65
c2
ea
ed
1e
54
40
7e
23
9f
c9
da
74
37
1e
e3
22
b6
0c
79
3c
a1
59
35
6e
48
a8
c9
a5
99
10
46
e3
d2
6b
ee
ae
80
d9
21
2e
76
24
3f
db
c5
b9
5e
4a
49
5f
ef
aa
84
0c
d2
50
d1
45
cb
15
cb
58
2a
71
e1
aa
13
fa
9a
11
26
37
b5
27
d6
99
2b
d6
1b
fc
35
6c
f8
51
32
32
f6
1e
bb
85
a7
43
11
35
df
9f
d5
fa
20
45
fb
16
9a
de
02
d0
4e
96
0b
a1
b4
94
e3
4f
c8
59
d5
de
76
8c
80
f3
9b
6f
64
1a
b1
d3
8b
ba
fc
d6
62
d6
ba
89
d7
ad
b4
c0
5d
4f
3a
b5
a6
07
62
df
c0
d2
96
09
ef
aa
01
ee
9b
88
63
6e
97
f1
62
00
da
e9
30
f8
d4
e5
eb
83
95
22
3d
7f
9f
d3
7d
61
e7
4a
02
78
e0
4d
8b
28
cf
31
a7
87
29
67
59
12
d4
95
3c
04
87
14
4f
04
83
48
c2
7c
43
9a
f1
13
08
0d
3b
7b
9a
f8
a0
f5
bb
92
71
0e
07
8a
d6
4c
be
7b
d2
65
0a
29
1b
5d
1e
c1
1a
93
96
b0
a3
34
04
ac
29
2c
e3
5c
df
34
dc
40
0d
54
7e
eb
17
4b
15
78
fc
27
3a
96
c6
2f
9d
ef
bb
a3
bd
a3
5d
b8
be
0c
c4
ed
02
b6
b9
50
a7
25
f4
a8
3c
50
86
c7
c6
3a
ce
8d
4f
33
10
5e
90
4b
d6
5a
cd
2c
c8
97
d9
74
5d
58
e9
85
00
3f
e6
6a
78
94
7d
32
35
63
e1
79
5a
73
85
45
33
44
87
11
72
d1
91
1b
f0
e0
df
f1
68
06
f6
f5
da
a6
66
6f
a5
db
57
a0
9f
08
d5
99
1c
10
41
c6
9d
2f
88
64
8f
81
f7
8d
99
0a
16
b8
6f
eb
38
31
35
16
16
dc
4d
75
f8
d3
b4
0d
63
2c
d7
b7
a5
75
2c
3b
76
7b
3a
fd
b5
5c
4f
a1
0b
df
97
4a
de
1a
be
58
cc
3f
a3
c7
6c
48
cb
ab
21
bf
e1
45
63
dd
17
fd
3d
d4
8b
cb
58
8b
f3
f2
f8
f5
90
99
42
ea
64
26
30
43
83
e3
9a
cf
d5
61
db
1c
d0
d5
87
3d
2b
a4
99
2b
45
78
ad
9a
c4
1b
e1
87
4a
c6
03
a0
f9
7d
7b
cd
88
4f
f1
53
57
c9
c5
58
b3
b0
d9
0a
52
83
69
99
aa
c1
10
3e
1a
77
b1
18
01
ba
42
58
7f
3a
f3
96
52
95
f8
46
d4
6d
d4
f9
c9
0c
c3
0d
19
48
9e
82
6d
87
bb
ee
56
9c
e4
c2
13
83
f4
69
79
76
db
12
45
63
79
a6
98
c9
96
01
f9
4e
53
dc
20
4b
6f
14
e4
b0
9b
ba
9d
d4
fd
7c
cc
45
69
10
14
9b
77
31
0c
85
bc
e7
45
93
16
13
05
72
2f
49
5a
e5
75
a0
fd
33
0e
bf
50
23
92
17
9b
39
de
5c
d4
46
8b
6e
d1
47
b2
b6
8f
31
b4
e9
8f
d0
a0
87
d8
25
f8
b4
33
64
43
0e
4b
91
6f
54
1b
21
6f
ed
95
4d
11
03
93
a5
94
89
28
50
63
d1
83
3d
09
dc
27
d8
1f
e0
e0
29
bc
22
ae
c1
74
9d
0d
8e
d1
05
17
8f
69
5f
85
57
04
99
a6
f4
60
99
cb
da
b4
62
7d
45
85
a1
72
4f
da
1c
88
2c
f2
23
40
6f
7b
fc
dd
d5
1c
b6
71
7b
9e
90
0d
57
4a
a3
ae
1e
c6
d4
04
99
86
23
76
9c
63
19
c6
eb
fc
64
4f
5e
e3
a9
25
b1
8d
87
57
33
ee
86
29
a8
0c
9c
55
1f
bf
73
e4
29
73
70
9b
cf
7f
2a
83
1b
32
22
b2
7b
7a
55
73
ac
b3
8d
2b
1c
d7
de
17
9d
df
a4
65
17
b8
d0
a4
52
44
24
b8
02
ea
22
39
23
ea
8f
d6
97
1f
ad
60
50
f0
bc
68
31
49
19
8e
0c
44
f4
b5
aa
4e
3b
36
c2
7f
19
05
be
b8
1c
93
56
14
9d
a7
a0
50
28
a1
5d
1b
cd
54
32
a1
c0
d0
75
c1
ee
e9
64
ce
75
24
05
c2
f6
58
90
20
d8
0a
c7
3e
63
d8
ec
12
3e
cf
80
12
86
e7
2b
88
cd
f1
f9
14
05
e8
04
f5
57
80
28
b9
1d
23
c5
b8
7f
43
f4
fd
fc
3f
4e
52
bb
89
f0
30
4e
89
77
5c
de
f4
3d
fc
6a
88
a9
02
76
50
4a
d3
84
3a
85
10
88
47
03
09
c1
8c
87
db
b1
28
36
52
dd
4e
e7
62
8b
cc
e9
88
68
5f
9c
0d
3a
6a
23
b6
58
ee
01
ca
ba
40
6a
08
3d
ce
e1
de
a2
94
a9
4e
0c
64
b5
51
94
54
56
c5
68
60
77
27
a7
8c
39
02
f1
a9
ca
66
41
d4
bc
b4
a7
bf
e8
a2
1e
57
b2
a3
63
fb
30
0c
6f
9d
ac
b9
7b
78
43
c5
23
13
3e
f9
33
a4
46
f4
a5
98
76
e7
1a
8c
33
18
55
6f
75
1b
35
7d
e6
51
4a
6c
29
41
71
cf
c9
c7
9b
d1
5f
c9
e1
28
ea
f8
e4
39
46
c7
cb
bd
93
85
a8
5e
07
07
94
3b
b0
59
f4
b8
6b
07
0f
db
1b
31
98
0e
73
1b
a0
e1
39
6c
ae
ae
09
af
e3
1f
95
da
50
66
06
1b
1a
c3
ab
51
e2
c3
c6
09
37
25
1d
02
bd
45
11
b8
37
1d
1c
a0
c7
67
a5
47
9f
44
1f
24
e1
c4
9a
05
f5
ca
c1
80
8d
19
88
c6
c8
7b
0d
3f
15
96
7c
0e
28
2b
22
7f
8a
f2
2a
0d
bf
f9
b2
cd
f2
b3
76
ae
e7
13
19
d1
e4
8a
46
57
84
45
58
b6
b8
d3
21
68
44
ab
6d
0d
ed
f9
8a
ec
cc
47
be
1e
3b
e2
c6
e9
c0
6a
af
b2
d4
99
25
be
cd
f7
94
cb
fa
5c
10
7a
0b
31
d1
b8
4f
e2
9b
47
a3
e2
bc
fe
7b
9f
27
2b
0c
10
cf
73
06
48
7f
e8
cc
f2
1b
20
0c
02
bc
e4
29
2b
63
1a
3e
b8
df
01
34
d0
35
0d
4e
bf
9e
4f
54
d1
5d
81
e8
9f
6b
7f
eb
44
bf
27
e1
4f
93
98
7a
63
5e
86
dc
f2
a2
65
15
80
0a
cd
fb
5f
e9
3f
12
61
82
3f
bb
5e
9e
58
fb
87
c6
a9
be
f3
25
b9
c3
f0
54
0c
1e
0c
4f
f4
bf
e1
63
44
b2
83
48
74
26
ca
94
3f
1b
31
a9
cc
94
fa
a7
72
cc
21
9c
19
64
47
fa
3f
b4
b2
61
3c
d9
87
04
75
8c
91
05
46
14
7a
21
e7
ac
94
57
29
be
a7
16
79
3d
58
03
77
ee
38
77
b3
e8
75
8e
86
5e
3a
a1
71
88
54
5b
9e
9d
27
7c
7b
33
2b
b5
d8
6e
90
a2
e3
63
54
62
7e
8a
16
8f
86
ca
c2
f6
dc
df
eb
d1
14
b3
2c
d1
b2
2d
6d
05
1e
1e
53
bf
ed
ec
bf
e2
2a
7f
72
95
7c
e1
53
52
00
f5
71
fa
d3
ee
05
a9
3d
73
1b
7c
b8
0c
01
a5
55
ec
63
01
80
0d
92
0e
00
03
87
9c
ec
61
9e
55
8b
66
4b
7f
2b
b5
7c
09
a2
1d
a9
25
14
dc
cb
0e
07
1a
dd
af
01
b9
16
33
8f
e8
53
10
1a
2e
dd
7b
f5
fa
7d
8a
e6
b0
64
d6
d0
60
76
c0
af
03
23
27
b9
7f
99
29
1f
7e
d5
82
de
03
0e
1a
3c
94
89
83
a2
0f
f7
4c
ac
e0
ac
87
ee
f9
3b
8f
52
85
3c
c1
21
52
63
59
bd
62
bd
27
12
6b
84
f5
df
f2
0c
9a
a9
78
1c
1e
77
01
8a
7e
d3
64
22
c4
7d
da
7e
ab
d8
4e
d1
22
fc
3f
03
61
66
d9
7e
72
44
bf
8c
c2
bc
7c
42
44
50
7e
cd
c8
2d
87
74
04
00
af
84
ab
97
ab
5d
96
87
e4
71
e0
89
4c
37
23
79
61
c5
a0
e1
f6
e3
fc
11
4d
e5
b9
4b
e4
f5
39
6d
02
50
02
00
a3
b3
8c
88
e6
51
50
5a
7b
0c
52
06
20
dd
a9
9d
63
f9
37
2a
42
e4
a6
30
ae
17
5a
1d
c9
2b
03
11
44
52
f0
f6
e5
87
18
a2
78
4d
b9
43
ba
4e
60
ce
54
1b
eb
2a
43
f7
38
6f
cf
f2
b1
c9
b2
62
22
a0
03
af
a1
88
e8
a8
b7
85
9d
be
39
b2
3a
76
43
c3
d0
78
e2
5b
23
20
fe
db
2f
a4
fc
f4
c1
6f
97
30
82
ef
c4
d1
5f
82
b6
1e
21
93
fd
78
69
4d
c4
54
57
c6
22
5b
3a
14
93
52
11
98
f1
52
56
b6
ca
6a
db
ca
49
37
0d
19
65
d5
2a
0e
f2
40
89
1a
0f
86
bf
77
82
91
07
b1
2e
e6
83
c3
fd
a3
af
ed
30
d1
3d
5d
1e
8e
72
be
e0
28
53
f7
1a
37
8b
15
98
c2
0e
77
38
e7
2a
4d
f1
9c
17
3a
49
91
aa
f6
c8
fa
3e
63
87
8d
3b
27
05
13
31
1d
e0
d4
46
6b
bd
9d
7b
b0
3e
62
27
53
d1
0a
ac
fd
12
8a
41
de
