20
9a
80
f2
55
17
28
c7
b0
55
ea
b5
72
2d
9d
51
75
15
47
b9
9b
5d
ba
db
ee
0b
1c
54
56
44
db
1b
31
57
9f
94
03
2c
42
59
67
27
b7
47
36
6b
20
a9
33
93
04
49
d9
f1
e4
28
08
06
9e
6f
72
1f
19
6d
c5
8e
76
b5
c6
31
66
65
53
65
40
37
9e
0a
fb
40
58
73
0e
10
70
92
18
01
b6
ae
97
13
5a
0d
32
79
40
69
c3
03
88
53
7f
d7
eb
b1
9d
1b
0c
ed
3a
12
12
b6
3b
14
3e
d4
52
ce
6c
16
d0
3b
a4
5d
5f
f0
f0
b5
33
2e
95
0d
85
ac
48
3a
9f
76
93
b9
ee
9a
d3
56
01
fe
8f
e4
0c
4f
8c
df
76
d4
14
a6
13
ea
92
58
ee
23
f4
bd
57
e6
ee
bf
b6
83
e8
70
37
95
ab
46
42
2e
24
6f
eb
22
c1
2e
a6
0b
4e
1a
7a
3d
0a
17
9d
dd
2b
a1
84
ad
87
26
ac
59
16
44
55
e6
75
b4
04
1b
bb
70
ae
5b
12
16
ed
65
5a
be
2f
74
73
c9
26
b5
32
30
dc
a3
f5
d4
b1
9a
0a
e8
64
38
89
8a
a0
16
fb
10
17
3b
ca
5f
f6
0f
f9
42
39
69
6b
19
6c
21
35
0b
80
8e
38
32
29
07
01
32
5b
21
71
92
db
33
c8
e5
43
ad
85
33
aa
69
63
b0
1b
72
fa
51
8b
b4
64
0c
90
12
f4
6b
58
57
af
07
0c
9f
f2
40
c7
45
7f
77
58
26
56
69
29
23
24
a7
b4
82
d0
e5
d0
91
51
64
d1
be
42
68
30
7d
04
10
59
11
7d
92
1f
81
75
a0
56
c6
65
35
9a
4d
9e
23
5a
ef
36
09
63
23
af
46
2c
43
e0
01
17
a3
15
ad
b4
00
08
b1
59
5d
86
c5
67
b7
0b
5f
80
b9
16
49
d0
7c
d1
d9
1a
54
cc
76
a3
a4
ed
16
23
04
a9
b8
60
a7
da
dd
30
d9
0f
25
4d
ba
90
50
fc
96
63
ed
37
81
44
1d
cb
68
e9
d5
9e
a6
68
2a
33
eb
ec
46
f0
d0
fd
a2
c5
34
64
67
6e
23
b5
fc
26
c9
c0
1d
5a
6c
40
4c
40
54
bb
1d
5a
4a
02
89
20
c1
24
13
06
26
1a
38
2a
57
00
bf
7c
6d
2c
7c
1d
69
7b
f4
33
54
fc
2a
c8
31
28
7a
35
c1
5a
96
b9
89
a8
7b
e6
e1
96
e3
df
4c
ce
c9
b5
0f
ad
44
25
cd
6e
11
e5
a0
81
77
69
1e
14
ca
f9
27
57
6f
51
e1
13
d1
f9
35
98
04
7a
29
8d
70
e9
ed
e0
87
c3
19
99
ee
46
e1
db
d9
dc
d3
0c
f1
c0
18
82
ee
af
1f
c7
3d
fb
11
0d
c8
eb
59
93
d2
f0
7b
1a
e9
34
df
22
e5
c6
20
b3
49
9a
03
d9
78
3d
76
5a
e3
f5
c4
4a
02
57
23
d3
9d
38
0d
c1
0e
00
60
7d
4c
96
b9
46
8d
9a
0f
5a
3b
7c
75
50
2b
58
11
65
b8
08
87
cb
e7
1a
8e
0c
cb
f5
3e
dd
ce
b2
2a
14
e5
24
e8
b8
1f
92
23
36
fc
73
a1
bd
f9
25
7a
de
37
3f
0a
c1
75
54
52
40
5d
f7
54
e4
86
ef
f5
e8
78
aa
7f
fe
05
8e
c6
e5
4d
1e
f9
a1
af
5d
43
71
ac
ba
17
3e
ea
96
3e
75
74
d4
d3
19
c0
d8
31
13
6b
63
ce
09
d3
57
60
aa
07
7f
c3
96
6f
86
82
22
98
7a
d2
3e
ed
5a
6a
6c
c5
fd
5b
b7
22
ee
b1
7d
8c
6c
5a
7f
c6
35
a4
28
86
93
05
68
96
04
c5
61
94
d7
28
fe
90
f4
f9
60
d5
9f
24
85
59
55
a4
df
b4
50
eb
92
a5
f9
96
a5
ca
12
27
0f
94
10
9d
7a
bf
df
5e
e4
37
4c
63
f1
74
ae
26
d0
6d
80
f6
f9
6c
3e
31
a4
06
89
c6
98
97
72
95
a1
db
af
c1
40
2c
26
b0
b1
a7
30
8f
10
0c
7e
75
0a
ad
e4
20
0e
a8
6a
b2
22
5f
c4
d5
2f
f2
b5
6f
f0
43
93
0d
3d
e7
6e
a8
36
59
e0
3f
83
76
73
8e
e1
f8
67
23
86
e5
8d
6d
ac
4a
c8
c4
b2
d8
07
2c
9e
aa
8a
aa
06
0a
21
1e
17
b2
71
4d
33
ee
45
52
16
bd
d2
9c
fd
55
f0
15
9f
b4
fe
18
49
6c
4e
c5
06
45
46
fd
10
f6
ba
0f
32
29
47
d6
fa
10
60
7f
a0
a5
b0
2f
5c
ee
7f
dc
8f
31
b1
0d
de
96
8b
d6
e5
92
e3
ed
03
c2
39
8c
34
72
83
fd
8e
f2
77
07
6e
c8
5b
28
e2
1a
1d
a4
f8
d7
24
74
45
21
52
7f
fe
df
c3
cb
76
bd
0c
c3
90
b0
eb
f5
69
ea
89
f7
5c
75
90
59
08
cf
0f
da
06
f8
9b
07
37
e5
71
57
d0
c5
93
3a
e3
7b
63
ab
72
2f
30
06
3b
47
6c
5f
bb
91
19
ef
5c
20
ac
09
5b
0e
a3
d5
e3
bc
33
41
c5
ad
dc
a4
9d
50
07
25
37
ec
26
98
b9
c0
1c
d3
30
26
80
91
e1
0f
22
c8
9e
b4
b8
8b
be
86
e2
8c
89
93
63
dd
94
75
20
d6
0a
3d
b6
91
2c
8f
5a
73
f8
9c
5c
f9
90
66
d5
9d
f1
b7
5b
0b
71
a1
96
9c
e6
eb
d5
6a
dc
6c
df
79
9c
9e
0f
6d
b8
99
90
ad
65
fe
9b
f9
1e
f4
c9
41
80
1f
66
b4
71
75
3d
d7
ec
1b
b1
df
b4
c8
d2
23
21
16
f4
d3
d0
1b
f1
f5
65
83
d3
2c
9e
41
a5
4e
95
02
f0
44
dc
be
ee
ab
cc
5c
30
a7
30
d7
21
b5
59
8a
cd
86
07
8e
48
01
79
17
65
2a
b2
2d
27
57
f8
26
52
aa
59
f4
e0
b4
4d
2f
5a
e1
1f
6b
72
f8
64
14
34
8c
be
4a
56
dc
41
d7
0e
65
38
56
81
9d
ca
b3
2f
b4
01
0a
fb
0a
bb
52
49
60
15
71
7c
a7
f8
d5
0f
11
d6
fc
3e
49
bb
8d
90
92
44
61
1c
df
9e
48
f6
8b
ed
fe
ea
f4
46
03
7f
1e
48
12
37
97
99
55
81
66
14
a4
c6
ea
0e
f6
6b
64
55
d3
f0
66
11
02
6e
9b
9a
51
2b
f1
d3
ed
d3
70
74
e1
79
9e
c4
73
91
41
df
09
92
76
6f
f7
fb
49
8a
79
3a
e6
76
4d
f5
06
d5
8a
be
f0
49
79
6b
a9
fc
1a
38
e2
4f
68
07
98
55
6a
75
71
af
02
1a
ba
ed
25
96
ba
e9
4c
8d
80
21
a0
6f
9f
92
b9
41
20
f3
72
84
46
40
0d
00
5b
da
f3
6a
11
29
f6
91
45
38
e7
39
ba
94
3f
50
27
02
25
a3
a6
80
68
d0
df
bd
c5
f5
c8
68
85
ca
df
80
6b
52
ec
5f
aa
27
fd
6d
ea
45
0e
ca
18
de
8e
21
f6
3a
1f
1c
06
17
ca
2a
65
6a
71
06
97
ae
c9
f7
23
aa
bd
65
5d
00
76
ba
0e
f6
11
44
99
60
a1
8f
c1
11
2e
a8
30
79
2a
6d
74
27
de
7d
b9
7f
e6
84
5e
12
d4
2c
84
de
4f
21
e8
36
ab
5c
46
71
54
ce
9f
d5
c4
a8
06
2e
66
e2
f1
15
6c
9a
b4
08
d6
07
c2
ea
5a
15
bf
57
fd
fe
22
93
1d
28
5c
e2
4f
28
66
1e
03
68
ce
2e
60
ad
ba
53
92
0a
45
46
be
04
04
49
a5
fa
bd
2e
79
bd
09
da
0d
76
4b
09
8f
7c
58
83
e8
fa
8b
8a
5a
32
46
7e
61
19
4c
3b
6f
ce
1f
96
93
95
83
1e
12
6d
d1
df
a1
f1
fe
ea
45
33
9b
a1
74
f6
90
0e
64
f4
16
73
81
1f
36
b8
45
7e
f9
96
f2
b1
21
fc
54
85
44
27
9e
a5
72
e4
d4
12
7e
1c
72
29
35
a5
92
23
b8
0a
0c
a1
70
a8
7d
70
76
7c
25
7d
97
86
9b
f1
f0
a5
8f
c9
fa
9f
29
c7
26
fa
c7
6d
83
41
e1
8b
01
e9
0d
8f
7f
2b
e8
29
d4
42
72
10
73
d7
c2
9f
85
ea
01
cd
c3
27
4f
c8
b1
d5
37
10
8d
7c
06
72
80
71
69
fc
18
ac
08
10
70
6c
a7
3e
da
7d
d4
94
a3
b7
c2
73
5d
37
91
40
f8
c4
21
37
7b
14
f9
8c
ca
c8
1b
e6
33
d2
bd
57
e7
db
bd
bf
b7
11
37
67
f1
bf
a8
db
a8
0a
cc
8f
5d
70
b5
da
0c
17
92
ad
8d
d6
8d
e5
77
05
b9
46
30
4f
2b
c0
be
be
6c
f7
9c
62
42
5b
fb
8d
c7
1f
d9
93
e3
ac
00
51
b7
3f
53
f6
44
59
00
a3
00
3f
cb
0d
f3
ab
8b
3d
94
2b
72
31
a1
b9
90
a8
38
8c
f0
4d
9f
3a
91
f0
eb
bf
cc
7f
73
a4
37
98
82
66
20
05
04
2b
78
00
05
a5
f8
95
95
28
c9
1e
06
9d
da
04
72
c0
48
e0
2c
11
f7
81
54
d0
80
e0
ac
de
4a
29
ab
ee
d6
c8
a8
41
05
42
3f
78
00
6e
f9
36
d4
f8
5a
50
44
c0
c3
66
2b
78
14
d4
a0
cf
dc
01
0d
60
01
0e
b9
ec
c6
e6
f5
5f
35
8d
d9
14
3e
a4
ea
65
3c
2d
35
22
d7
88
2b
71
f2
d0
48
ca
f9
83
84
14
da
97
9f
08
ef
57
73
69
d8
8c
ae
13
ce
1d
84
94
55
3e
8b
e7
ba
1e
56
2c
6a
a1
d6
50
76
5c
41
c6
70
32
d2
b1
be
7b
8d
73
1e
ac
33
f6
51
4c
8a
7b
be
72
0f
0d
b0
9f
f2
57
e5
5a
64
7d
b7
87
6b
70
14
b0
0d
45
52
f4
9f
c9
5b
4b
3b
d4
67
91
f8
9a
70
0b
4d
44
3e
8a
23
47
a5
7a
89
a0
91
02
5d
ef
83
86
98
ab
f7
e4
a9
da
ab
bd
43
2c
a4
a0
db
20
80
70
c6
9e
5e
88
70
5f
79
c9
05
5b
9b
49
9a
3c
a9
84
7e
15
e9
dc
b8
d4
34
8d
d4
fe
ab
02
19
6a
5f
99
f9
f8
96
58
f9
7c
30
44
f1
8c
45
d3
65
9b
2b
7d
2d
4e
1d
10
39
c0
3d
c9
6f
7a
d4
04
cd
d8
19
3f
94
41
36
f3
62
fa
3a
a1
6a
b1
00
22
d1
87
49
4b
78
ec
5e
b3
96
79
16
11
7f
a7
bb
36
17
eb
5d
f8
3f
31
81
94
8f
b3
20
d1
18
b2
80
44
64
9c
4d
e1
3f
4c
2e
1f
ac
9d
7c
79
bf
1a
65
b1
71
20
63
18
c5
05
38
ad
8d
43
5e
39
e6
4d
21
3c
9d
42
40
2b
1b
c6
02
7a
c7
50
ad
f5
9a
9b
be
60
9f
d1
be
77
10
a7
26
05
cc
3a
70
ae
67
cb
68
9a
69
55
be
a7
42
f9
cb
19
8c
31
6b
d6
06
bc
7c
8c
61
42
2a
4b
0b
74
74
01
51
f7
d6
01
6a
44
df
60
2e
c6
00
b6
7e
48
20
58
24
b0
e3
69
1a
b7
97
af
b7
90
c9
47
6a
fd
3b
98
dc
26
4b
b4
fb
b2
12
7b
aa
87
c7
90
80
77
e5
19
aa
35
1e
0d
59
cf
54
f7
a7
2e
01
21
e6
34
ef
de
88
29
1a
d4
c5
52
cd
41
a8
85
d7
8d
72
4c
08
b4
12
d2
32
bb
42
b2
be
93
85
32
ec
12
d5
36
ac
ab
bc
c8
af
47
00
f6
c6
47
dc
90
d1
b4
96
30
02
61
52
dc
89
49
a8
c0
a4
31
95
f9
10
2a
c8
34
30
60
a7
ed
d5
95
ad
a6
75
42
01
b1
da
68
a1
b9
a0
ef
53
ba
09
1a
f0
b1
44
d1
11
ea
3a
e1
d1
10
7c
a1
22
85
23
33
21
d7
cf
ac
cb
3f
bf
a9
0c
a6
1a
4b
02
62
15
b2
64
a3
33
8e
ab
ae
05
ea
16
57
c2
dc
2d
92
d9
1f
d0
01
48
25
74
03
a6
4f
6b
62
55
f4
5a
4a
53
cd
54
b2
27
b8
df
23
95
b6
6b
83
03
bf
38
b8
c3
db
96
c7
f1
6c
3e
6e
a4
10
e4
c8
19
1c
86
12
f6
e8
ae
d0
cd
43
b0
17
e1
eb
fd
f1
cb
1f
92
a7
52
07
8c
0a
64
17
20
3e
85
6f
ad
a0
d9
45
d0
24
ef
8a
54
77
27
e5
e2
b9
85
8e
e3
3e
75
23
1c
cb
77
8a
0d
41
4d
18
8c
de
26
15
62
f0
62
a8
29
85
cf
77
3b
d2
36
1e
ca
1f
a7
63
b6
2a
4a
37
5b
a6
c0
fb
d6
d3
48
56
be
66
e9
6f
48
4c
b0
7c
d5
41
dc
04
f0
97
11
69
2c
ce
c5
5a
29
17
d5
65
e5
45
08
fb
42
7c
ca
49
83
4f
54
16
0c
45
24
9e
b9
8c
1f
e7
c1
5e
9f
b2
69
57
c7
d3
c8
9a
15
33
ac
b5
be
76
df
57
58
d9
23
4a
5a
35
90
60
22
e3
80
57
4b
da
1b
06
b0
33
5a
c5
af
ae
13
ab
08
c0
2e
cf
f1
45
7b
73
17
80
76
37
60
b4
1a
57
bd
04
b6
ee
df
06
ab
7d
de
f3
44
76
3d
ca
5f
20
64
b6
e1
27
de
de
dc
94
6e
36
b0
06
f6
d9
ac
5a
58
cf
b5
2f
92
fe
78
1a
fe
fe
9a
41
89
7e
33
22
f1
fd
57
e7
66
43
b1
5b
8c
0a
a3
3c
73
9e
3f
c9
02
73
43
4f
e9
d4
be
f7
e6
fd
62
ce
fe
12
83
c4
89
b4
90
70
0f
39
cc
81
a0
12
a1
98
b7
9e
f7
1c
2c
7f
bc
cf
ed
3e
2e
5f
bf
d3
f0
eb
62
fd
dc
b9
15
df
17
99
b8
ca
2e
49
8a
da
a3
5b
be
ef
df
03
b4
50
24
28
0a
e9
69
73
f2
6d
04
90
37
1b
f1
89
2e
42
19
9e
94
ee
3b
6d
ac
a7
34
a4
1a
eb
68
d4
01
6f
bb
7f
71
fa
f2
b1
76
83
fa
4c
9c
ef
b0
0b
4a
4b
1e
25
0a
31
27
56
c2
dc
86
cd
ea
ca
02
d4
a9
98
6a
dd
4e
82
82
ed
86
bf
5a
38
dc
b7
0b
ac
3c
b8
59
8a
35
13
24
3e
2a
cd
52
b4
ee
52
3e
bd
47
81
38
5e
12
43
71
72
98
55
58
08
0d
7c
32
73
97
b7
84
00
89
0d
20
4b
a6
b9
86
ad
29
e8
1a
99
70
e5
33
d1
e3
e1
da
4a
be
41
da
1f
f9
8d
b6
86
da
e2
55
63
bc
fe
3f
e8
df
ee
39
29
c3
f0
a2
76
0a
9e
c6
cb
32
29
93
38
32
8e
2c
40
57
5b
62
6c
67
2a
ed
d2
8b
15
4b
60
49
46
a2
b3
68
5d
00
82
78
5b
3d
5d
88
d8
ec
d6
af
5f
cb
92
9a
a4
6f
25
1f
74
59
cd
3f
f1
a7
1d
55
ba
a3
b7
91
cc
b8
29
4b
cf
6c
8c
a8
ac
8b
09
88
f0
77
b1
ee
fe
a8
8d
3f
dd
b9
78
0a
73
50
97
60
a9
23
91
fc
8b
11
f2
de
fb
d4
35
44
7a
19
e2
a4
6e
fe
65
67
2c
87
2f
17
a3
58
73
a1
ac
4f
a4
07
cf
0a
6e
94
6a
39
98
3b
96
37
8e
4d
9d
d4
42
b9
46
d4
85
79
e7
07
8b
53
eb
02
c1
31
96
a2
a6
3d
98
fa
67
d0
9a
cc
9e
63
f0
79
9e
bc
5d
6d
6c
f7
b7
8f
a1
2a
fe
93
f3
19
2d
21
40
f8
e5
73
73
30
5f
61
db
00
0c
91
b1
86
f7
eb
c5
6b
3e
23
db
67
69
1e
e3
40
1e
e5
eb
05
39
3f
6e
50
8a
d6
6d
f8
eb
54
1e
b5
43
cd
33
26
a7
88
00
26
92
e1
72
25
3d
0c
db
3c
bd
9d
db
7c
0e
21
be
50
1c
92
93
4b
dd
1a
77
5a
c7
4f
d3
46
74
6b
bb
95
fb
b2
8e
12
7e
9f
6e
81
a9
4f
00
0c
3e
43
75
2d
de
b6
b3
2f
eb
bc
be
f9
88
55
f3
60
86
cd
b9
dc
bf
4d
47
cc
d4
3d
05
a5
7b
a4
20
f1
c0
c7
6c
54
55
6f
ee
df
36
9f
db
f7
35
64
8c
e1
cc
a3
04
bd
7f
01
00
0b
35
fb
50
e4
1a
b6
a7
46
d5
39
77
ac
1e
c2
84
2e
28
f8
89
d8
bc
58
a6
aa
56
6a
62
7c
d3
34
d1
ab
d6
de
be
a9
d6
b5
94
37
ad
8d
df
6b
88
e8
f3
04
53
17
08
ea
92
10
8b
e9
1d
77
d9
b3
76
a8
5b
1a
39
3d
af
f3
e5
d3
14
ce
d6
c4
e6
61
9b
4c
0b
6f
d4
51
c6
bb
48
0c
8e
af
e5
49
34
79
7b
72
10
b9
6a
c1
bd
25
66
c6
a5
8a
83
41
09
0f
ef
12
96
9c
d1
16
21
19
31
32
7f
65
a2
79
1a
53
0d
42
5f
e6
75
ac
48
eb
5b
04
33
4d
01
2b
7a
82
69
38
d2
7b
d0
37
6e
a8
38
6e
ec
36
80
ee
ee
e3
39
c6
ae
52
1f
02
b0
1e
f3
ac
2f
59
e9
27
5f
94
cf
b4
82
e8
54
d0
f6
68
00
5d
bd
9f
b0
33
4a
83
aa
09
e4
41
8c
50
d6
d4
11
86
6a
fc
73
72
e2
f4
f2
95
ef
61
57
b5
c9
09
83
df
fc
36
4c
64
da
7a
9b
5f
90
10
a3
b4
69
c8
92
c0
af
59
0e
4e
b4
71
dd
51
75
ee
e3
0c
83
99
de
5c
65
3d
47
60
12
90
df
0a
58
e0
cf
a9
78
75
db
35
0c
6c
d6
30
34
86
97
bf
48
2f
ba
b8
dc
e6
90
09
4d
bc
7a
d6
64
2e
18
75
29
29
be
40
33
7e
a1
e4
c3
80
94
af
ae
e6
5f
c8
61
e1
7e
41
21
15
72
91
b9
5b
82
7b
fd
b1
75
c8
57
34
be
c7
19
f1
07
e3
0a
f4
e6
37
0f
20
61
57
a7
fe
29
2c
be
a4
c1
46
34
19
b3
1c
08
a3
90
dd
61
e9
49
06
57
b9
01
1d
a6
29
32
f8
0a
b2
97
a8
dc
45
e6
14
e3
05
5f
0b
10
73
47
da
5c
b6
55
a1
0e
73
e7
82
9a
8e
b2
00
e3
1b
9d
1a
fe
26
3a
66
95
8d
6d
2f
81
60
7c
72
d2
24
08
14
d0
eb
5e
12
fe
97
11
60
4a
86
be
b6
38
7c
67
2c
d3
a9
ae
11
75
56
41
1c
0b
ae
24
37
d3
a7
c9
2d
6d
f3
2a
a2
59
0e
d0
b7
59
77
d2
40
b9
81
1c
75
46
b0
fc
75
2f
b6
38
99
27
a7
1c
14
30
fb
d1
44
28
64
8c
ee
cf
2b
65
e9
1d
da
1f
10
60
d6
4c
f5
09
13
73
47
35
ae
68
85
5e
6f
f3
b4
40
33
03
b0
b4
73
69
16
61
52
d8
39
6f
b8
e4
2b
76
ad
26
a9
7a
af
fe
16
5e
3e
59
a5
71
43
16
18
04
61
1a
8d
0e
06
82
a1
07
76
eb
9e
53
01
64
b5
70
ef
08
43
be
03
c8
4f
cd
e8
3a
c7
8c
6c
4f
b4
5d
21
f6
0b
9f
db
ea
2c
4d
06
de
d2
e8
cc
e2
cb
06
a1
67
6c
6b
8b
4c
cd
26
df
29
32
ab
70
26
65
e9
47
ad
6a
7e
21
7b
3a
12
e5
f0
30
19
f1
47
79
08
bd
85
3e
24
80
95
6e
bc
85
0c
02
5e
91
4d
5d
58
ca
b6
37
82
d7
30
37
5d
ad
1c
18
5e
f5
fa
c5
40
cb
74
7e
29
f6
21
28
8a
d4
f6
f5
ea
b2
7d
3f
6a
52
7e
27
da
b8
a6
ef
8e
a0
ea
05
2a
7e
51
20
fc
79
06
7f
f5
4d
fd
4d
6b
83
f3
c9
f1
cb
0c
55
d1
fd
1b
8e
8d
2d
2b
f2
a8
4c
0c
29
2a
c0
5b
4b
46
1a
9b
41
a6
f2
7e
65
b0
10
95
d7
14
e8
5c
03
d2
9c
57
77
71
73
fe
02
34
6f
96
64
91
82
66
20
ee
d6
3c
e4
7c
47
60
50
f9
0b
b0
5c
a2
db
2f
45
d0
5e
4a
a1
ed
4c
86
88
ec
9f
48
29
62
88
f8
cc
43
15
4b
a3
bc
e8
ed
f9
fb
8f
ba
76
70
cb
92
04
a5
28
1e
be
10
5a
d5
a5
da
f4
77
d0
05
c0
79
ab
70
7c
80
48
1d
f1
b3
9a
ea
b9
6a
67
6d
e0
1d
87
19
3e
90
aa
2e
a1
17
4d
ba
5f
1c
25
e6
9a
35
ac
c5
e7
6d
1c
7a
61
02
5e
b4
da
42
5f
e2
e0
57
1f
4e
0f
eb
23
5a
13
7c
61
fa
43
11
47
e4
f9
cf
e1
0a
74
41
d3
10
78
d9
95
69
9e
b7
b9
38
de
0f
24
f7
ad
5e
51
40
b8
d9
d1
ef
d1
df
45
77
81
b9
75
a9
17
13
dd
b1
50
8e
98
82
8b
9e
b3
50
3e
b0
e1
83
43
6e
f4
73
82
2b
c9
95
3e
c4
ea
af
84
eb
40
db
7b
82
c9
77
03
56
a2
52
6d
e5
d8
f2
24
2a
42
d7
b5
7d
96
b0
63
66
53
23
11
bb
94
ab
82
ce
de
6c
2c
41
9b
1e
4d
46
45
8d
a2
01
1a
34
9c
fb
47
69
eb
97
47
03
1a
05
4f
0f
25
a0
e0
10
59
5c
6e
e7
cd
f2
34
aa
20
b1
fe
57
14
48
56
3e
64
cb
6e
51
2c
f8
7f
ca
b6
44
45
f0
b2
49
87
e7
5b
17
03
d9
34
5c
b5
29
54
d8
cc
0a
55
bf
a1
a1
e2
33
25
c7
a0
80
4a
62
91
55
b6
d1
c0
ba
24
6e
48
37
68
26
49
77
0b
2b
91
92
38
47
ed
f2
f2
2c
55
15
c4
94
a9
8a
91
aa
7e
47
cb
5a
c3
57
b0
f7
ca
32
88
1e
a4
99
4e
87
af
05
61
9d
6f
5b
8e
6e
8f
b7
cd
00
82
9f
04
86
4b
2d
d4
8e
b6
88
6a
a3
a9
b0
7a
08
fb
0e
e0
42
bf
dd
3a
03
b9
1a
d9
0b
df
fd
c5
e9
6b
ec
f4
67
9c
3d
bb
4b
70
df
ab
75
45
f1
65
6d
1e
bf
d7
e5
87
71
42
e4
86
72
54
c4
87
a6
20
be
66
f8
3e
19
85
a9
f8
b3
24
20
79
7d
0d
b0
0e
7d
b6
21
b5
4a
25
7f
23
e3
c7
68
20
94
63
4d
b0
b0
9e
21
c6
84
2e
46
f2
e4
d9
68
f0
4f
cd
72
4f
81
5d
fa
7e
91
2f
28
02
b3
40
ef
b0
c6
17
df
01
c1
19
45
9e
0e
bd
a0
10
73
aa
8b
cf
34
16
ad
9c
7d
b9
66
8f
21
cd
0e
91
93
a5
50
5f
af
b8
14
3f
e9
a2
98
a6
e4
c3
9f
b0
32
75
f0
49
93
05
3a
4e
54
74
58
76
ac
02
3f
89
61
4a
a7
f0
85
8a
38
23
78
e9
96
ca
93
14
18
8e
c3
9d
9e
54
ea
db
1d
b3
14
f2
e2
a7
9e
1b
4e
e8
ad
87
0a
66
a0
60
e4
1d
7b
be
b1
2b
47
e6
33
af
ec
a0
a3
6e
1e
90
66
94
89
e2
6c
51
03
1a
35
20
fa
2d
60
32
27
29
8f
65
db
c6
75
33
58
13
23
64
06
d8
1f
f9
32
c5
90
ac
ec
7b
a7
2b
6d
4c
07
97
17
47
03
bc
99
d6
6c
08
f8
67
6e
2d
d8
d8
b1
98
64
c4
d1
f4
0b
5d
d1
cd
35
2a
09
c7
21
1b
8b
7a
f4
a0
b1
92
71
4f
e6
10
a9
2a
d6
ed
2b
bf
a9
ac
3b
a9
b1
d8
ab
45
0f
95
a1
37
fb
7b
85
1c
71
1f
a5
f4
91
a4
74
73
ef
6c
01
b7
67
5b
52
b3
d1
9d
49
b5
ae
c4
51
28
9a
89
50
98
d5
5e
a1
8f
17
a7
4d
62
05
d8
98
a2
a6
01
6d
83
6d
44
f9
4f
c9
e2
fd
e9
3a
86
38
14
cb
a2
20
98
d5
d7
a8
a8
14
23
c4
3b
50
5a
79
23
7c
46
39
2e
3a
a9
15
32
86
73
6f
8a
ef
22
e8
30
8d
f7
47
50
58
f1
41
43
09
58
69
94
7c
47
41
ae
06
fa
e3
77
f6
74
5b
78
4b
eb
0d
c4
d9
30
54
06
7e
59
b4
81
fc
f7
c5
f3
1a
05
79
54
18
c8
0b
2c
da
ca
1f
6e
4c
6a
c4
d7
5c
1f
54
83
86
73
72
ba
1b
ea
52
52
30
70
59
6f
ef
8e
90
92
29
99
4f
06
98
d3
60
b6
e4
7f
3e
ae
b5
3e
3c
61
1b
2f
12
c6
82
43
af
4b
90
ef
4d
7e
05
c5
04
e7
ba
40
54
1f
ef
1a
32
34
27
3f
75
7c
12
6d
a1
66
33
1b
ce
44
c4
5c
2b
1e
1c
63
e5
35
7d
81
6c
07
90
4a
6b
b3
c5
63
73
45
9b
d7
1c
13
bf
45
4a
e2
9f
98
2c
bf
e6
ae
a8
64
f0
5d
9f
2e
8b
32
88
35
54
3f
f8
2c
15
1c
9e
fc
d6
41
09
c8
77
3c
02
d7
24
4c
a4
63
0b
65
7f
04
f6
02
fe
72
d4
9d
7d
1d
30
b9
91
72
df
b9
e2
6a
48
37
2e
9e
07
5d
8f
27
b9
5e
9e
62
91
cd
27
21
a4
26
89
52
ac
42
1c
57
3f
3f
97
17
b1
d7
6f
b8
e1
a2
41
01
64
68
37
05
e8
a8
96
97
95
f1
63
48
25
dc
07
91
4a
c7
9d
82
70
24
64
28
dc
bd
c3
52
ea
fd
9c
c9
f3
cd
80
a8
ab
22
02
df
15
fd
f0
84
1a
2f
ef
2b
8d
f6
76
1b
8e
2d
17
f9
d0
e3
7c
d1
d2
66
1c
9f
98
ba
15
05
fa
e2
57
48
4d
e8
21
33
7c
4c
7c
c2
b3
6e
3b
9c
31
07
c3
f4
1b
54
9e
b9
e9
3b
3d
7c
f5
b5
16
c1
31
55
06
2e
8d
d1
8f
0c
93
0a
88
6b
72
69
81
e7
ec
e0
c1
61
0d
f7
5a
ec
58
9f
eb
e3
6b
70
a5
71
d3
57
35
59
cf
36
aa
2f
ab
88
ac
e9
b4
1a
69
6b
b0
22
c5
b9
59
96
d9
cb
9d
6c
08
c3
bb
78
38
f6
00
c8
6f
3e
5c
a1
6b
ce
64
f4
f1
9a
72
1c
66
12
22
72
a0
f8
3a
b5
7f
51
35
8b
2f
53
3a
5f
2d
1a
6a
80
62
e9
68
f5
c9
ed
07
7b
d3
95
cb
f2
04
04
29
1d
73
24
f2
89
bf
60
38
83
30
2b
cf
72
56
58
04
ba
91
69
a1
de
23
4d
49
2e
bf
46
9a
e1
63
07
d9
b6
39
ba
59
40
08
5b
96
5c
89
36
ab
f9
3e
50
48
fd
83
6c
61
75
98
49
24
94
4f
50
60
92
8d
a6
09
fc
43
6a
3b
44
ed
34
63
c5
43
ec
01
9d
73
0e
35
39
f8
cb
d3
63
32
71
73
6d
2e
f2
97
cd
db
0c
02
c9
3f
5e
1a
9e
c6
f2
31
45
b6
fe
7c
79
90
c1
1e
a0
9f
ca
06
c1
92
6b
d3
8d
fe
23
d3
89
cf
c5
20
1d
ae
bd
4b
65
68
65
79
c3
aa
74
ae
07
75
05
df
22
dd
de
bb
1c
c6
54
e8
66
85
c2
fc
f0
96
d6
5f
06
ed
23
7c
69
27
d2
f0
04
f8
43
99
0e
57
0d
99
ec
53
9f
7d
48
30
26
f8
98
57
19
24
d4
d1
89
7f
35
a9
bf
9c
61
f2
0d
de
cf
1f
3f
84
df
e5
43
99
96
1f
69
6d
07
67
4d
6d
09
4a
44
ad
c9
a2
ea
86
9a
93
ed
8a
1d
70
c9
b7
60
b0
34
5b
17
bf
d4
35
27
9e
d4
cd
5f
e6
9f
72
a5
3c
bf
00
90
66
9f
a0
a2
2b
bd
cd
1a
82
c3
a9
91
af
29
04
fd
2a
98
78
cd
c0
47
f6
6f
e1
2f
75
18
f7
1a
93
70
e4
42
e7
e9
b6
67
3f
1b
ae
24
ab
30
c0
61
0f
e6
c0
d2
16
aa
3d
f0
90
c0
76
8b
39
8b
1f
60
2d
09
91
2b
72
c5
38
a0
b6
c9
f0
cd
d6
d9
c0
ba
83
ac
ea
5e
70
cb
3d
7a
6b
d4
36
e2
5c
f0
8e
51
0d
46
e6
d4
54
97
ec
70
b9
51
33
ac
3d
68
de
ef
cf
b9
91
05
32
ba
e6
86
63
7a
69
8e
8e
fd
bf
56
77
a6
d1
e4
e8
88
f5
44
94
47
e9
d0
9a
63
a7
5c
5d
09
e5
49
ac
8d
d5
e2
fe
49
57
62
6d
53
11
56
82
27
4f
5c
63
96
eb
6e
63
b0
b6
85
12
df
7e
49
49
fd
28
dc
69
af
11
ee
5a
24
99
7d
a7
b4
07
2b
62
2f
cb
22
e0
98
20
d5
fb
98
01
a1
a5
c3
f0
00
ca
e0
bc
57
e7
8c
6f
f8
fd
fa
f9
c3
ca
a8
86
46
ad
e0
9a
e0
bc
74
8b
1b
45
77
3b
03
94
94
76
f3
e3
2b
95
28
ae
bd
f7
af
9a
cd
f3
88
8f
1f
1b
e1
a5
7a
14
5a
03
66
96
8f
ce
ad
13
be
bc
a0
b2
f7
95
20
f5
63
c2
df
9e
e6
b9
1c
7f
f0
67
c0
68
a6
0a
2b
b6
0e
8d
eb
32
4c
3a
0e
47
28
1f
47
01
f0
47
8f
70
70
b3
33
8b
da
de
16
8b
82
88
f7
71
98
d8
0f
9c
7a
8b
30
40
a6
08
f8
25
8d
40
f8
43
64
88
fb
72
88
5c
be
88
34
78
a2
de
aa
4d
4d
0b
e4
9f
ad
e9
f8
8b
0d
e7
24
08
08
a7
7c
fd
f1
cb
e1
46
09
92
1b
9a
69
0f
5b
42
ba
ad
1d
cf
eb
74
5d
55
3c
6e
5b
7d
02
f2
1e
89
05
73
0a
68
58
2d
63
48
78
07
ae
e3
f5
1a
77
9e
3a
23
7d
0d
6a
e0
d8
27
0a
76
2d
13
0a
3e
b3
a1
01
8f
5e
9e
b0
f5
f9
36
40
bb
72
56
0d
02
4f
7b
4e
c1
ed
1a
15
f9
c5
3c
3a
53
56
47
48
35
8b
f8
18
ce
92
50
54
64
23
d8
51
87
7f
a0
a3
99
99
5f
a3
c4
83
39
90
6b
6d
3b
9f
05
6d
76
64
ca
44
b6
10
98
a0
bd
3b
c4
04
67
f4
eb
3f
4f
e8
8d
22
f0
5f
9b
60
c8
42
dd
8c
c8
e7
b1
d2
0a
09
6f
d3
9d
70
5f
e1
74
46
2d
a1
2d
ad
49
ab
7c
c9
ac
92
67
94
76
b9
2c
b0
a1
59
a5
f0
50
49
94
a6
eb
63
68
42
2d
58
09
b6
ca
4b
bc
ba
fe
91
01
54
ba
6b
ec
0f
a7
fb
04
8a
28
d6
a9
a3
ee
3e
a5
d0
aa
7d
0e
a8
a2
96
e3
4c
0c
bf
86
30
d6
e2
1e
39
ca
96
74
b1
3e
c2
1c
22
49
ae
f4
0c
82
4e
6e
26
92
e0
ea
57
9e
01
d0
95
22
7e
18
c9
93
e4
15
7f
21
3c
3e
e3
e3
56
60
f6
30
04
80
e9
c4
03
e7
a9
87
9c
be
ae
a7
12
6e
c7
2b
bc
d1
77
f3
cd
4e
10
48
86
30
86
9d
1a
a6
48
55
dd
17
60
5a
2e
3f
9f
1e
88
d4
23
e6
39
1c
9a
9b
41
b9
53
97
6d
9d
79
cc
82
30
4c
8f
53
22
d2
a9
b5
08
ba
a6
36
b0
b2
b2
09
d2
d1
38
f9
3f
55
5e
c0
54
90
6e
86
5b
f3
f4
81
1c
3e
07
f2
91
be
7e
bf
3a
c0
ac
5c
1d
ed
51
1e
a4
55
6b
33
f2
e5
31
03
2a
3f
08
68
c1
f7
e1
1e
8b
33
80
ad
af
57
b8
a1
eb
1f
cf
8b
2b
bc
d9
1d
1c
e4
38
45
08
7c
ba
8f
73
0a
d4
5c
0b
4c
bb
cf
e1
30
f2
0e
bb
40
fc
7f
41
f1
c3
fb
6b
a1
0e
1d
8d
0e
8d
00
d3
dd
d8
82
49
d3
df
be
d0
ee
2c
9d
5a
29
b8
00
9b
9a
a5
ba
b7
ce
61
2c
ea
ef
38
62
f8
53
f3
50
f5
24
49
63
9d
e3
a6
66
7a
69
f0
2b
38
96
15
da
a1
5d
b9
4c
1e
3e
ac
eb
63
19
b3
90
fa
e4
4d
58
82
07
63
34
9e
a3
65
e8
56
a5
45
28
95
68
b1
14
5a
2d
0e
a1
0e
0a
62
1e
42
3d
92
04
7e
46
bb
32
68
11
6d
99
10
5e
49
ea
05
5f
11
90
21
fb
8c
55
61
29
a0
4c
ea
dc
96
61
79
0f
97
a2
87
c0
b2
c1
cf
14
49
70
94
c1
23
51
50
0b
a7
82
c9
e7
26
c3
39
ec
f1
b4
df
3a
ab
34
c1
e9
7e
a5
54
ab
39
f4
a5
ef
69
3d
af
82
5f
aa
33
aa
4e
c5
55
8e
72
d9
df
b2
a5
e5
1e
dd
e7
9c
4c
2e
74
4d
74
d4
a1
49
d0
22
f6
8e
27
59
a4
ae
a4
2f
9d
d5
78
11
f6
18
e0
26
81
b1
1a
6e
9a
5c
b6
e2
e8
4f
62
28
e3
e0
b1
6f
ee
65
b1
43
00
90
57
05
d2
7f
4b
2b
df
5d
d6
f2
30
7e
9b
24
c7
fc
7c
89
31
c1
5a
d1
f9
40
52
00
23
9a
e6
be
d5
d4
21
b8
f6
80
f5
f2
f0
62
c1
ad
e4
82
a2
bf
5e
dc
c2
c5
00
35
ab
3c
53
a1
c9
7f
30
e1
80
6c
45
f3
b9
0d
ac
a8
66
85
66
4c
7b
08
5e
10
67
70
4a
78
eb
17
c0
19
c9
18
56
8b
f0
22
4d
19
86
87
7b
97
0a
24
96
c2
cf
1d
69
45
00
08
aa
f3
af
06
63
ca
6d
2c
2f
e2
ae
ba
da
6f
2d
2b
6a
74
e3
5d
e9
1f
36
69
e2
f0
2e
76
14
dd
8f
06
d1
d2
52
7a
3e
58
c6
76
9c
9c
09
9d
9d
b1
35
a5
c9
8c
b7
64
47
41
48
40
b3
d5
2f
c5
57
5b
4a
31
9a
38
70
84
34
9e
22
d2
ab
25
09
26
1e
85
22
cc
64
5d
9f
66
bb
05
83
0a
90
d1
2f
bc
89
0f
a3
fa
88
37
37
a4
a9
27
ce
bb
c2
a4
70
c7
b4
ba
97
cc
1c
b5
70
a0
56
63
ae
db
f3
22
92
02
ab
5f
82
23
ad
05
25
2d
6c
c0
db
b2
e1
cb
60
ae
77
bc
53
d9
01
48
7b
be
21
b8
f8
bf
68
80
84
09
8d
c7
e1
6d
d3
b0
18
2a
a2
2e
02
0a
ee
94
be
96
33
ad
eb
62
42
e9
af
7d
85
fd
9d
5b
7f
cb
61
35
5b
6b
af
5b
df
db
b2
3f
bf
d8
d8
c7
e5
44
6e
7e
32
1c
d7
50
ae
de
27
72
10
fb
89
f0
84
0c
7a
f1
76
dc
a4
e2
06
75
a5
de
04
bc
0b
57
07
c2
45
93
8c
a5
d5
7a
05
60
8e
19
0a
a4
51
d0
27
39
74
38
25
ef
c5
53
16
f6
e3
4e
85
82
4a
99
a0
c5
08
86
75
22
73
fe
46
b6
8a
06
55
0d
22
24
9c
c9
33
2f
51
06
a5
cb
8c
b5
71
da
3a
02
1a
5d
af
7b
66
be
52
af
8d
c3
f6
62
7c
75
83
93
83
d1
e5
0d
8a
f8
49
03
14
fb
8b
7b
fc
08
c6
ef
5d
ce
bc
ca
a2
03
4f
ca
84
6f
85
b7
cb
74
80
11
fd
3f
8f
9c
88
4c
e2
c8
b6
7d
6c
32
57
a0
25
b8
c8
20
f1
9a
ac
87
64
b4
1f
8f
e4
de
cf
18
0d
91
35
30
fa
77
2e
a8
e5
eb
60
aa
0b
09
c1
dc
bb
72
d9
6e
b3
50
ad
f7
53
39
a3
f4
49
4d
3f
f8
b5
8d
f8
7e
0b
c3
7f
26
f3
d2
8d
83
52
93
4e
e0
c5
9b
92
83
ed
24
4b
5a
30
1b
28
ed
a1
37
31
67
9e
a3
48
ed
51
a7
2c
32
9e
d1
7c
75
0d
0c
56
f9
85
d4
f2
dd
1f
79
90
aa
bf
b0
97
69
99
73
d5
fc
be
37
9a
ae
62
c4
ae
b0
9d
f8
97
6e
a0
97
ea
9b
5f
71
21
c5
3c
20
cf
19
8b
b4
bc
41
43
c5
a1
f3
0b
e0
3e
01
3f
0c
34
a3
62
8d
a8
ae
d6
7e
02
f9
c4
a1
e5
a1
3a
35
0f
9a
93
b5
13
4c
70
04
aa
4c
82
c6
d7
0d
95
ca
30
00
8c
b9
f1
f7
85
37
48
8c
55
12
d8
76
34
97
9d
84
64
61
a5
28
a9
16
57
a6
9b
96
1c
d3
6f
12
88
f5
17
b8
6c
0d
77
1d
28
24
49
f9
56
ba
2c
71
30
df
f7
f8
ac
1e
8c
52
85
82
af
be
df
ea
07
c7
71
f6
c1
b9
50
5c
5c
a3
30
23
bc
5d
eb
81
75
bc
d8
2d
76
55
86
32
b9
b6
1c
47
21
d1
92
0f
fe
8f
83
8d
3a
d7
44
2a
15
f6
49
7f
15
51
79
f6
a3
2e
a1
68
13
d6
c5
bf
d7
d4
8d
11
1e
c8
6a
a9
48
9b
5f
77
43
a7
88
21
e8
fd
b2
3c
0c
15
82
76
b9
6d
9f
9e
4f
2f
f1
31
a4
77
28
5c
21
7a
42
53
25
10
8a
1a
6a
8a
d1
bb
14
af
a6
39
85
7f
53
c2
c7
64
ab
4d
dc
8e
cd
e0
bb
0d
10
15
fc
3e
90
11
35
57
04
ae
5f
1c
fb
59
88
e0
cb
7a
94
e2
0f
a6
e2
71
4e
18
b2
93
07
7a
0d
a6
c9
69
17
27
a2
08
59
1c
26
92
90
da
7c
c7
a9
b7
5c
d6
81
85
6c
8a
dc
57
11
0c
34
0d
17
5b
3a
d2
5f
b2
3c
3a
de
a7
a8
6b
91
7c
a7
51
09
04
e3
66
00
b3
69
99
04
84
be
2b
d3
f3
76
c4
78
42
49
bb
77
01
a5
47
70
e0
a6
d4
d0
4d
e9
15
32
4b
08
78
f0
e6
f6
4d
47
56
17
52
b3
5d
b3
fb
7d
49
03
86
fb
44
12
5f
95
e4
be
b5
fa
bc
d5
66
59
c0
9f
14
54
6d
00
b0
ba
d4
73
73
a3
41
9c
f1
33
22
47
c1
1a
ee
fc
94
71
00
1c
17
77
8a
7b
96
83
96
bc
9b
6f
8c
1e
92
29
24
f7
3a
ef
51
9f
ad
a1
63
6a
af
ee
21
95
f1
32
55
f2
73
cb
a1
4a
4b
42
f0
a3
e4
b6
a1
71
2a
4a
12
92
40
0e
29
2a
51
6e
f4
aa
46
29
50
ba
d8
68
7d
94
54
fe
c0
3e
82
bb
53
f1
06
01
ef
c1
3d
4e
5b
83
7a
8f
c4
ed
00
30
b0
9a
ad
90
34
73
2a
91
ac
32
ea
e6
49
a4
30
d9
af
39
67
41
bf
95
7b
10
52
1a
bc
eb
0a
50
71
7a
c6
d0
6b
aa
23
31
21
39
a8
6f
27
7f
44
a0
9e
94
c5
3f
3d
a3
ab
b0
9a
3d
54
65
ec
3f
e9
f4
71
97
93
2d
f8
c1
cd
4e
9c
d1
63
ac
e6
a3
16
d0
b0
7d
6e
8a
9b
52
2d
f4
ee
25
39
07
78
24
cc
e8
43
0f
2f
01
7a
e0
a0
56
80
93
fe
4e
ca
81
17
51
7e
e6
e1
44
79
b8
5b
a6
ed
bd
de
2c
58
a7
b0
1c
d3
e4
a6
f7
42
eb
08
19
7c
cf
f4
d5
2f
ac
95
db
a7
4d
5b
d1
51
31
2f
f7
2c
cd
6e
8b
95
0c
ef
e2
d2
1c
05
eb
51
b8
7d
82
88
75
4c
37
25
17
12
08
1b
f3
7f
70
32
0d
8d
e9
39
09
0f
ea
d3
20
5f
c4
3c
28
c4
3c
e3
12
46
a7
56
59
6f
af
54
3c
f1
e0
ea
55
14
2d
df
d4
a8
c2
30
ee
52
c2
01
70
4a
cb
6c
64
98
e1
39
24
ce
58
f7
90
3e
d3
d8
2d
84
82
7e
e0
e9
a7
1b
61
21
fe
2c
9d
77
e9
04
ea
85
b7
4c
b4
08
9e
57
65
cf
2d
dc
de
03
ae
5e
ad
92
28
1b
d8
29
9f
49
e0
02
db
a4
23
e5
db
da
9f
cd
6b
36
c5
f5
62
92
cf
51
5b
8b
b6
86
8a
48
42
86
29
e5
46
2f
65
cf
b5
04
32
ed
80
82
39
57
09
d4
b1
af
4f
db
92
c4
58
f2
2a
1a
8d
58
56
ce
67
30
45
d2
3d
5d
3b
41
00
e8
ef
02
ad
52
c8
b4
40
6d
70
6c
38
8c
0c
97
b0
97
be
06
f0
14
7a
ba
4d
a5
76
93
e7
82
40
45
4a
58
cd
bb
20
c7
00
a5
90
89
2b
b0
e6
84
f1
a9
6c
58
07
e6
87
77
eb
91
f3
31
97
34
42
83
3e
b1
9c
44
e7
33
35
da
07
9e
42
26
6d
25
28
6c
7c
3e
31
a4
69
4c
1a
16
8c
4b
1d
8a
01
b1
11
f0
f7
ee
f9
c8
27
e5
b9
82
1a
c0
1f
0f
54
f5
12
01
4d
06
2b
d3
b5
9e
fe
73
7e
6d
da
e7
7a
a2
0d
f2
50
24
5a
c6
5f
59
c6
53
5b
f8
6e
94
2a
11
f2
3c
03
f0
4a
d9
e5
e9
bd
80
7a
d1
82
a7
32
52
45
d0
ad
a1
b1
30
09
c4
2e
8e
75
81
89
7e
fb
de
44
b1
c7
12
07
68
c5
2d
7a
16
35
a4
c3
4e
47
30
2e
59
f8
e9
1c
09
5b
4a
62
9e
10
ac
71
3e
22
c9
5d
d1
f5
00
b5
aa
6e
89
77
dd
83
37
15
df
93
f9
c3
e1
ab
d7
dc
26
1a
a3
66
b6
4b
2d
d9
3f
9c
18
6e
a0
49
f7
47
67
3e
e6
4f
24
d5
39
21
1c
eb
3c
0d
bf
f5
66
73
50
b8
19
fa
c8
34
46
a4
6e
6c
5b
34
fe
09
d2
22
32
d6
54
6c
03
6f
87
54
0c
05
8a
49
e8
63
3a
71
3b
b9
ea
6c
12
df
41
60
92
37
cc
1f
0f
0d
86
66
57
13
0d
9e
a3
d2
df
18
c0
57
a7
c9
be
db
0f
50
b1
e8
4a
f3
6a
cd
2d
41
e4
d5
e4
63
3a
93
41
27
56
0c
d2
0a
cd
9f
f4
0a
d7
00
00
d8
dc
f6
2d
c9
ec
0b
b4
33
4a
ee
6a
26
51
c2
85
9c
d7
8f
c0
c6
e7
e3
aa
22
21
8a
fb
92
d1
c7
17
84
9b
c8
0c
ca
8e
09
33
c7
1e
36
0e
3b
37
bc
9b
ce
a3
a1
0a
06
62
b6
e2
a2
d9
f0
f1
5d
36
57
c7
39
86
be
41
e5
1a
3e
6e
30
14
5b
83
f8
f8
66
7c
0b
8a
f9
4b
b7
df
6b
37
fa
c3
a5
f1
22
ba
d4
5f
62
0b
2d
bb
af
6b
4a
c1
1d
b5
d1
65
39
ee
e7
e7
01
08
5d
fd
ec
28
b0
bb
c2
3a
be
8f
ae
26
22
3b
e5
e4
45
20
2e
9f
3f
8f
57
6a
20
76
5b
61
cd
5d
45
54
5d
9c
17
a4
f8
67
52
4e
3c
1d
9e
33
6b
34
64
a2
3e
03
48
96
85
ab
5c
87
90
e0
a2
0d
7e
4b
04
9c
18
72
43
cd
d3
f6
b4
ea
17
be
f8
41
96
f5
72
46
dd
d4
02
ec
82
a9
01
11
35
92
ee
57
be
8f
61
b0
b9
1f
0c
6d
a3
e9
dd
62
6d
ae
3a
25
18
a7
d0
c1
6f
9a
5e
b7
70
9c
19
d7
33
1f
22
8d
02
92
03
f0
69
3b
d2
28
29
27
24
69
48
97
d5
30
90
40
01
d2
d5
dc
a9
24
8d
bb
08
79
3a
a4
44
37
26
f6
04
bb
10
ed
87
e3
ab
8d
27
2c
ce
18
a1
89
fe
a0
b8
42
b8
88
2a
71
b9
b6
aa
c7
ac
bc
57
21
4f
41
d0
1e
65
86
2f
09
c5
81
ac
f5
4e
65
d2
59
98
d2
ae
5f
e1
cb
b3
3c
12
bf
fd
85
f7
4d
cb
f7
8d
37
91
1e
95
b2
f2
f7
19
90
e9
1d
ab
d0
cf
b8
c8
7d
d8
95
4e
74
ec
77
c5
eb
86
2e
13
0f
87
a0
5e
7d
18
dc
e3
69
0c
1f
87
6e
f2
83
19
f2
6e
af
00
c6
24
11
d2
66
52
a9
fc
0b
20
2a
50
2f
b1
d5
b5
c5
4b
d0
0d
43
da
52
38
32
ea
51
e5
a4
8e
6a
7b
38
1f
14
69
b5
58
21
0b
d4
0f
7d
3c
13
74
ec
c7
65
99
41
08
ad
bf
91
46
e9
f5
72
46
fb
26
d3
16
c9
fb
97
2f
b7
6a
11
f9
b9
99
62
54
9e
46
e8
b9
0d
8e
bd
83
a6
64
9c
40
e7
ca
0d
35
2d
e8
9a
3b
cd
c3
52
3f
a1
07
ae
ab
69
d9
6a
60
2e
8f
72
a6
ce
8b
78
09
7a
e7
5e
66
02
f3
76
70
fc
1d
b9
41
81
4a
69
88
b5
25
97
c1
0b
4e
76
9f
86
49
c3
12
92
72
53
e1
d9
4e
f3
79
46
f4
f6
5a
c7
12
f6
59
26
58
67
5e
30
1f
3f
25
1f
66
5f
5f
09
ec
a7
02
4f
d5
79
54
6e
ab
0e
45
38
4c
b1
74
48
92
01
d1
bd
70
b6
19
21
7f
3b
c4
f6
5c
4a
a8
7e
ee
7a
1e
a7
df
38
f4
19
5b
06
7f
7d
b6
5f
5a
54
54
97
a9
9c
e0
35
0b
46
2c
2d
14
40
49
0d
3a
9e
8e
dd
b2
b6
9e
8d
40
25
1f
9c
72
db
83
1e
69
16
b4
51
08
35
22
c6
ef
4f
e7
2a
e5
57
9c
01
6a
f9
00
41
83
1c
af
57
21
95
eb
61
89
d5
89
21
fc
35
c1
03
ab
61
30
35
d3
7b
29
88
bf
04
5f
dd
8a
24
d1
cc
8f
04
09
6e
f7
c5
77
25
d8
8e
f4
4f
3b
9a
b6
1b
d7
ae
e4
07
67
53
50
a9
af
f4
00
92
60
71
fe
65
22
0e
8b
20
2b
b1
ec
c6
52
be
5e
64
bf
1a
32
f8
85
04
31
a5
a3
dc
75
5a
2f
ec
b4
d7
ba
96
e4
ec
b3
3e
24
70
e0
cd
15
5b
4e
c9
d2
bc
8e
8f
c5
2c
e6
ce
65
dd
e5
56
57
8e
cd
b7
ad
a0
fa
5d
1a
e0
4a
e3
4b
a9
bf
03
d4
b4
d5
65
6b
b6
21
60
bc
f8
4a
62
e2
aa
22
c6
8a
cf
a8
d7
fb
1c
d4
31
6d
d4
9a
64
81
54
4d
62
0b
a0
70
3b
7c
4c
c0
aa
1f
b2
45
30
a3
54
3b
61
65
8e
bb
91
85
8e
5c
c6
00
51
c5
15
d5
7d
d9
90
11
c2
9a
7a
62
d8
98
46
c9
7a
4c
06
92
07
44
b6
ef
4d
eb
25
d3
c6
ed
4e
2c
7b
fa
bb
50
d4
61
08
61
2f
88
b6
70
65
2b
0b
51
6c
9f
69
ea
6e
68
b4
f0
fb
57
0e
5f
4d
ca
84
54
3a
07
2b
48
33
93
6d
cc
80
69
1a
c2
c6
01
c3
cd
1c
74
d3
4a
cd
61
a1
d2
d9
12
8a
b8
af
4a
a6
25
3a
4e
0c
07
71
b6
83
7f
9a
bf
8b
90
98
23
be
1a
71
0a
12
52
e0
5e
c6
46
fe
05
2b
a7
00
17
ae
13
ac
c7
1b
e7
42
29
b9
3c
72
f7
9d
c7
5d
13
e0
ba
43
16
88
6b
71
90
fc
a4
9f
dc
51
46
fd
e1
18
5c
36
7e
5c
d7
50
fb
b5
ee
83
2b
67
93
d9
bd
25
73
25
fb
b8
18
76
6a
c6
06
91
79
86
b8
bf
b6
ae
75
56
db
6f
c6
82
a4
95
44
d7
62
17
c3
e7
bc
87
d8
89
72
3d
88
37
8f
74
a4
3f
6c
74
72
dd
6b
82
ba
aa
6d
9e
55
90
12
65
d2
67
cd
20
9d
a5
f8
a3
7f
4f
3b
f8
80
8e
40
fc
d0
8a
17
96
d7
35
e4
e7
ab
c1
15
ae
4b
8a
6c
46
23
84
ef
bf
75
0f
9f
d7
fd
d8
58
52
2d
e0
bf
0a
f5
7c
8a
c6
fb
a6
06
7f
a6
6b
b5
04
72
45
8e
b9
9f
06
86
1f
d4
d2
f0
42
12
51
d7
d8
66
20
dd
30
ac
52
46
3e
f7
b7
b4
83
b9
3a
41
6d
97
61
92
89
3f
e6
8d
6e
07
13
8e
3a
57
b7
a2
df
72
19
d5
7a
5b
bc
8d
2c
e7
c4
50
db
09
06
12
cb
e9
c3
82
7b
ec
c1
2d
cf
61
b4
b5
d5
10
cb
4e
de
e3
5b
88
9a
72
f1
52
fa
c7
13
f4
11
b5
8e
51
33
3d
de
15
85
1e
42
84
c5
31
2b
40
65
88
95
01
5a
50
f5
53
4f
ce
65
60
c3
8c
27
63
06
80
ca
2b
89
be
04
08
37
35
36
08
ab
65
30
6f
bf
96
36
06
46
41
39
ba
5a
3f
13
13
05
81
5f
6d
01
de
13
23
8d
39
ea
47
f0
83
4e
20
0b
55
9f
00
0b
df
ed
d5
75
c2
ef
46
47
81
8d
e2
7b
51
9f
78
a8
0f
78
58
fa
09
8a
86
d8
99
7e
54
58
fb
06
9b
2b
7a
1d
45
c7
4f
fb
2c
f8
37
bc
67
11
fd
0a
74
c4
c3
11
09
32
a1
91
5f
19
0c
f0
ee
f9
13
c8
20
8a
64
37
5e
9d
06
79
4e
5f
be
99
94
1b
96
87
2c
07
db
41
34
fb
28
65
8f
bb
2e
e8
e1
ef
10
94
f3
25
22
52
a4
3f
f8
31
b2
2d
e4
3a
2d
bd
a8
98
9d
f8
8e
da
85
2f
3c
62
b0
83
8e
8d
d7
69
6d
59
df
7e
6b
31
e8
64
d3
7f
44
a5
71
25
cc
3a
5f
2f
27
48
de
5b
7b
79
c3
57
f0
2d
2e
f0
f6
a7
36
ad
a6
c6
75
1e
3b
35
ec
95
78
ce
b8
4e
db
fb
8a
3d
eb
f7
c4
a7
d1
e3
9e
b3
fd
1f
b9
f4
08
d4
23
31
31
d6
4b
86
3d
1b
04
47
69
cd
5c
a2
c9
67
38
75
37
4c
65
49
e3
cc
cc
97
b2
7e
fe
6a
d5
5d
fe
fe
c1
4b
26
a8
a9
ec
27
57
c2
ea
90
d9
e9
8c
29
ca
dc
4e
a8
ab
86
7e
cc
c9
0e
41
5b
49
dd
34
25
e2
fa
a8
0e
38
c7
41
4a
cc
b1
da
30
be
d2
0e
96
2a
f5
a0
af
4d
07
d6
86
53
ca
36
69
cd
9a
36
a1
41
03
c0
72
33
f1
31
a5
e4
cb
72
4f
b8
ed
94
33
9d
18
55
aa
c6
3f
4a
3d
e6
a1
65
7a
1c
e0
8e
3f
3c
e1
44
46
7a
14
7f
a9
47
77
7c
95
b2
e1
9f
1e
62
9c
85
60
7a
cb
b9
49
34
ba
78
54
6b
30
ed
5c
e3
f1
6c
f5
b9
bf
4c
ca
76
f2
5a
d3
48
d2
f4
db
0d
d4
45
0b
d5
ae
eb
ac
98
f1
7b
b1
34
ee
b0
11
63
87
d4
f8
8c
b8
49
da
32
7b
41
be
48
be
1c
c5
47
7c
2c
ef
40
45
d5
13
d6
5a
63
ad
1a
0b
71
ef
b1
36
35
5d
b5
83
79
ab
c8
43
8f
e5
99
3d
bb
e1
6a
25
10
99
6d
09
4b
42
1a
3e
12
d7
e3
95
24
fe
06
82
6b
e1
bc
63
b0
31
98
95
a4
f9
4a
d1
03
19
a0
cd
e5
43
94
ee
f4
f7
09
13
2c
95
7c
e1
16
df
ba
24
47
9a
09
50
18
4e
43
86
95
b5
c9
fc
2e
9b
ee
d3
c3
19
3e
28
9b
5b
da
14
d8
12
2d
cf
1f
ec
fb
36
c4
71
11
08
f5
2c
e8
60
de
fc
c6
ae
3a
de
9b
e0
5a
24
9d
67
05
ee
94
09
23
2d
ce
d5
e3
a3
ec
4b
a0
e4
5d
a3
8b
f5
15
ca
d1
4a
eb
cd
76
ad
bc
9f
9e
d3
c9
b7
c7
e5
7d
d6
d6
3f
64
4e
07
0d
f2
37
37
48
de
dd
bb
f9
49
bb
25
c5
c1
e8
08
2e
79
50
71
67
0d
ad
7f
64
99
58
45
18
f4
0d
cc
ba
a8
5f
a7
f3
b4
b7
c5
76
aa
03
f5
43
bf
b0
8d
c1
73
14
29
4b
94
f2
b0
a8
b6
dd
b2
d4
ce
12
fd
fb
e0
a2
e5
d7
3f
ce
23
df
d2
0f
ac
dd
7b
24
08
43
9b
6d
e5
0c
33
3b
f2
05
e9
d9
cb
bb
90
de
9a
ae
36
cb
1a
3d
26
7a
d8
92
d6
04
22
19
e3
f8
94
46
08
51
af
1f
af
d7
be
d1
8a
27
6e
e6
6f
44
94
c6
1b
ef
c5
75
fa
ae
20
87
fc
ea
6b
b9
3a
e7
f3
7b
35
86
43
ad
69
91
53
43
1c
46
6b
84
85
39
03
3a
ac
c0
39
e9
79
1e
6e
ca
8a
d3
a4
b8
42
69
05
15
56
66
12
3c
25
6c
93
b2
d6
6f
07
3b
21
69
3c
77
43
b3
01
df
10
d6
fb
2f
7b
94
50
05
73
b5
f1
f2
22
41
12
e6
45
64
c7
ad
b7
52
22
bd
bd
d7
46
c7
c8
35
5d
d8
e6
1e
c2
5b
7d
cc
e8
b2
30
05
5d
0b
1f
a0
1e
61
c8
48
03
97
8d
64
96
1e
a0
cc
79
02
6a
68
c0
b4
3c
f0
c7
c0
fc
96
df
48
bd
f9
2b
22
02
9f
af
0c
54
31
e7
f7
da
1e
e5
94
b9
78
3a
4c
90
de
35
22
13
13
43
7f
a4
de
f1
e8
b1
cf
fc
89
1e
62
a0
b9
1b
99
3a
8a
dd
f8
d2
8e
b3
17
af
d4
62
bc
e7
8c
63
2b
68
ef
83
f9
62
7a
66
59
77
d1
ca
f0
88
57
74
06
1f
78
01
55
d1
c1
de
d9
86
e4
2a
21
6a
36
31
d4
43
64
72
98
5a
38
ad
d8
e4
3b
fc
41
d6
63
31
4f
9e
2e
15
63
0a
d1
bd
74
4b
93
ef
2f
c7
4a
31
98
69
d5
0e
8b
d3
2d
6d
1f
f8
eb
25
92
3a
bc
63
8f
95
c9
1f
ab
5c
c7
6c
44
35
92
0e
11
1e
47
ec
dc
25
76
40
ec
0f
5b
bb
bd
22
84
96
bc
bf
20
56
ca
26
2a
a4
7e
9d
3c
38
18
d0
43
e6
e3
4b
23
8f
ec
c3
50
b6
cb
1a
9c
ac
e0
1f
c9
16
6f
b6
91
10
33
99
75
18
1f
a1
27
2f
23
f4
c7
5c
70
a9
65
13
d8
c9
db
80
ce
1c
1c
c1
30
d1
4a
26
8b
50
9a
0f
f3
1a
65
98
9e
64
b3
78
26
4a
af
c4
a2
d6
e5
0e
e6
5b
61
94
19
2f
f9
17
91
1b
b9
15
8d
2b
2d
44
7a
b0
e1
da
b3
fa
b2
e6
ee
6e
de
5b
d3
92
88
97
b0
71
fe
b8
68
67
6b
f6
8c
65
63
ea
fe
54
f7
4b
ba
d8
31
2d
d1
44
02
05
e0
79
48
8a
cc
71
15
21
5f
37
40
33
f9
79
5e
21
b4
4e
64
c5
02
71
3e
1e
13
eb
9b
67
86
50
52
92
96
a9
25
25
93
f9
69
f9
4b
21
75
18
55
76
69
cb
f7
e1
68
56
49
e2
d5
b9
67
fa
f3
b4
0a
69
0e
3f
c1
c2
b3
a8
0c
4c
66
1f
bf
93
54
20
bf
da
04
a1
0d
24
2a
fc
dc
a5
1e
19
87
01
a1
4e
25
eb
d3
c9
06
4f
2e
99
e5
1b
d8
7a
f1
62
38
f1
05
38
ea
4c
de
db
22
f4
33
55
b2
6b
58
7d
c0
30
dd
a0
3a
3b
32
bf
17
2e
ce
4f
4a
0b
05
10
ca
4d
0a
2b
54
01
7b
fd
88
0d
67
cd
01
06
75
10
6a
96
b0
60
5e
6d
af
e4
40
95
b7
65
01
18
53
5b
fc
17
5c
df
73
1f
ef
f6
a6
44
68
b8
27
86
3d
a1
de
dc
9b
29
9c
78
e7
c7
d4
1d
3f
63
9e
93
15
c3
cc
8d
18
a2
24
24
3f
a0
15
2c
9c
d9
31
ce
eb
5f
cf
6e
91
33
8e
59
84
38
f2
57
c5
7a
96
1b
62
43
c2
2e
a9
4b
17
ab
a0
87
87
bd
81
10
2e
53
ae
9d
9e
db
90
11
2c
6f
d6
7d
51
2c
cd
46
90
fd
3e
fd
a6
98
7e
d4
3b
2a
c0
3d
78
56
14
3f
8d
0f
7f
a0
03
e0
29
02
cb
d7
20
2d
6a
62
72
48
9a
59
18
f3
20
aa
cf
4d
09
ea
7f
75
7f
e9
3e
00
49
07
af
eb
50
71
15
af
75
ab
97
65
f0
18
d5
72
25
d7
d0
6f
28
2a
d7
23
60
18
c9
29
32
db
7a
8d
c6
ad
ad
13
2b
df
ce
6c
94
34
4d
0e
90
5c
59
88
e7
f9
45
f5
4b
dd
72
0f
d9
86
e7
77
a8
bb
37
be
9e
8a
e9
f7
dc
ea
6f
32
6a
03
54
60
3a
16
b5
63
24
b2
54
d2
39
64
3c
3b
13
a6
19
ed
c6
c5
3f
60
2d
c4
7c
eb
81
79
4f
99
99
57
3c
ea
0b
0f
46
9e
19
06
53
0d
01
1f
a1
f2
8b
76
88
8c
85
8a
fb
fc
c1
73
61
e9
3b
b9
0d
39
a6
e4
55
78
14
49
98
01
7b
53
52
e5
f7
4f
b4
9c
20
fa
5d
ad
6b
c5
42
6c
d9
51
2f
f2
f3
72
f6
39
dc
d6
00
10
52
97
dc
21
7e
be
d2
fd
72
a7
7e
1d
f0
67
8f
3b
23
9b
77
24
5b
83
a2
7e
3c
3f
16
61
17
d4
00
c2
74
f8
a7
29
c6
03
51
f4
f2
7f
d2
df
2e
6d
d0
5b
a6
77
6f
d5
a9
69
e1
b4
66
f1
ca
4e
48
a5
e6
d9
99
3f
72
2d
db
35
5a
96
e8
a0
50
50
1e
5f
11
f9
70
48
e9
de
6f
47
e9
f2
5c
a1
c8
1f
14
ca
35
3d
77
26
bd
8b
38
fb
90
f7
e3
4b
ed
c9
f2
eb
a4
4f
55
c1
af
40
09
cc
a6
e3
17
a8
72
26
69
e8
2f
15
41
c8
09
7c
59
99
85
83
7d
cf
30
4d
f8
d3
95
49
23
b0
9a
42
68
64
d2
53
7f
1f
cc
34
5e
41
e1
50
1e
65
8f
b1
dc
69
07
60
7b
9b
0d
3f
24
fb
ca
70
4b
f1
01
5f
6f
a5
42
86
c1
89
b8
5e
67
ab
82
65
5d
2e
91
95
e2
ea
2e
e9
22
53
ce
31
8b
b8
2d
f2
4f
b5
d3
39
68
b9
b8
51
43
84
f9
1d
f7
d8
55
8d
4e
c9
1f
ed
5c
d5
bf
82
66
af
aa
e3
d3
64
12
fa
4e
87
bf
a2
5b
b8
18
9a
fe
a2
40
38
35
24
7d
05
c7
98
ca
1e
b8
46
c4
b8
c0
90
f8
41
f8
56
fd
c1
da
84
83
14
c6
24
13
43
11
ba
8f
a8
cb
ad
f4
5c
2b
86
e9
1f
d1
b1
22
3c
4c
34
56
1f
08
a7
d6
f0
ac
e4
e7
96
ab
8a
b9
91
24
3b
92
89
2a
c5
ac
96
fb
4b
9d
c0
e6
46
a4
6e
6f
be
92
3c
0b
42
f6
32
1e
2e
69
4b
a5
e4
d9
49
d1
3f
83
cb
44
bc
b2
90
41
92
e3
e4
7c
24
5a
40
9a
f2
84
8c
9f
e0
95
dc
28
f2
62
93
44
d1
86
78
1a
08
ce
03
48
f7
a2
d4
b1
da
f1
99
22
9f
55
3b
46
43
03
79
84
c1
43
dc
7a
03
18
0f
d6
cf
ce
74
23
f9
11
91
28
ac
91
81
82
74
05
c0
a2
eb
bd
0e
f6
be
11
d8
e3
ce
9f
29
dc
44
a8
9f
bb
ac
06
e6
9a
41
61
c9
a5
12
5f
b6
73
79
67
86
74
5b
9e
8e
0a
9a
34
ab
5c
9c
fc
bb
1a
50
5f
fb
89
52
33
22
a2
6a
73
a4
d5
12
24
2a
dc
b6
41
93
5d
55
63
44
cf
eb
4e
94
f5
92
90
a0
a3
26
ef
8b
02
e6
5a
e2
7b
6f
62
16
31
d3
81
ef
95
a6
3c
e7
98
7c
51
69
20
7f
2e
30
b2
56
4c
80
c8
4d
48
54
b4
8b
b2
65
8a
f5
bb
68
7b
49
7e
53
71
b5
cf
72
26
1f
34
21
fa
9a
04
48
56
66
3b
a6
e9
55
03
6d
99
4f
8f
f2
2f
10
1b
26
27
62
1e
78
64
53
dd
22
d6
38
4c
37
05
81
6a
23
31
4b
be
96
e0
72
08
03
da
37
81
f7
25
18
c0
f3
cb
e5
f3
15
af
9c
ac
1c
65
40
44
4c
b2
70
da
82
2e
70
17
fb
2b
1b
85
a1
a5
ba
db
d0
3e
8a
47
7d
db
f2
91
bb
d5
44
73
44
49
9c
12
0e
45
54
ae
33
f6
81
d0
e0
1e
94
53
0a
9b
a3
0f
6f
78
26
09
74
95
a7
a1
76
80
1f
38
9f
87
81
22
de
af
6e
d0
67
d7
f4
73
db
a8
19
c1
07
a8
a7
9f
e3
38
8a
86
b1
18
aa
1a
71
09
4b
a3
e5
d6
69
f9
8b
f2
4e
e9
bb
61
0e
b7
63
94
19
0c
d2
82
60
1d
a6
c7
7f
af
e0
7d
fb
b4
39
b3
98
d8
f7
3f
59
26
4d
6f
15
e8
ed
f9
e4
91
2a
63
50
53
ae
f8
20
ef
ef
ab
04
7e
7b
49
9f
25
54
a9
44
43
6b
97
57
80
98
3a
8d
88
85
72
02
57
b0
0b
96
61
23
9e
2a
82
32
a0
34
d9
f4
2e
5f
a6
bc
63
fe
6d
e7
14
7c
25
25
da
61
ca
1b
df
19
fe
cc
79
1f
85
5d
d3
f5
b1
b2
30
d8
f0
16
8f
ed
83
ee
38
c3
38
62
a6
5d
b1
d0
63
83
e5
31
a6
b5
47
76
2f
c2
90
67
38
59
e5
3c
cc
98
4a
a0
52
bd
c1
d6
cb
0b
8f
01
89
79
ba
80
12
46
e9
1d
7e
51
3d
48
c5
90
30
bc
c6
08
1e
31
b2
5b
d9
a0
4f
f3
bb
58
3f
58
53
59
83
fc
c1
c2
3b
0e
a1
1e
88
0a
67
c1
35
b1
a0
12
44
4b
35
c0
7c
27
aa
ea
6a
05
c4
c6
27
c1
9d
4f
54
54
40
48
0f
78
53
3b
54
d4
45
4f
da
a7
18
ce
fb
cf
f7
39
1d
38
27
71
de
e4
18
83
c1
e3
ec
3c
e1
78
76
bb
ac
12
3e
a3
39
d4
c9
d6
14
bf
bb
50
13
c3
a8
60
a8
ce
fc
e4
24
f1
01
85
12
5f
d9
26
0e
38
4c
31
7b
bb
8b
4b
9b
e0
d0
76
a1
83
3a
fe
cf
d3
6c
e0
c1
4d
0e
9b
54
c7
75
2c
7d
f3
ac
d0
0b
00
3c
2d
68
b1
10
38
73
17
2d
67
bf
a0
d7
86
22
f9
a7
6e
95
dc
79
5c
52
d4
36
dc
26
fa
41
5f
89
3d
6c
98
b5
e1
da
21
1f
2e
8f
72
d6
00
5d
d5
1c
c5
5d
cd
07
33
34
ca
25
a2
bc
d4
a6
72
11
45
85
5b
ae
2a
a3
8d
1f
f0
dc
42
29
20
cc
91
4a
bb
ce
1d
c2
2f
fd
03
11
3b
ed
6f
25
89
1b
e4
eb
ee
63
c6
02
67
86
7e
bf
c2
53
df
73
0d
d8
a1
bd
86
98
f8
0f
82
5d
05
43
97
cb
05
f2
ce
06
d9
18
07
cc
4f
4f
a8
c3
d1
c2
e1
f0
45
06
d3
fa
4d
bd
e3
41
f4
03
21
6a
da
bf
69
34
c6
94
2a
e6
64
e8
77
99
5a
68
a9
5b
df
12
df
ec
cb
da
5a
80
a2
2d
b4
1d
c8
37
8e
43
28
1d
6c
96
6b
f5
62
b7
97
e7
6c
de
c6
4d
c6
47
6c
f9
33
5f
42
f1
c1
08
ee
34
65
ae
65
f8
0c
c9
be
57
16
63
a5
70
d0
24
b8
f2
8c
29
18
15
4b
88
a8
c5
68
35
d9
de
50
e4
7e
04
fa
63
92
bb
d1
a4
c3
b9
0d
0e
1e
32
b1
5a
97
39
a9
fc
8c
72
90
de
bc
a3
10
26
6c
fa
4b
12
9b
c6
14
cd
6c
a2
1f
b5
b5
e3
7a
67
9f
62
62
fd
ce
d6
a3
3a
25
b9
17
a8
55
a4
5f
e4
96
bd
b6
37
ba
83
6c
12
31
5d
50
2d
fc
cb
56
87
92
b2
d6
01
97
01
bf
6f
f0
9f
9a
30
5a
71
cc
22
0e
93
6e
ab
43
bb
df
de
57
e5
65
40
fd
32
de
a9
3c
0b
18
00
d4
5b
ec
bd
e6
78
75
da
42
32
f1
a7
2d
b1
e8
d1
c0
c8
44
82
90
7b
d5
6b
98
8d
b3
06
ca
e7
c9
64
aa
60
3c
c2
4e
9f
60
99
26
39
ab
b3
28
f0
47
fe
55
98
b4
03
16
61
43
65
d6
49
27
38
4e
68
40
d7
7e
61
30
39
5e
18
b2
d3
e3
d3
e7
bd
34
59
f8
7b
91
9e
68
80
57
21
10
bb
14
11
fb
14
9b
4c
1f
b5
97
21
d1
27
6d
34
f4
2b
db
40
6d
a7
fb
ac
9b
06
42
6f
16
87
d3
cc
29
86
11
e9
e4
28
70
a2
a5
d6
f7
dc
c0
22
f5
ba
31
36
dc
50
a7
17
19
8b
d6
73
cd
fe
57
73
27
02
4d
b5
60
84
7f
6c
01
6a
4a
5e
a6
06
ee
15
d6
75
7e
22
61
98
d9
5c
c6
13
2e
31
bd
12
63
17
dd
bf
2e
33
8f
18
8c
3c
c0
4b
41
73
16
0b
2c
04
d1
fb
5e
2d
f1
40
05
b2
80
e1
64
9f
23
a5
e5
77
1b
61
25
06
e4
61
9c
35
eb
b7
fb
d1
fb
b4
bd
49
6d
8d
60
21
9f
c3
59
a4
5b
a7
8d
25
bf
8c
fe
da
b8
d2
52
ca
90
4b
77
54
86
c2
a6
b9
6f
35
41
b6
5d
c3
6a
30
53
9e
ba
86
c5
d8
e5
c8
d0
78
ad
fc
17
92
99
17
14
4a
fc
5c
d8
7d
0e
2b
7a
3d
8d
49
e6
a7
8b
e3
dd
23
a5
cd
dc
b4
65
77
3c
0a
9f
98
ce
fe
29
5b
06
8f
29
3e
db
5e
74
cd
0a
5f
5a
37
ef
b9
d1
1b
92
8e
e5
cb
83
99
37
7a
e9
02
5f
65
08
d2
c5
68
00
d5
a2
91
e8
50
70
3a
75
4e
db
ce
ef
79
e9
25
19
59
a1
ee
7a
26
d3
0c
55
5f
af
ae
f5
24
e0
2c
b5
25
e7
af
73
13
4c
e8
c0
bf
f2
57
00
1b
14
7e
1d
2b
16
f1
05
ca
07
84
b1
a1
88
51
ae
71
21
79
96
22
cc
65
7b
c4
89
de
1c
be
79
09
a1
ee
c4
12
6f
40
64
4f
3d
fa
c9
a0
2a
9c
c8
f9
06
0a
b2
5b
0c
bf
91
ee
fa
d3
dd
0c
6e
be
69
3e
22
d7
2b
0b
f3
ee
ea
b9
12
65
9b
aa
2f
91
fb
56
04
fa
03
60
9c
3d
f3
af
9c
f4
2c
3f
79
da
73
ce
f4
e6
d2
d8
c9
d4
ae
45
1e
16
91
4e
53
11
64
07
cd
8b
9d
62
71
60
ce
1a
3a
f5
30
01
76
6f
95
1a
06
f6
5b
e1
94
ba
46
9e
85
96
cf
d8
3b
59
c7
bf
e0
56
bd
f0
58
63
5a
b4
63
3f
3c
e8
4d
2f
e3
7b
aa
41
c4
ea
a9
6d
f1
bf
80
9c
19
59
73
9e
a6
f2
36
2a
95
e7
7a
c0
16
ca
f2
c7
bb
f8
8c
c7
83
f2
5d
89
3d
91
c6
9b
c8
47
48
b7
f7
89
2e
38
51
86
1f
1b
0a
77
95
da
d7
c6
a4
02
6f
99
41
a4
53
20
48
a6
2b
b0
ed
1d
d3
9e
68
43
84
4d
eb
cf
5c
98
49
a0
4c
d7
97
6c
cc
77
ea
43
b9
88
96
7d
94
db
a1
a3
ae
64
92
ed
bf
3c
4f
ae
7b
55
4a
62
d4
32
a1
0f
1a
cd
4b
c5
d5
66
cc
07
8b
bc
a1
62
10
13
85
8a
18
1c
10
2d
71
3d
96
c0
d0
8f
2c
bf
fd
38
fe
01
e8
f6
3d
ae
9f
63
c8
5b
ea
e1
7b
05
e4
11
9f
d8
5a
92
e7
0b
cc
cc
1d
9f
ee
82
80
af
fe
c2
b8
1a
12
1e
31
c9
f1
7b
69
2a
ca
43
65
d6
bb
92
0c
f6
ab
ca
c4
8d
7d
71
6f
2f
bf
d9
6c
88
a5
4d
5d
f0
b8
8a
c9
b2
85
ee
66
65
45
1d
4e
5d
13
af
44
2d
e5
27
a1
8a
57
39
83
4d
75
a9
68
0e
18
1d
af
44
0e
8e
f1
02
72
d9
d7
74
9a
c8
7f
7b
9b
cc
56
ab
a4
d7
f9
87
ab
ce
f0
f1
25
1b
e2
19
79
32
2c
b3
9b
58
28
2b
f9
4d
df
d8
ea
f1
d3
7b
4c
10
e3
87
1f
47
85
46
d3
0c
d1
1d
c7
1c
d9
ba
ac
89
c5
68
4c
3f
48
3e
6d
50
97
94
2e
d3
30
a1
be
56
96
10
12
33
3c
02
67
5b
3f
c5
86
f5
d8
04
78
98
51
9e
a7
56
e9
2a
96
45
a9
49
27
ae
44
a8
46
14
1c
e9
99
c6
a2
d7
0e
6d
5b
69
74
e0
c3
47
07
38
64
07
7a
e3
0a
35
6b
4b
20
1c
77
9d
f0
8c
3d
12
54
90
a1
e2
a8
9f
3d
c0
f9
30
56
08
3b
6f
ad
d4
7d
c1
df
dd
63
2d
9f
41
62
f8
02
50
5c
55
de
e7
98
2a
44
1f
57
6a
48
7d
64
fe
b4
15
d7
a8
5a
b0
bc
9f
2c
b0
f3
13
75
2b
12
bf
97
0e
45
a2
6c
39
8c
78
a3
8c
bb
b5
e1
f2
ba
b5
87
bd
a0
f4
24
fe
51
5c
9d
59
09
c2
d3
eb
30
78
11
cd
1d
49
59
8f
75
df
cf
6a
ab
8e
ea
a7
45
30
c6
d7
37
9b
d7
7e
60
76
79
81
eb
fd
17
72
00
73
94
19
0c
5c
ea
c4
d9
0a
cb
50
c9
83
f5
61
99
ec
b5
8a
d9
06
74
1c
0a
6c
7e
71
1d
ec
7c
b3
ad
dc
d9
11
c4
98
0e
09
de
60
33
e9
5b
a1
6c
5a
0f
90
26
a2
94
9e
01
be
8a
e0
5a
c6
e0
d1
f8
99
3a
97
40
77
4b
71
62
cd
a3
f7
2e
51
b3
1b
99
67
94
a8
70
12
7b
1d
5e
b2
cd
57
1e
83
62
c3
97
f5
21
41
af
e5
8e
d7
bb
af
c1
dc
7c
a7
7b
82
75
cb
4f
e8
43
b4
11
a9
65
cf
cc
76
65
54
53
bc
ef
c8
c9
4f
3c
30
bc
3e
50
0a
22
c2
cc
55
51
78
a6
36
f6
79
0c
41
1d
d9
9e
83
83
9d
34
23
ad
ec
95
43
f9
76
b1
07
0e
e8
43
14
be
54
01
44
b2
85
7f
c2
d1
c8
78
76
e4
b8
ae
b1
db
7f
75
72
a1
15
bf
48
57
0c
79
e2
8d
bc
3d
fc
7d
2d
3d
42
27
8d
de
a6
c0
25
b7
60
29
89
7a
69
5b
7a
73
33
3c
d1
40
72
ae
58
74
fa
1f
e6
31
7d
8b
7e
d6
df
73
0b
52
98
08
8c
05
37
d9
71
9e
2b
ad
bb
78
7e
09
af
ac
79
f3
dd
c1
37
89
56
a7
5b
45
c3
68
f1
fe
5b
ef
15
4f
68
81
9f
9f
c4
71
4d
cb
af
39
b1
c1
44
36
f5
e3
2e
2c
93
47
b1
7e
43
96
ec
3a
4d
c9
d3
22
5b
b2
46
70
f0
a9
d2
75
ea
c2
7d
9f
65
b7
d0
6e
68
43
7e
cc
64
c1
bc
de
0c
f6
95
ca
9f
ed
cc
e4
e8
20
c9
b3
b8
d9
94
89
09
97
7d
b7
e4
0a
a9
96
6e
fb
8f
66
38
bc
82
e9
38
4f
b5
fd
f1
b0
45
ae
66
a2
70
10
f6
0e
e1
2c
ec
e3
1b
f9
d1
c8
f4
c9
db
0c
bd
59
30
9e
64
20
37
3c
ac
3c
cb
44
da
44
3c
8c
35
43
66
42
0e
5b
2b
b9
c3
63
e0
95
f6
b4
24
a2
3b
1d
6d
2b
a3
16
9f
74
51
7e
ab
bb
ee
be
85
42
d5
57
ed
b6
b4
32
14
b1
e3
6a
d0
e3
e7
4b
59
aa
36
aa
ee
a0
bb
e0
92
bb
1c
7a
56
a4
99
b7
5c
62
25
6c
d3
a8
63
8a
68
98
e2
dd
f6
81
d2
d3
a5
b9
6a
9d
99
ef
e4
8a
62
7f
11
ce
a0
e5
40
1e
4e
f0
bf
d5
1b
46
3a
a3
03
72
7b
b1
63
c0
91
60
b4
b4
16
90
6b
ca
69
02
6f
40
88
d6
2a
17
15
b4
38
5f
ce
a1
5b
36
11
34
18
40
59
67
ce
20
f7
d5
53
e0
8b
4d
65
17
92
94
16
e9
ac
af
6e
d2
c9
6e
99
ea
a0
6a
79
04
78
92
dc
36
16
92
3c
c0
52
6b
1c
37
1a
73
23
bf
b3
ca
e2
77
b1
93
4f
fb
98
51
39
2f
9b
36
d6
e5
9a
ed
fc
14
3c
a3
92
da
2f
e2
54
45
e6
8b
6e
5f
2f
33
f4
8e
d8
0a
96
28
b6
55
3b
61
97
80
f8
b2
30
a3
31
7b
b0
c6
67
27
c9
3e
ac
fe
1a
10
a7
0e
d7
3a
b3
73
86
7b
ac
11
d8
5c
4b
b8
85
91
12
ae
db
bc
98
4d
8e
b5
9c
2e
2c
ae
03
6a
93
db
24
85
e0
cd
ad
6e
c8
6e
41
d7
76
08
fe
41
5f
1b
97
e3
d4
7f
2e
37
fe
72
7f
12
de
6b
0b
da
6e
32
98
1d
3a
bd
6f
05
20
f0
3c
55
23
c2
88
e1
3c
97
67
9b
63
a9
f9
28
6a
32
c8
dd
40
2e
9a
90
9d
45
d4
ca
45
3c
a8
ef
51
80
6c
3e
a5
5f
22
ef
ce
47
18
27
7c
78
9a
72
5e
2b
72
1a
ef
1e
9c
72
f7
4c
ea
44
1c
29
e7
db
3e
a1
73
36
de
ad
6c
a2
84
7f
26
3b
11
12
13
9d
9e
64
d1
8d
9f
1c
c7
06
70
1d
bd
44
55
a8
3f
13
d4
43
e9
48
3d
aa
ba
ca
45
26
88
e5
24
e8
33
b2
c7
ad
1c
38
b6
ee
b4
1c
88
24
1e
6d
4a
a0
9d
98
e8
96
a9
45
dc
84
cb
77
52
81
9e
83
d8
b8
c3
57
72
99
f5
6e
d5
bc
59
d7
59
44
01
4f
ee
62
e7
09
4d
90
0b
7a
f7
f1
99
77
bc
da
b7
9c
cb
8c
6e
0b
23
15
db
7f
23
6e
70
77
d1
00
63
d6
43
4b
99
a3
88
53
53
ed
cf
61
cf
86
bb
15
f7
61
34
d0
85
08
bf
90
72
5b
b6
3d
be
7c
93
16
64
18
79
fc
68
21
a1
37
a3
3f
7e
28
af
6f
1a
b9
ef
ae
a1
13
1f
1c
36
c7
f6
7a
7d
a0
02
64
85
66
de
aa
12
fa
4f
94
d4
67
c8
9f
16
c7
87
3d
53
d8
b2
5b
2f
bb
de
27
80
05
9f
83
2f
9e
2b
cd
0d
1e
f7
4a
d1
2c
6f
cf
02
cb
c0
69
c6
3b
66
4d
0d
e1
85
12
9b
f7
62
9e
46
c6
42
f8
6a
b2
4a
e9
84
8b
35
52
19
59
b0
36
a7
15
4f
ee
27
0b
15
f5
89
c4
9a
2f
01
c8
f0
b9
9c
42
f3
cc
f5
21
2c
fa
ea
ea
df
ac
2c
21
ca
16
f7
03
65
66
32
ec
bd
fa
e8
a8
f8
53
f0
3c
ca
8e
2e
9d
5c
60
64
e8
4e
66
48
40
b2
0b
58
82
81
83
a7
81
7b
0f
02
5e
d5
71
20
f3
03
5b
71
a7
f8
3e
34
ec
e6
81
f8
41
0a
3a
01
99
e2
b8
4b
77
a9
99
65
5f
5e
ae
ec
7b
18
55
0a
7e
a5
04
51
d6
15
0e
c5
d2
f9
8b
67
93
07
c1
30
67
0c
28
fc
e4
04
c4
48
ba
40
06
63
16
7c
03
0e
fe
18
5a
9d
16
5e
77
4e
6d
05
d1
0a
d6
4c
1e
dc
92
99
02
fb
5c
a9
66
70
dd
83
91
d8
38
7d
21
9d
f4
cb
68
1e
5c
bd
2c
8a
31
ad
69
43
1a
57
fc
ab
43
1a
52
db
98
99
98
d5
b3
10
74
32
ae
2b
04
ec
69
05
34
fa
7b
62
61
91
c5
39
37
6e
0d
b9
1b
25
9e
8f
ea
99
07
1c
33
b0
44
9a
77
68
88
03
5b
56
e9
dd
c9
5f
5c
de
04
76
15
95
95
a5
d4
f4
2d
f6
55
86
75
52
a9
76
39
7e
7c
0a
4d
2e
a5
2e
f7
9c
29
d0
1a
22
9e
17
ec
c3
fc
e8
c3
38
d8
8d
4a
3a
73
56
0c
76
7e
39
08
7b
5f
6d
31
1c
de
56
6b
51
c6
f0
25
03
f7
6e
6e
3a
70
71
6d
82
90
ef
a8
f5
25
a0
8b
61
78
f6
47
9d
ee
40
bb
d6
da
ec
3a
73
2a
75
df
74
2f
08
b0
a4
7e
bd
7b
c6
2b
68
42
80
9b
d9
91
52
6b
93
31
d8
c5
3e
79
44
fb
65
4f
f4
91
01
a2
0d
c1
b3
68
18
26
28
48
45
5d
bc
2f
f1
b8
64
e6
7f
56
c7
80
41
9a
ef
cd
82
76
0a
52
14
de
10
1a
da
b8
fb
ec
9b
a4
07
07
f4
b1
71
cd
7a
de
52
71
59
72
51
7f
e6
17
c3
3a
76
27
b5
c9
84
fc
8d
f1
b9
26
52
44
1e
be
33
96
dd
63
9d
e6
60
c2
41
1a
20
e3
23
c7
3e
fe
b5
30
e7
99
de
b9
40
25
24
df
b4
54
58
dd
5e
1d
73
23
bc
d2
50
6c
9a
1b
a5
0a
1d
4e
d9
19
f1
96
35
cf
9a
52
4d
cc
72
fe
e6
4a
1e
ea
79
37
6e
87
95
bc
ca
20
c2
f4
eb
31
7a
5b
4f
1e
94
78
44
70
a8
d6
3f
a2
f2
42
99
8b
22
34
c2
4a
de
bf
0b
83
8e
04
85
e6
53
65
e2
8f
42
a5
a8
8e
78
0f
55
0d
6a
5a
f5
6e
f5
85
29
a9
9a
68
31
ac
4f
42
a5
74
eb
f1
48
2c
74
f1
d6
d6
4e
0e
94
4d
97
6e
93
f6
7c
92
44
6c
d2
ba
07
60
c7
2d
9a
35
5f
0e
3a
c6
b4
01
bc
51
48
85
cc
44
1e
2c
a2
53
f2
f5
bc
87
bc
d2
e1
70
3e
23
4d
0a
31
a6
83
af
08
db
81
12
1a
1d
ba
c3
a2
a9
7a
45
06
ae
f6
39
b0
50
e1
f7
c4
2f
6e
36
e8
be
77
d7
6f
54
cd
74
79
b6
53
a9
a3
a6
62
4b
59
d1
21
01
00
5c
64
9a
8d
5e
82
a2
9d
7f
0b
b0
f5
87
5f
30
d9
8a
70
01
8e
ec
e8
f7
37
f0
06
9b
2b
eb
c3
fd
33
c7
8e
7f
cb
df
7e
0d
e3
92
36
5e
ba
d9
39
c5
0e
bb
dc
72
2c
74
5c
1e
a2
bc
7c
4b
7b
07
5c
56
05
a1
a5
57
89
2f
31
6e
0c
5f
7d
f6
1d
02
9d
91
79
8d
f7
a1
7f
c0
65
08
47
25
b4
98
74
ba
89
05
26
f2
f0
4a
15
0b
db
1a
77
91
33
42
75
14
ef
6d
1c
76
7c
96
06
00
20
ea
3e
f1
e1
1a
0a
c8
51
19
f8
06
ee
3a
b0
19
3f
af
6e
6f
1d
53
c2
f7
71
76
0e
dd
f6
a2
76
1d
03
da
6d
66
db
0a
f6
b6
8c
f9
58
34
84
ed
a7
96
5a
ec
5e
2f
e0
5d
47
ee
7b
e6
be
61
45
a2
4f
fa
54
b1
60
ab
40
d8
99
c8
9e
ee
f5
46
cf
c3
d5
07
c5
07
be
cb
1f
d6
6e
0f
55
52
98
ce
28
05
d0
5f
d8
81
6a
45
0e
b9
71
29
56
d8
ae
64
5c
8e
4d
a1
32
b3
c3
ea
53
1e
d7
14
8f
fe
d4
1a
7b
56
c8
b5
94
1e
3c
61
82
8d
3f
db
7f
a0
5a
26
2a
82
96
d7
a5
54
41
a9
d8
ad
4b
20
f8
c2
99
3a
49
ac
bd
5d
6d
a3
da
d6
89
6f
a8
b0
5a
59
54
c4
7a
eb
8b
da
ea
59
20
ed
37
18
07
b6
77
07
9a
5a
31
ae
95
58
c2
e3
72
ac
51
e0
82
da
dd
b7
84
46
d6
45
b7
04
d0
47
e0
c2
9b
df
6b
79
16
ca
24
8b
bc
90
6a
a4
37
f9
48
7a
d8
91
21
6c
8d
3a
a7
92
5f
81
e0
da
75
79
9e
ed
87
82
f4
2e
76
0d
d0
4d
f4
9b
c9
21
5f
1f
c7
e9
0b
bb
bf
93
3c
32
04
f6
15
a5
f0
a5
71
70
05
93
4c
b3
fa
8c
d0
af
14
f2
b1
02
20
b2
1a
b6
8e
78
d9
0d
2f
cc
88
b5
10
e1
2f
2d
4b
21
4c
a6
cf
0a
a1
50
10
87
6c
00
c8
8e
0a
c0
00
3d
07
37
56
c0
69
b6
23
0a
5b
59
21
1d
fb
3a
96
2c
60
fb
91
97
f0
8c
dc
87
f2
b0
23
5a
fc
f5
5d
fa
25
62
99
05
34
7f
0d
6b
da
34
c1
82
23
b0
be
b7
5a
91
45
81
fb
0f
8c
71
b0
aa
c0
75
0e
e8
c7
cc
0e
23
df
e5
9f
f5
b7
c5
a1
8b
63
28
71
4a
9c
d6
27
eb
e2
9a
86
64
b5
e8
1f
5b
dd
09
fb
6f
e7
f0
36
b6
4e
0b
08
2f
26
ac
ce
1b
df
bb
39
43
e9
b4
cb
99
03
68
5d
53
4d
28
96
33
9f
85
1f
97
35
0e
73
db
6d
cf
18
d7
10
0d
95
a5
86
c5
05
fd
4e
59
18
aa
85
c5
3f
81
12
26
b3
92
56
30
e3
d2
ea
a7
67
6f
28
3b
c8
6b
5a
0e
48
33
25
e4
a0
45
cb
d3
47
71
c8
7c
fc
7b
f0
14
39
43
ab
66
6e
f8
fa
f0
7f
94
e0
c6
d4
1a
f1
b6
a6
80
49
8b
5b
bf
61
e0
1d
d6
86
26
bc
69
4f
53
72
e4
49
79
ee
97
a5
04
c2
12
dc
8b
bc
88
09
4f
5d
65
89
c9
98
0d
e6
66
5d
ce
42
39
62
c0
fa
6a
6a
e9
39
b0
93
f8
fc
a0
8c
cd
24
6d
3f
32
92
1f
80
9d
da
f4
95
e6
02
e8
ed
0b
20
0b
29
06
3d
09
0d
41
87
45
ce
cc
b7
1e
6e
29
4c
23
2b
72
6b
58
64
e2
f6
a4
9c
f9
52
bb
b4
e1
70
81
ea
ce
42
08
ac
d4
27
f9
74
34
5f
4d
3e
70
9d
c3
f1
ba
e6
25
f2
80
82
54
1a
e4
cd
de
00
7c
d3
88
8f
40
44
72
28
fd
f2
7a
d5
e9
7f
1b
1e
69
e6
06
5c
67
53
be
8e
3f
ba
c4
d5
16
96
e7
5f
27
e2
86
40
20
a1
5b
8c
95
47
23
db
bc
c5
fc
59
01
f1
20
c8
fa
57
f7
2e
05
90
31
b9
5a
c0
e3
5b
b6
f9
ee
a6
1b
29
39
ee
50
f6
d4
ce
60
73
95
5a
fd
c0
bc
d7
bc
76
04
fc
86
61
35
5e
e6
9f
e5
b3
d2
b4
5b
af
96
3b
85
d1
52
7b
af
d1
d0
da
e4
19
34
c9
93
5b
c0
5e
c3
4a
0a
7c
7e
06
4c
c5
67
49
6f
ee
e6
a9
01
65
c6
f1
25
d3
5e
d7
1b
6d
f4
3a
64
34
20
7a
99
fd
5a
78
cb
18
2b
4d
af
48
be
b6
38
55
22
d5
95
03
0c
8c
7f
05
70
98
8c
a3
88
b6
5b
08
d2
3e
f9
47
21
ea
e3
ab
d2
1a
c1
47
6d
65
a5
e7
4a
89
49
37
ae
ae
8c
77
0c
9d
f2
da
21
6a
d2
bd
d4
0b
74
90
6a
1c
04
b7
3f
4d
0c
75
59
4c
6a
cc
f8
7a
c9
07
a1
f0
82
4b
02
ec
3c
71
db
79
6e
d3
87
4f
5f
6c
4b
31
77
fb
cf
8c
66
66
69
a2
08
79
a1
24
26
7c
89
9d
70
03
c8
4a
82
5d
39
4c
cb
75
cd
37
74
a1
38
92
46
69
50
b6
d0
2d
03
57
e9
6e
24
33
a5
2f
e5
2e
7c
2d
b0
93
a4
fd
40
33
9a
b2
1e
b9
23
01
0c
88
22
1b
3a
9d
0d
08
7a
23
4e
d9
9d
2e
c1
c1
e0
24
7d
7c
10
84
bb
2e
2a
c1
75
e1
73
0c
98
7a
ac
44
c2
19
7d
46
44
77
eb
a5
a2
a6
9c
96
c7
ea
ca
13
f0
01
24
65
e7
f5
ac
4a
e9
57
c5
32
60
c0
bd
80
6c
56
06
55
7b
08
a8
a9
20
52
10
3e
99
ba
fc
8f
6b
57
69
4f
e0
d1
eb
62
59
1c
6a
4d
d0
9f
df
b5
e4
d9
21
21
0a
1a
08
d9
72
e1
3d
e7
5b
0f
f8
fb
81
63
af
67
0f
ba
84
07
e8
27
fb
89
07
06
44
3e
49
40
8e
d2
df
d2
02
c4
44
8d
e4
af
4c
3e
86
f4
2e
5b
85
c8
56
9a
3d
84
b8
43
6e
e2
26
64
12
b4
12
97
ec
14
b6
55
5e
71
58
45
42
c3
8d
fe
b3
68
52
11
08
0f
2d
19
00
bf
2b
8f
44
e3
e6
f9
58
7f
e9
72
15
c2
d2
67
7a
37
9c
99
da
1a
31
72
72
19
4b
57
8c
27
90
15
0c
c6
c1
36
4c
c6
7f
ce
9c
44
91
ca
48
a9
cc
d5
b2
18
4c
ee
f5
af
4f
67
aa
01
25
dc
a9
2c
62
4b
58
36
d8
9c
0f
2d
67
ea
21
9e
af
20
09
11
6c
1f
7d
f8
60
84
65
d7
61
fa
e8
46
99
bb
bc
cf
f4
37
cf
04
fd
79
5f
c7
eb
5f
1c
a4
87
c1
d5
2a
59
55
46
a9
65
6a
f9
13
8a
a9
4a
f8
c5
b4
93
53
24
59
c9
0b
86
da
f3
8a
1c
38
49
6c
79
c2
c2
01
0c
f5
24
0e
92
ee
ae
8e
6b
db
30
25
0a
17
7c
ae
0b
f9
29
71
85
39
51
e7
6a
90
06
37
fa
1b
a4
8d
d9
9f
4b
34
cf
6b
b7
cb
b8
56
7a
4b
7d
4b
d4
05
21
63
75
89
15
2a
2b
4e
fb
1e
4b
98
d0
0d
b7
09
ac
93
ae
58
34
2d
c5
60
ab
ae
ed
5a
60
c1
46
f6
e1
28
5d
0d
1c
15
db
5a
5c
a7
01
a3
5d
f5
c6
3a
03
85
46
cf
1e
41
e2
7d
9e
ed
48
46
a4
3c
a8
91
03
95
81
0c
79
41
7d
a5
59
09
73
97
d4
19
16
3c
e0
73
e5
3f
01
50
0d
e9
08
94
d0
4a
6d
13
a2
d0
ca
6b
6d
eb
9f
9b
b1
d4
42
56
fe
e3
de
8e
90
77
84
de
ca
81
2b
b4
9d
40
85
1c
c5
ae
34
88
8f
a7
01
8f
4b
bd
6e
5a
88
45
32
84
a5
82
57
9b
21
09
59
83
7e
54
25
12
bc
fe
95
c3
98
7e
ee
a9
54
7b
df
86
7b
77
dc
6b
cb
f1
76
a7
59
b3
ca
c9
78
8f
4e
18
2d
8d
04
a9
27
46
fb
8a
b3
ea
76
9b
1b
4c
98
4a
aa
74
d4
64
94
f7
cb
a1
7c
4f
b1
68
9a
35
0a
88
63
a2
db
d3
67
89
d1
09
31
e7
38
a8
9e
12
2c
c6
83
88
0c
df
8a
bf
a8
b7
a6
fc
11
b2
6b
88
c3
a5
8e
e1
56
d5
fd
87
40
38
55
23
77
93
34
e5
57
cb
f7
fb
13
fd
01
c5
34
15
cc
8c
a4
a2
48
71
72
e4
15
29
90
0a
b7
6c
75
24
cc
df
a7
01
42
3d
e2
e0
c3
eb
79
36
e6
10
fa
44
62
2a
b3
bd
70
4f
bf
8f
48
84
e8
04
d1
db
82
2a
ca
b1
a4
06
f1
41
82
f1
08
27
fb
48
f7
e7
db
0d
65
51
fe
6f
f1
de
6c
6a
b8
ab
2b
3e
8b
0b
de
5a
df
5c
9f
56
46
20
60
1e
93
c0
1f
63
44
26
b8
23
be
be
8f
66
60
f5
b1
a1
0e
f4
bd
91
0a
80
47
18
a8
66
52
99
bb
74
90
a8
0e
f8
4f
d3
e7
92
5c
4e
07
63
2d
8b
d0
2e
da
f0
92
11
31
7d
6b
e3
9f
a4
84
b2
9e
72
b1
f9
b7
42
4a
09
2d
a0
f0
05
89
c7
0f
d1
00
52
aa
7e
55
63
d4
49
5d
57
f4
e6
90
78
2c
2f
ae
bd
53
64
38
a5
ba
51
83
d8
02
33
d5
6c
cd
be
e3
dd
f8
65
a6
f0
50
2e
f1
7f
24
9c
61
d6
a1
80
08
81
99
ee
df
b2
eb
4e
ab
ae
82
c4
eb
0a
3f
a7
a8
81
98
f5
87
17
bb
63
a5
6f
23
07
0b
3c
b5
08
bf
ac
51
30
d9
c4
79
62
84
7e
4e
d1
c0
e5
75
a5
92
51
cf
e8
47
4e
43
10
f1
fa
0a
84
26
97
a4
98
bc
96
b0
19
2c
35
4b
7b
71
69
53
21
30
8c
9a
21
bc
cb
22
4f
b3
6d
14
a9
6b
c7
4e
0d
f0
b4
f4
0a
79
5c
02
24
4c
15
90
01
3d
eb
4d
c9
2f
bc
26
06
c4
0e
9a
95
90
d7
c6
36
ab
39
1a
11
e7
0a
a7
8c
05
63
36
1f
69
b3
c3
04
68
18
08
4c
3f
15
da
6b
d8
65
b9
00
9f
c0
d2
77
cb
be
ec
b2
00
c8
a8
77
c5
14
ce
d5
ee
8f
16
16
f4
1e
ca
ca
e9
71
3c
0f
4c
87
b5
9c
b5
df
a1
d1
01
9a
b2
34
ab
63
3a
cf
92
ee
5f
45
3f
01
5f
69
1e
40
91
f9
6a
35
d7
54
71
6c
7d
b7
79
77
91
04
82
69
0c
64
e7
fd
86
9a
bd
6b
25
4e
a6
2c
9d
e6
35
25
ed
0a
0a
04
4e
9a
a3
e0
37
ee
72
65
7c
43
fe
4c
fe
9c
d0
78
9c
74
b3
2c
7a
15
90
1e
8d
25
3c
07
3b
83
06
20
4a
6e
74
4a
de
fd
f1
c0
b6
73
49
35
e5
75
c8
b6
5c
fb
98
19
bd
51
41
c5
6a
14
23
65
79
02
d4
bf
f9
8d
e5
6c
8d
fb
1e
57
06
37
51
40
f0
de
3e
55
10
ee
87
e9
6c
11
7e
ec
f3
92
16
28
71
4d
a5
8b
3c
96
fa
56
18
e2
6c
5d
ef
d0
b3
3e
a8
a3
c2
d2
7f
e3
77
7e
57
b6
7f
b4
5a
1d
a9
6b
e9
de
54
56
09
21
99
ea
d3
28
b2
10
09
bd
c2
c4
2f
63
ca
70
b9
8c
d8
bd
75
74
56
51
e5
e3
fc
50
9d
9f
b0
9c
6d
9a
d0
7c
29
53
74
ef
42
03
ca
7d
42
4a
6d
8b
57
c1
8e
ab
e4
9a
56
0f
1e
82
ae
86
cb
dc
5a
7f
5a
bc
1a
35
f0
54
81
48
f7
c4
f3
59
8f
d0
3e
c6
bc
57
39
ad
05
29
78
a0
bd
c3
d0
27
c0
f6
50
26
bb
5b
90
3c
93
0e
59
27
c1
5d
1c
54
f4
0e
c0
ec
39
f9
43
68
b9
b3
ee
ba
f2
6b
3b
87
73
cd
1f
97
db
93
87
0e
e1
ed
ca
bc
b1
08
24
f6
98
65
80
e0
1e
73
24
93
ef
b5
30
bc
00
e4
50
f7
23
e8
4f
c4
99
dd
c7
ea
e3
08
57
29
ba
2a
8d
b3
5f
1b
32
1d
97
28
54
2c
b6
aa
a5
dc
63
68
fb
c0
d8
57
44
7e
42
04
dd
ef
97
5f
16
55
e1
d5
41
f6
db
6d
ca
09
c9
0c
d1
24
e4
07
3b
ed
af
5b
13
7f
65
b4
ee
a2
68
72
aa
16
6d
8a
28
c6
73
bd
c4
ec
47
29
9e
03
92
ae
55
48
de
c1
8e
d1
e0
2e
74
86
27
8f
12
be
19
c9
23
80
8e
0e
00
e5
81
89
7d
8f
30
75
13
65
90
8d
05
53
ca
6e
8f
be
d1
5a
96
02
7f
2c
7c
9a
0b
9f
e6
36
b3
3d
c8
5e
b9
f5
43
aa
c2
48
22
f6
53
9c
1c
f0
ea
57
18
55
d5
f9
1a
0b
be
e2
3d
95
dd
ed
19
fa
be
d9
ad
9f
b7
3a
a3
34
f7
09
05
6f
73
e5
9c
02
b7
55
95
d8
15
68
07
bf
48
e4
69
c2
1a
50
64
d2
3b
99
87
cb
d9
25
ba
b3
0d
77
da
28
16
f5
bb
25
9d
8e
9e
7a
c2
d2
da
82
0d
0d
9c
39
25
53
e1
03
cc
5d
4c
fb
f2
99
7f
ae
ec
37
03
15
19
31
bc
fb
34
63
60
2b
f9
07
80
6e
fc
ec
6e
70
bf
ba
6f
a0
1d
86
56
6e
71
55
ae
b2
19
44
f7
19
f4
22
38
23
8b
a9
80
43
26
4f
bf
e2
b6
70
0d
fe
a2
26
67
18
b8
dc
9d
85
4c
a5
06
a6
3b
e3
da
30
a8
df
cc
5d
67
eb
d3
6c
42
65
e2
2e
64
cf
44
b0
71
5d
c2
8c
cd
b6
d0
71
8b
fb
75
42
0b
0b
7e
25
c6
12
2f
27
af
9e
ab
9e
f4
de
62
17
eb
12
e1
33
ae
6d
52
db
6d
51
54
10
ae
07
03
23
af
c3
19
ed
db
43
87
42
ab
69
c4
3c
6b
91
17
c3
b7
29
92
6c
f6
69
67
cd
72
0e
8d
6e
24
1d
6c
e5
ef
0c
7d
0a
3d
56
0e
1f
f0
f1
11
27
a5
8e
30
5b
8c
a9
88
1a
6f
01
4b
26
ce
9d
e9
ce
41
01
02
8f
7e
31
e9
f4
65
0a
cc
bc
9d
33
8b
c3
bd
98
c8
f2
46
0a
7f
c8
b1
14
32
f1
a0
31
0d
a0
58
df
72
56
35
14
09
7f
65
5d
0f
c7
98
62
a2
d8
a3
9d
4c
3c
5b
05
00
32
48
05
5b
f4
97
50
d2
1f
9c
bf
ce
40
da
93
0a
5b
2b
ea
79
5a
6c
73
12
40
35
5b
76
7a
9f
4d
78
90
b7
4c
aa
e4
92
6c
16
c9
42
03
b8
21
4b
82
d8
a9
cb
56
22
13
ca
89
a9
fe
eb
7b
59
13
0b
7e
9e
35
46
25
ee
f9
ea
1c
b5
5c
66
b2
10
7f
7c
a2
5e
09
06
9d
da
0d
65
45
5c
3f
7d
fe
cf
51
4e
31
5b
f0
3d
5d
20
e2
7a
00
fd
0d
0c
19
59
6b
87
b3
7b
ce
3d
d5
75
d3
dd
01
bd
db
ea
f2
66
48
58
44
b5
36
90
43
f9
d9
a9
a8
ee
1b
84
66
23
a0
0b
a2
b3
08
4f
f1
44
48
4f
97
57
3a
1a
7e
ce
5a
d8
16
df
e3
ba
4c
72
fc
fa
bc
c6
28
2a
0e
a7
b4
a9
e6
c7
1e
f5
66
da
ba
50
f6
f7
af
8e
da
ad
e3
99
15
c2
66
2e
99
38
10
57
10
73
8b
b4
bd
ee
60
72
58
ca
2b
39
a7
fa
97
da
34
92
35
e2
09
b0
e9
3d
1f
80
82
a1
51
a3
f4
b1
7a
64
91
e0
49
f3
47
75
4b
51
e5
95
b4
ec
5b
5a
9e
c3
36
b3
84
ee
77
a2
82
06
02
c2
af
74
9a
99
13
ea
22
95
40
3c
9b
f3
79
55
cb
42
79
e8
f3
1b
19
c4
fb
12
3e
75
e4
a8
ee
6a
55
66
a6
70
c3
dd
24
6f
49
de
27
da
7c
02
7d
99
92
ab
1c
50
19
b8
2f
fe
de
5f
cb
c2
bb
a7
d6
28
31
db
6c
2d
b5
1c
49
3a
a8
c5
d1
5d
07
8b
ae
8b
67
f2
f5
b4
04
e2
26
68
ca
10
d7
48
1c
cd
a0
87
88
95
6d
18
71
11
4f
7a
47
a0
12
d6
08
d3
89
12
11
84
1b
ab
9c
83
98
c3
8d
b2
39
d7
ec
e8
16
19
ba
b9
76
3c
67
ca
71
35
82
f9
f0
65
18
0e
8a
06
be
1c
ee
e1
aa
4d
33
64
40
8a
06
c6
86
37
40
53
6b
34
93
9b
94
06
57
cc
ad
2b
cd
01
d4
d3
b8
4b
af
f7
97
8c
4b
a3
26
8e
e1
dc
a1
b9
0b
1d
1b
46
ad
42
91
f1
6a
90
77
46
67
ba
73
3a
6f
d6
ef
cd
3d
84
44
7b
3e
b7
b0
ce
93
d1
a2
26
1b
b1
9b
34
67
c6
02
4a
97
99
3f
85
69
bc
41
b4
b9
3b
0f
91
62
88
6a
b9
b8
4d
3d
63
71
02
f2
bf
c7
7e
86
da
e9
7d
6e
9a
0f
4d
8f
90
e2
d1
85
db
18
0f
b0
ad
c5
a2
ed
e6
1d
46
5c
f6
80
eb
a9
c5
c8
47
40
c3
4e
ce
bd
a7
f4
84
06
ef
2a
25
70
17
71
b7
40
48
ce
f3
65
cf
6a
fd
6d
31
96
c4
af
b0
25
23
43
00
40
98
11
fd
eb
8e
fe
76
ed
ad
77
86
b6
c3
c3
d8
f1
63
89
85
b1
14
06
27
7f
ad
d6
b0
a8
11
68
df
5e
8f
87
cb
ba
cc
f1
57
37
93
c5
e0
c4
ea
65
f1
87
9e
2c
db
ad
d7
4e
89
54
56
ce
96
24
d0
9a
85
ae
68
0d
a7
df
eb
75
90
0c
10
78
74
6a
90
9b
71
f7
85
b9
95
fb
f8
d2
b4
9e
c9
cd
17
9e
d0
6b
73
92
bd
13
3f
fd
b0
a8
b5
77
c4
89
88
6f
a2
fd
f1
cd
f6
77
a6
a1
d2
84
e9
ae
5a
08
61
5c
6d
da
d5
65
a9
49
4f
3e
1a
e6
37
d5
56
da
b3
9e
f9
4d
7d
60
cc
28
05
44
9d
cc
f6
2a
a8
9f
f3
6c
ab
c6
f1
fe
6b
be
de
7f
6d
0c
d3
84
aa
66
40
9e
4a
77
7d
4b
6b
9d
43
b7
1b
f4
ca
c4
da
f8
d1
76
d6
4c
8d
7c
49
19
7d
d7
5b
1c
ea
19
79
f4
c4
e3
4a
9d
77
e4
4d
23
4b
96
31
9e
22
dc
1c
c5
57
5f
96
8c
3e
33
cd
38
53
7d
f4
fe
22
42
f3
4a
a3
c1
a7
61
ea
59
6c
63
fc
41
68
c2
73
c6
2f
60
6d
f3
28
a7
88
5f
13
22
58
b0
3d
0e
05
07
c8
67
73
a5
a6
31
bf
00
73
7b
bc
c1
a1
7c
82
ad
86
7f
90
67
2f
d1
78
bb
01
63
0e
03
7e
e3
03
3e
fb
34
09
1c
2d
d2
b6
3e
65
99
7b
45
68
cf
ce
39
64
32
e4
a1
e9
b0
35
64
02
46
ad
11
f4
66
86
71
a4
79
47
62
ea
c3
3c
55
98
f3
de
d6
01
4f
89
f6
eb
16
d4
23
ad
5f
4d
32
68
b6
b3
04
4d
ca
6a
e4
71
08
8a
01
95
f3
0b
1c
69
89
f9
fb
eb
9f
6c
bf
03
ac
b0
00
c7
41
9e
ba
7e
23
15
2d
1c
9d
29
8d
72
55
96
a6
31
35
f1
15
f4
37
aa
45
5a
ec
21
17
76
12
f3
4a
0e
19
37
3e
28
77
e3
2a
05
49
5f
73
76
ae
2c
6b
8b
8b
5b
5d
d2
ba
0a
86
0a
29
5e
1c
86
cf
ca
fa
28
0f
75
ca
3e
23
6d
09
20
7d
81
d7
be
52
6c
e2
93
8f
b4
bd
77
a2
be
6d
f6
b9
7c
64
4e
71
86
b0
e2
c6
a8
22
22
5e
6d
cc
82
4a
cc
a0
18
ed
9e
71
f4
55
37
57
6a
3c
77
4d
91
46
44
78
8c
ae
8b
ef
8b
b8
f1
cb
2a
59
20
83
db
85
87
3f
1f
a7
c1
8d
0f
84
7a
c2
82
28
0b
c1
db
80
3c
aa
05
02
d9
f8
ce
ed
71
42
4a
d7
c1
0b
c8
53
40
2c
cb
f6
1c
e4
9b
b1
0a
78
28
ed
7a
22
dc
9d
d5
b0
ca
0c
d1
60
87
aa
8d
7c
53
88
4f
83
14
f7
35
97
7e
75
f1
e0
bc
45
c0
98
bd
7d
07
5f
b3
ee
d6
a1
d7
26
3d
c4
7b
3a
94
8d
2f
a1
43
64
f7
a8
4f
8c
a8
98
04
09
38
4c
fb
32
49
30
bc
f4
cf
85
81
48
f8
79
3f
a0
4a
8e
c9
a7
ef
1c
b3
f8
7f
d1
92
64
ba
84
ac
22
6b
b4
25
2b
83
4f
ad
c1
30
ed
02
85
fa
1a
4b
0e
fc
ef
e6
2e
19
74
46
13
82
b2
45
34
28
0b
9b
43
8a
ca
9e
b2
60
d2
60
73
85
80
dc
ad
66
eb
c7
cc
46
f0
bf
30
77
d9
2d
12
ab
c4
02
94
64
c1
79
a5
b3
a7
d3
e8
77
c2
69
8e
21
e2
68
90
88
01
45
33
5c
e4
05
28
ad
31
95
e8
46
58
83
fb
bb
3d
9c
78
17
01
74
59
55
ce
f7
c6
44
93
88
cb
93
25
6d
83
d0
61
1b
9b
29
53
0d
6b
6f
db
8f
b2
6d
27
a1
7a
96
53
b9
35
6d
2f
4d
13
a7
e8
34
cc
97
25
0a
b8
a1
fe
95
ef
dc
9a
6b
60
e2
97
b3
77
96
af
f9
50
02
f6
99
01
89
95
11
a6
33
e1
e5
20
00
87
14
34
66
4e
61
d3
99
40
eb
2d
c6
97
d1
27
56
64
08
66
7d
b8
da
0c
d4
a7
b2
3b
89
c7
ed
2d
e6
53
0a
dd
cf
83
59
4e
84
76
d5
0f
7a
a8
5d
bf
7a
06
d6
f7
41
5c
00
bf
f1
00
d6
de
e0
41
42
fd
7e
26
d2
50
cb
77
63
56
1f
b0
f4
32
59
b2
a6
b6
2e
c6
b5
c5
f1
32
39
44
2d
87
fd
38
0b
52
3c
22
c7
13
81
23
09
a6
29
a1
2f
18
b4
2b
8f
6f
8b
c5
c9
8d
04
df
cd
ee
02
0d
d3
10
39
6a
06
4c
c9
c9
e2
c1
e0
de
98
9a
9f
9b
17
88
aa
65
13
48
03
ae
6d
72
7a
94
6e
1c
8c
cb
0a
6c
69
c2
ae
f0
0e
20
ef
4d
d5
3d
a0
01
e1
bc
49
19
bb
36
00
82
1d
17
81
54
1c
11
a6
0a
8f
b1
85
61
53
7d
70
87
79
b8
a2
70
42
8f
71
7d
fd
46
5b
fe
44
0f
8d
46
a2
a6
3f
86
91
ab
0f
09
62
0e
27
57
9c
02
7c
00
a5
87
8e
82
ba
f2
70
6e
81
27
78
59
61
41
67
8d
29
2c
af
72
a7
58
a9
a0
08
c2
57
ab
dd
10
47
69
a8
71
c9
05
12
bc
f3
88
1c
05
38
c1
68
1f
f8
32
9a
04
70
44
0f
e9
3d
7e
fe
9e
5e
e0
e2
5e
cb
35
79
01
c5
2d
50
4d
9a
9c
34
8e
e7
6c
d8
ce
74
ba
94
71
9e
f7
db
49
c6
e9
35
37
9f
62
a1
ee
c8
1d
b1
08
d8
da
03
c6
89
33
31
11
db
0e
61
f1
29
06
11
5d
63
36
8b
da
de
be
15
5b
ec
3e
83
9d
73
1d
9a
b7
b8
6f
fd
86
74
f3
3d
d8
f0
4f
95
23
81
b8
f0
1a
4b
51
66
79
08
4d
0e
e6
e8
e5
79
aa
c1
e9
01
e0
14
ac
46
68
18
08
eb
af
c2
19
14
2b
51
34
0d
25
26
0f
72
11
e5
da
09
b9
83
9a
19
a3
2e
c0
3c
cb
75
ad
1e
82
e8
70
db
02
c2
9e
e0
ae
f1
22
24
9a
43
5a
d7
d7
d5
29
f8
1a
0e
ea
8e
b8
1e
e2
88
c9
19
4a
ee
a7
d6
d7
7b
01
c2
be
97
ae
f9
ea
81
c2
00
86
73
a4
78
fe
f1
51
da
64
73
8c
f8
ad
7d
87
12
ad
d1
c8
25
f9
92
7b
2d
8b
0e
1b
10
05
ce
eb
92
e8
e9
00
27
57
28
c0
81
39
31
b6
e7
fc
03
f1
90
bb
5d
f2
75
31
08
7e
80
40
59
22
55
5f
d2
ee
ef
c2
7c
42
08
f2
37
bd
df
41
46
ec
4f
98
94
71
d6
9b
4a
45
98
7a
85
88
af
99
81
c7
55
27
6b
45
1b
16
60
7b
61
2a
83
40
a8
d1
c1
0b
2e
10
cc
1d
74
1e
d4
56
ed
92
4c
d8
01
08
bb
cc
57
7b
cc
bc
58
c4
71
4c
99
f4
63
05
6d
1b
bf
3d
ca
a4
77
e1
28
c6
1f
42
79
b8
ba
f4
7a
9b
8a
c2
1c
c2
b6
c8
a7
25
c1
97
e3
c3
28
c0
8c
4e
fb
2d
c2
ec
d8
77
89
4f
96
14
b1
49
43
f4
43
ea
15
43
50
bf
7f
5e
65
80
1d
49
94
1a
8d
ed
81
79
55
ab
a3
f4
be
a5
0b
a1
38
4e
02
c0
27
97
7f
ec
11
79
fc
6c
2c
b3
a1
97
67
01
92
d1
eb
cd
e4
a8
54
ad
e6
5d
ce
f7
10
4a
8f
ab
2b
a6
9b
72
62
1a
bb
b7
0a
41
a9
46
45
bf
20
c1
8e
3e
2f
6d
bf
28
51
5b
61
ab
88
5b
0f
33
5d
bc
df
19
89
46
14
df
af
cf
4f
7c
8c
90
c0
9b
c4
76
55
dc
e9
86
97
63
fe
a7
76
85
30
a4
11
1e
1d
2f
c9
5d
b9
45
91
70
7b
5e
5f
9a
7a
b3
3e
86
e5
80
4a
04
76
f4
44
ca
85
81
94
3f
d5
30
30
ec
52
b4
d0
bd
39
cb
d6
44
1c
fa
7d
de
81
28
c4
7b
0e
68
49
9d
eb
95
53
dd
79
88
0e
42
b0
a6
f6
34
a6
1d
91
a6
e2
52
0f
79
de
99
ef
61
21
66
f4
38
23
0d
20
f8
26
34
48
71
64
ef
41
d0
d1
8b
55
b6
bc
67
5f
f1
5e
6b
f8
fe
86
21
7c
38
89
cf
e1
8c
25
72
c9
4e
49
da
b2
89
3d
d3
75
f3
78
42
80
0c
15
6b
91
c4
60
be
d1
6d
77
6a
c1
af
ab
17
6c
b5
eb
6a
91
80
6f
3a
32
0f
f2
28
29
e8
cf
ac
af
0b
13
a3
e7
6b
be
9b
f7
5a
b2
16
f2
f8
ce
54
8d
8d
eb
c3
a3
b5
af
c8
2b
3d
10
ec
a8
2f
33
76
88
f8
cd
09
c3
46
2c
1a
36
61
0c
d8
4c
fe
2d
11
27
da
36
a7
04
8e
66
6a
7a
a1
d5
f8
0e
f2
66
e8
c5
83
0e
60
0f
f9
99
c0
71
06
07
27
16
7a
4e
a1
ab
29
a3
26
c2
32
ad
c3
9f
a9
cc
1e
74
79
99
6c
e8
05
fe
3b
bc
77
ee
e8
e6
fb
9d
ad
0b
7c
a3
8f
fd
fc
f0
27
73
4b
29
c5
d5
22
23
dd
2d
04
d5
0d
2c
9c
f0
48
8f
90
4f
09
f7
f3
27
7c
46
7a
45
a1
9a
ed
18
77
7e
91
8f
af
d9
8e
6f
38
7e
6f
ad
2d
7e
1a
78
de
5f
3f
76
52
6f
48
4d
95
7d
a2
f1
81
a2
fb
c7
70
fd
91
28
60
bf
73
ec
bc
68
33
38
c9
c0
ed
cc
22
18
62
00
08
3f
52
1b
d2
7f
6f
60
21
8d
4d
32
4b
f7
06
5d
62
e5
3c
26
e5
0c
ee
36
f9
d8
c6
76
ed
3f
08
f5
51
37
d5
50
bd
f9
9b
46
ad
ee
75
54
25
e2
e6
94
41
24
2b
5f
57
81
c8
04
44
ec
4d
ea
06
a1
bc
b5
cf
3b
25
7d
0b
a8
d1
52
44
27
82
a5
76
fc
ed
06
76
ab
cc
55
88
eb
8c
5d
d8
53
5f
90
d5
2a
7c
5b
4b
50
10
72
f2
df
30
5d
dd
ce
ea
62
3b
22
0f
4b
24
07
37
93
c8
f4
02
41
e1
ce
47
57
21
bf
48
50
42
14
c6
1c
4f
ef
cd
b9
51
05
69
4d
9a
2d
90
c9
0e
46
9c
12
b7
1c
ea
cb
ef
eb
3d
11
70
39
02
fd
e1
b2
ea
0c
f0
e0
82
87
59
41
64
31
ed
e2
03
29
7d
27
0d
5f
bd
93
cc
19
d9
52
c1
2a
82
7d
9e
9d
4d
d4
d2
67
9d
30
97
34
85
60
03
48
e4
18
a1
5f
7a
d7
ec
09
6f
38
1b
22
fd
02
3b
03
c3
5d
76
7f
83
10
05
06
67
66
8b
eb
47
22
97
5b
5f
be
ce
ce
14
ce
6b
e9
ab
25
ad
ab
99
4b
5e
51
36
d0
ab
a0
e2
e1
b2
31
7f
9e
2d
f8
bb
cc
82
0c
0b
09
01
bc
48
4d
ac
77
cf
a6
65
19
70
fc
f4
ed
e6
3e
25
65
6f
c5
b9
6b
a0
26
a7
5d
79
9f
e6
8c
a2
96
c4
0d
9c
49
0d
7d
02
58
7b
7a
eb
ec
b4
9e
7d
a4
6d
3b
6b
d7
89
03
ec
f3
9e
9a
2b
bb
15
39
c0
3a
3b
7a
49
ba
03
64
b1
8d
33
5a
ee
84
f6
d1
f0
79
81
0f
b5
6c
c7
1e
f0
da
b0
7d
3b
5e
1e
ec
6d
54
e4
19
4d
d4
02
cc
d9
68
b8
23
1c
b6
d3
cc
77
04
9d
e8
55
62
a6
29
6c
f9
16
68
13
e7
dd
1c
c8
87
4f
79
34
2a
cc
e0
86
e5
95
22
4c
84
5e
e3
df
d1
1a
17
61
38
7e
2c
ca
b2
1b
e8
09
d5
ef
d9
bf
cd
2b
73
2d
ca
4c
8c
83
1a
87
8d
3b
71
66
76
5f
ef
d0
a2
23
c2
ad
c0
cf
39
cd
cc
a3
c9
04
d8
15
6a
55
e5
de
e4
2f
05
9d
9a
bd
70
39
1c
2e
be
ce
cd
2f
24
a3
cb
a9
38
30
62
82
88
b8
66
3e
a2
af
ac
dd
b0
39
55
60
4d
cb
b6
0f
11
b3
80
70
a9
4c
85
56
35
1b
39
ae
25
03
e0
03
9a
cb
22
82
65
f9
38
57
92
3b
8d
67
63
9e
85
de
b1
f2
37
8a
e4
f1
04
11
8e
ad
c3
fd
e0
1b
04
67
f8
b4
bc
35
b1
03
97
51
33
5f
9f
ba
6c
d6
b1
75
d5
be
a3
18
83
eb
12
d7
1a
8a
50
a8
0e
fc
2e
b0
1a
70
b9
c3
10
7d
a3
a8
83
20
bd
90
c2
cd
69
a5
44
82
41
24
c5
29
da
4e
0e
63
f4
ad
69
49
36
7a
c4
54
9b
d8
fd
ed
49
fa
2b
99
83
07
fa
20
d9
fa
8a
4f
45
95
e5
6d
d5
d4
6b
74
34
34
a0
9e
1d
10
7e
d7
e4
98
46
46
67
fd
0a
c9
6a
8b
4b
09
de
c1
2b
b7
ea
d9
dc
c3
9a
84
e2
18
af
3c
6a
5d
95
3e
10
4c
0c
a8
c9
3e
00
5b
7c
38
01
b4
d9
cc
36
8a
28
16
eb
53
d8
8f
6c
4d
4b
59
7f
6d
47
4d
86
51
6e
2d
61
29
e2
14
7d
d5
d0
7d
48
bb
3c
a0
a8
83
31
82
71
26
2d
b9
5f
73
e5
4a
f2
09
2e
43
f0
f3
45
af
e0
02
f5
7c
9e
1a
d3
3b
7f
d1
c8
c0
a4
1b
7b
db
45
1f
d2
f5
28
f8
62
67
30
e2
ea
3d
c4
13
08
a4
b9
3d
00
4d
e8
c3
9d
37
4e
d3
33
ba
48
cf
4f
72
d9
b1
f1
ca
3d
14
bc
0e
0e
09
6b
2d
bb
fd
00
de
09
0f
35
57
08
5f
7c
12
74
ac
14
87
93
71
c2
a8
dc
5d
ce
40
a1
1d
fd
45
75
55
4c
92
0b
f4
e0
fa
89
ac
98
78
bc
6c
17
05
e9
2f
de
d0
dd
7c
e2
c8
84
4b
32
c6
8c
20
12
39
30
43
9c
19
6f
d6
86
99
21
b8
89
2d
c5
c5
76
14
8c
82
e5
5e
4a
de
63
55
42
c3
c3
51
4d
24
c2
5b
ca
b2
5f
4d
6b
ae
c1
55
dc
34
f0
1e
73
66
5a
d8
b2
fc
7b
80
1d
db
3e
15
6d
3e
29
73
3f
8d
17
80
8c
31
c5
d0
72
23
1f
98
37
76
20
08
cf
f7
b0
3f
ad
64
c3
47
79
e2
19
0c
3a
c0
9c
1c
7b
a5
60
b7
98
ba
14
7f
eb
24
68
c1
e3
b6
b1
f2
09
13
9b
0a
a7
26
e7
4f
fb
a8
dc
f5
3c
89
15
f3
b0
b5
87
9f
b5
12
45
fc
a2
21
7d
c5
06
8f
90
8a
52
c7
c8
d1
56
be
e2
41
98
9b
17
f6
fc
68
91
bc
20
cc
71
cb
eb
d4
35
fc
79
dd
73
ca
6e
be
0e
2c
ef
47
e9
34
91
36
e5
0f
02
9f
ab
34
cb
3f
20
c0
3e
c8
de
1a
3c
b8
d7
56
20
56
be
93
42
f3
c9
86
4c
6f
89
cc
8f
ed
a1
8b
6b
50
ac
86
2e
48
11
fe
75
4a
35
c4
38
c4
a8
14
3e
dc
61
78
5b
d5
bc
f8
9c
46
2b
3c
dc
81
5c
2f
5a
9a
58
49
a0
23
b1
9a
0a
44
0e
60
e0
e2
ba
85
c4
33
a0
b2
8a
e6
47
9f
92
1c
91
04
1f
72
3a
27
35
59
ef
d4
d2
4c
73
04
c8
ec
1e
60
7c
57
88
43
0a
67
1f
2a
6c
02
d9
11
5a
7b
be
70
b6
cd
ef
79
8e
55
4a
ef
0a
67
e1
15
7f
04
67
89
f3
76
2b
e1
1c
45
9c
d8
1e
d0
a0
62
cf
20
09
48
af
fe
28
09
99
28
a2
60
a6
60
27
0f
9f
ba
21
00
86
4f
3f
cd
95
a9
a8
87
15
9d
1b
40
98
0a
60
e1
51
b5
12
1b
0c
05
e1
93
da
c5
dd
95
2a
bd
d4
68
3e
3a
3a
df
45
28
4f
8b
2b
ec
7b
a0
e9
d1
21
25
02
44
7a
66
40
d8
4a
8f
ea
36
d0
73
51
ee
72
34
11
de
34
1c
19
44
ee
3b
ce
5a
ed
b9
9d
7a
f6
fb
a2
35
77
3c
b1
1e
21
5a
e8
ca
48
d8
23
90
41
4e
7f
52
45
d1
7b
df
d2
8f
c2
f2
ba
78
da
5e
31
c6
77
6d
86
7b
b6
09
4e
52
82
2d
dc
45
f3
5d
02
8d
f0
95
de
ad
60
d9
df
56
88
94
11
c0
06
66
2e
4b
4a
55
3d
22
b9
cc
ec
9f
c5
5d
38
67
60
91
89
fe
b9
e5
cd
37
91
61
b3
da
b1
ea
3b
13
bd
13
4c
d9
2a
1a
18
c3
e7
82
93
df
98
63
e4
86
8d
36
9c
4d
6a
15
8c
68
27
43
06
37
26
5e
f7
70
06
83
54
66
bb
1f
db
d5
fe
60
55
e1
44
66
ce
d9
3a
43
f0
a3
b1
21
a1
05
67
a0
f9
51
c7
a9
97
2c
22
1d
6d
c9
d4
b9
5e
42
33
3b
1b
c2
34
08
fd
0c
d8
dc
75
a3
80
40
83
f4
7a
27
80
54
70
b4
11
ee
47
4e
de
23
08
89
fc
19
0b
88
3c
64
31
da
69
af
d7
52
d8
5a
26
dd
93
06
13
44
0d
1e
47
fa
19
01
8b
5e
60
c8
40
a5
6e
7b
6a
31
df
a2
1f
80
42
9f
47
fe
31
b3
8a
02
b5
8e
67
fc
69
20
1b
4d
8b
63
37
2c
a7
49
0b
c3
2d
e1
1c
ee
11
71
d2
20
17
2b
ee
d2
04
8c
ee
85
c9
d0
5e
c9
86
0e
d0
6b
d0
d5
58
25
15
b9
b6
85
85
56
c7
72
fa
36
9a
dd
49
b8
fe
f1
35
5f
82
01
02
97
e4
77
a5
62
49
23
ea
53
8c
fe
b1
77
db
c4
e7
bc
09
1d
0c
99
dd
f6
b6
35
31
d0
f9
1b
a8
95
3d
5e
de
db
07
ab
47
9e
97
95
c0
53
5c
25
82
17
10
75
b5
dc
9e
d8
17
a0
8d
c0
fa
bb
76
6c
69
3a
cf
97
a9
f1
bb
26
02
71
01
aa
fd
78
f1
6b
00
14
02
4d
ee
07
f9
cd
f3
00
cf
e6
2a
5c
54
61
74
0e
ce
94
8b
93
03
bb
43
08
ac
4e
0d
b4
44
db
30
16
a9
b9
fb
64
68
83
25
9f
87
e6
cc
2e
93
5c
97
cb
df
b1
6e
59
86
cc
18
ed
07
96
27
69
4e
b4
14
17
0a
05
68
a4
0b
49
5b
08
be
41
32
fc
b9
6f
23
74
80
b9
4e
f2
9e
71
28
b4
19
8e
44
8f
f7
43
50
4a
72
c3
c1
aa
ca
ec
bd
3e
fa
8b
94
57
c8
7c
10
5e
1e
40
cd
e8
0e
2e
92
03
07
b2
23
91
08
4f
26
c5
77
f2
e1
3a
4c
ba
c2
ed
fa
0f
7b
c8
66
b5
ba
c6
85
ee
9b
b5
6c
44
c6
9f
74
3e
59
41
0e
c2
09
c7
fc
4a
db
3f
7b
f2
2c
3e
52
24
fa
2d
40
e9
9b
d9
75
e1
1b
e9
ba
10
c6
62
33
38
eb
85
96
56
16
c2
3c
22
59
d1
5e
a4
c8
55
05
7d
28
c5
ce
82
5f
3d
14
f9
e0
09
d2
69
23
a1
d9
bc
5e
fb
0d
93
55
99
80
0a
b0
ae
89
5a
3f
0a
0a
78
24
7e
d6
c2
eb
e3
be
20
5d
81
6e
2f
79
a7
08
74
36
4d
1b
64
cd
07
27
df
30
14
ad
91
d7
7e
39
c8
70
0f
ee
41
50
18
b2
c9
4a
55
09
3d
cf
df
1a
b8
83
32
68
a5
57
b0
78
af
f4
00
7c
58
28
7c
20
d2
f1
2c
b5
1f
b0
94
7f
10
8a
72
1c
3b
22
23
77
b6
46
73
3f
48
c4
f9
05
19
e2
80
b1
b8
2f
71
8b
d8
b9
93
0f
1f
25
46
91
f4
ec
ae
2a
88
4d
20
b5
e0
d8
39
e6
e2
d5
4f
ef
7a
01
50
6c
28
73
54
64
9a
74
b6
07
e2
82
ce
32
c1
6a
87
5f
02
ba
87
52
bf
f7
f0
24
f7
bd
9c
5a
4c
9e
f9
0e
4c
c0
41
8b
6e
05
3e
e0
b9
12
6a
f2
7a
52
fb
08
8e
14
9d
9c
45
45
8e
f2
23
01
b9
2f
12
90
bb
e1
fa
16
46
ec
18
c7
5c
80
31
da
3a
5b
e1
dd
e1
f0
b9
28
ad
4e
1a
ab
7c
93
2c
97
7b
45
b5
68
b0
6f
b5
6a
2e
aa
67
bb
8f
49
6a
13
66
76
98
b2
c7
20
54
6c
a8
56
57
88
47
aa
01
6a
b6
04
5b
78
2b
f8
90
bf
d0
82
f5
46
60
eb
b7
13
f4
3d
61
5e
02
41
e5
3d
4d
72
13
41
e6
a4
ea
cb
cf
df
13
cf
f2
ea
df
2f
26
16
df
82
63
7c
15
9f
54
9f
2f
c0
e7
0a
e9
55
bd
03
81
7a
a6
89
b1
34
07
53
9b
42
c9
61
68
9f
32
95
15
6a
53
8c
0b
67
4b
3b
e8
c6
b4
b8
f5
fe
19
2f
b5
86
91
46
db
17
34
a1
c6
e5
5e
68
53
88
f2
ed
97
94
17
b1
98
ef
8b
fa
11
2b
4e
c0
98
f2
0f
76
be
33
66
69
e5
a9
8f
dd
ab
47
bb
51
51
85
65
1d
ea
64
8f
58
4b
8a
30
02
4a
9a
13
fb
10
80
15
17
5d
48
c6
e9
9a
61
cf
69
7a
54
2d
ce
12
77
a8
76
1d
1c
37
6c
d5
26
ce
47
e4
46
56
be
9a
7f
6e
b4
0e
5a
95
18
b9
41
95
ef
c5
62
f1
0d
3f
35
4c
a1
bc
03
c7
b7
66
fe
bf
74
26
aa
27
d1
d4
16
82
d8
08
4b
79
e8
96
fa
9b
c0
17
82
85
e1
fc
ce
0a
22
b9
1d
a2
7a
6f
ca
56
d4
af
e0
b0
02
8b
bc
61
1f
c8
ed
29
7c
cc
3b
cc
69
eb
cd
99
61
f0
b4
63
c8
62
10
88
fa
d7
f0
48
7b
cb
ab
15
02
e9
03
aa
3c
89
fd
ee
fa
bf
d1
64
3d
b6
4a
df
27
64
3b
6b
cb
9f
47
08
1d
3a
62
dd
83
56
19
a0
ae
b2
c3
3d
d0
e9
b3
81
af
d6
4a
fa
8b
05
e8
19
e2
05
e4
99
33
da
14
02
6e
18
0a
11
4a
da
81
b7
88
34
2b
f6
4d
d1
48
ac
0d
5f
6e
9a
87
3f
cc
f3
e1
34
26
32
e0
38
3c
9c
cc
c1
c4
18
73
f7
1d
73
57
41
54
90
90
69
1e
e6
9c
1e
5a
97
7c
71
88
7c
b7
ba
05
6b
ea
8c
ad
8c
74
a6
2f
4f
76
6a
c2
e3
a8
24
91
ae
32
92
ca
a3
e8
f9
b8
48
83
b1
a2
40
d4
75
35
5e
4c
f0
81
b6
fa
fd
d0
11
35
2e
a4
67
00
10
e0
c5
97
7a
5c
be
c2
3c
d9
98
70
11
27
d6
00
55
a9
15
4e
06
76
22
6d
d8
98
2e
c2
08
75
34
d1
51
80
0c
4f
92
ed
88
88
c9
4b
01
a3
14
d1
78
45
7b
2b
7d
33
21
76
b0
bf
8c
da
e6
0b
27
07
3e
82
da
5c
d3
60
13
76
c9
a1
11
fc
f7
4e
65
ce
53
77
4a
93
5a
c9
3e
a3
74
23
8a
8d
97
bd
9c
96
21
6f
6e
80
cf
0c
b9
08
5a
3e
96
e9
af
da
d6
7c
16
1d
bd
8c
0a
ee
be
2e
ee
f0
6f
37
33
74
40
53
e5
bd
af
fb
54
a3
dc
01
84
4b
b9
d2
23
c5
4b
29
0d
76
cd
40
f5
d5
96
19
c1
75
62
9a
69
9d
f8
04
89
f8
5d
d9
41
ea
23
ae
68
2d
3c
b7
2f
e0
9c
11
4d
67
25
43
bf
55
b1
d3
8d
a0
95
dd
1e
c1
29
d2
6e
5f
09
f0
fb
a6
7b
77
d7
0a
08
49
f7
3c
cf
b4
50
60
9a
86
23
09
29
aa
6a
ec
84
1e
f3
d7
24
f1
c3
58
94
13
96
17
7c
18
10
be
7c
bc
81
f8
a2
68
54
e7
9e
8b
d8
5e
9d
03
69
45
0a
fd
5b
00
d6
04
d3
19
43
d5
7d
cf
a7
ac
e1
56
b8
db
18
47
ce
7a
1b
31
1f
13
49
3d
80
11
ef
24
6b
37
1d
03
07
56
b3
89
57
ee
4a
c6
d8
1f
64
b3
fd
22
64
b3
05
c8
2a
0f
ed
37
61
40
3d
14
91
9d
b5
4b
a9
e1
e9
ca
a9
3b
a0
d5
83
f8
0f
3a
6c
72
25
bc
c5
64
cc
8b
53
31
0f
a6
d9
d8
73
2c
aa
9a
32
11
06
d0
f2
06
c6
1d
73
c3
37
27
6c
05
00
d0
72
78
7f
be
91
a2
ba
5c
17
e6
ca
8e
24
d1
24
aa
37
2f
ac
10
ca
1a
bc
56
ca
62
25
8d
9a
46
35
10
ed
9c
cc
da
a5
b8
8a
84
40
e8
ab
15
c4
bc
5f
b7
e6
3c
fd
a3
76
1c
54
ed
1e
31
69
2d
01
ea
a8
f3
d2
8e
04
6a
67
6f
51
1e
f3
90
8d
02
c3
df
f4
e4
e1
3e
6b
5f
da
1a
ab
10
d7
e0
70
b5
24
0e
17
1d
c4
57
0e
7f
5d
27
c5
8e
27
55
6d
66
02
25
aa
48
ab
e5
73
cc
3d
a7
19
38
a3
ad
6b
02
fd
db
5f
72
8f
55
b2
e3
15
61
0a
84
b3
9f
de
86
6e
67
e3
39
ac
d8
44
d1
88
25
72
ca
74
62
81
e9
fe
c9
31
c4
92
32
aa
e4
7d
42
53
2d
85
f2
f4
ee
b4
a7
4f
4d
39
8d
3c
8e
68
56
ce
04
a0
56
28
61
36
2b
41
ae
b8
59
46
23
06
33
ad
e0
f1
a7
a4
6b
f6
27
df
94
72
3e
bc
4f
61
e7
2a
ab
ec
3d
a2
6b
15
34
97
b2
8c
7c
85
6b
14
82
14
24
9d
49
a5
09
a7
54
e9
98
83
cb
72
6f
a9
d2
5e
32
04
a6
d5
62
e1
7b
ee
00
e4
2b
82
37
c3
d0
88
c5
eb
65
2f
2b
42
7e
6a
51
05
8a
8d
03
9a
16
8b
3a
d3
e1
4f
fc
23
a5
79
2a
ab
b7
03
78
d5
b0
12
af
07
82
ed
94
fd
c0
51
4a
6c
a1
92
6f
e2
0b
e5
2d
9f
4c
fb
3b
fb
0f
8a
c5
57
e7
1a
17
d3
f7
6b
d7
8d
39
40
4d
17
b1
8f
bf
94
a1
e0
af
00
1e
2a
0c
52
a1
c1
1c
21
a5
1c
07
74
51
4e
44
fb
ba
43
47
77
7c
9a
72
65
f6
dd
87
18
f9
fe
ec
78
a6
92
b6
c8
49
39
c9
5c
b0
f1
27
06
c8
13
12
22
3e
7f
91
50
a2
48
d9
07
c7
9a
1a
8b
1c
1d
27
ba
91
a3
bf
48
62
60
f4
56
65
9b
75
f7
cb
c5
2e
e4
82
2d
56
56
26
84
a4
a2
89
f9
81
8f
58
87
15
67
ac
1a
f5
80
46
b2
7d
72
60
b0
df
2a
78
3a
99
50
ce
5a
3c
9b
12
72
f6
6a
1f
6d
6f
b4
50
6f
39
1f
81
af
a0
94
d9
62
d8
de
85
1e
ac
18
ad
65
96
6e
a4
27
48
a9
03
55
16
c8
90
69
78
ec
28
00
d9
ae
26
0a
5b
b8
64
b0
05
1b
60
89
40
6e
ee
02
36
f9
3e
f9
73
d3
1a
8d
3d
c6
26
e3
9b
42
d8
cc
9b
2c
be
5b
87
f0
f5
10
14
04
50
47
5a
9f
a2
7f
ef
61
e7
4f
82
2c
9e
f2
76
7c
a0
8d
66
98
c1
81
85
82
90
61
ee
46
e3
6a
06
74
62
62
47
46
9e
26
16
ee
31
9a
a3
78
3f
19
3c
76
28
14
af
0b
7e
da
61
8c
c1
fa
37
24
8f
97
3a
a2
ce
ea
36
86
2e
7b
a8
b8
14
ae
31
ed
a8
f4
2d
a9
4f
25
ce
e3
72
ef
1a
3c
15
9f
a4
99
d0
ef
3d
79
8f
22
bd
14
80
3a
f9
91
8e
00
e8
44
9f
7d
59
3a
ce
e1
de
f9
0b
d0
e9
c5
52
b0
b6
86
57
19
98
29
a1
98
b9
ac
74
ed
51
9b
57
0d
6e
84
56
2b
c5
15
e0
a2
13
72
28
76
08
ca
8e
6a
e9
33
86
c4
31
db
1a
00
b5
23
ce
0a
35
0c
5c
fb
e9
7b
1e
6d
5c
74
28
7d
73
35
14
d8
66
85
d8
a0
77
c5
9f
b8
48
c6
a5
65
68
30
6a
67
6f
9c
74
9f
4f
3a
1c
5a
68
67
00
33
4e
b9
88
6a
07
14
8c
d0
62
1c
a6
ce
01
cf
2a
28
fc
c1
21
d0
f6
91
40
84
a8
04
e8
b9
06
6a
ae
40
dd
9f
36
a3
5b
ca
4b
e4
93
6f
99
94
3f
d1
88
e0
d5
db
81
28
da
00
73
24
68
14
20
39
55
5a
f3
b9
5c
2d
61
5d
bd
4d
05
78
d3
30
1c
04
ab
71
e7
5f
7f
f3
27
9e
4b
23
96
04
91
20
0c
7a
6c
e4
0b
92
b6
5f
18
19
97
e9
aa
b8
4a
34
a7
a7
8a
f2
69
e6
bb
af
ad
7a
2d
f0
57
46
e4
73
d7
ef
4e
80
94
d6
23
a5
d5
41
6d
9e
49
fd
2a
b5
1d
51
de
57
0f
a1
46
aa
3d
8e
83
b9
40
50
1e
8e
16
6f
ef
34
2c
da
53
95
e3
1e
c1
7b
78
69
51
05
bf
db
65
d6
7e
56
b4
fc
e9
5e
4d
d9
ac
60
85
ac
d8
f9
77
49
d9
35
9c
3c
d4
a0
df
28
1f
dd
b3
08
48
42
64
c2
40
8c
60
ef
aa
a0
26
25
70
9a
4f
e6
08
28
15
14
85
fc
78
c5
b4
52
1e
8f
3c
da
1c
b0
64
fc
35
04
d5
15
66
ac
74
9f
a9
9d
0b
97
e0
28
d3
69
a1
38
c1
e9
e1
67
35
94
36
c5
ca
c4
6f
1e
bb
df
fa
ea
89
83
1c
4a
6b
63
d3
e4
27
84
ee
c6
9f
88
94
94
34
c4
17
9b
f1
eb
a7
be
d2
7a
8e
bb
b2
32
cb
3d
fb
62
6b
f5
07
b6
a2
65
e5
69
b8
fc
57
84
21
b6
69
ac
38
e9
72
c8
99
f7
a6
94
3f
6e
a7
6c
e4
3e
c4
92
bd
5b
06
50
df
fe
cb
35
51
70
50
ab
61
52
e7
6f
55
e2
36
89
1e
b9
a0
24
74
fc
4c
1b
e9
bb
47
4c
74
a6
71
0f
ad
1a
f2
e7
f5
21
c4
2f
1a
bf
b3
12
d5
06
22
f4
21
6e
83
9c
88
9c
76
56
f4
7b
f9
0e
fb
69
31
4a
b1
c5
98
3e
e3
d8
0a
d7
07
6c
85
99
dc
4e
3b
f0
68
06
0d
d8
7d
17
6d
51
96
