27
86
34
23
34
82
63
ee
6d
66
4d
a7
bc
9c
ef
2e
59
19
55
df
54
09
14
08
b7
a6
21
cb
34
b8
6d
ec
6e
9c
58
e5
36
68
82
05
48
fb
43
22
0e
80
c0
fe
d7
e4
05
8b
6b
88
79
96
d5
a0
58
b8
23
f2
84
b6
ed
12
8e
40
22
a1
14
ac
fd
47
4d
0f
be
a5
2e
80
03
57
dd
47
53
16
83
35
a7
9e
e9
4a
9f
dc
a2
f7
80
e4
b7
9d
0a
30
fe
9c
4e
a2
89
87
74
b6
45
48
7b
75
79
e4
4a
98
c9
2b
b5
e7
fa
7a
5f
d6
72
88
54
40
d6
d0
4c
76
07
9c
56
ac
59
c1
4b
12
1e
20
97
35
9a
65
45
78
74
f8
a8
73
28
66
7e
c7
e3
4d
af
37
1e
90
26
e3
36
e1
eb
4c
db
38
4a
21
a8
4d
68
54
b5
37
f7
53
e7
8f
4f
37
2f
41
c4
b8
c5
e3
d8
82
89
3e
cd
f5
6b
69
a2
c6
ce
6b
b4
84
cc
e1
bf
3f
6b
54
7b
ec
d1
08
16
1b
1d
df
39
e4
d2
8b
24
8b
2e
40
3c
3a
d5
2b
5a
66
a1
53
3f
18
12
a9
0c
40
f3
4e
fa
46
4e
79
26
a5
f4
45
c5
82
77
4b
4d
b8
82
5b
d9
73
34
12
dc
6f
31
09
cd
09
d4
c1
55
16
d4
3d
24
ad
ea
6a
3a
70
67
18
11
d3
87
ef
94
61
a7
d8
45
a8
e0
e2
8c
1a
6a
69
9f
6e
74
8b
bd
b3
22
20
32
29
04
2e
9a
4b
32
5e
5e
63
3f
03
2e
79
94
48
95
45
fb
b1
82
7d
3a
c9
9e
ac
04
e0
fc
b0
f1
9a
8d
5a
02
ed
df
d9
20
5c
24
2a
9f
20
41
71
44
90
d2
21
35
b6
da
9a
4e
2b
4c
d0
3f
33
d6
3c
6a
a3
a1
53
16
10
40
72
99
de
4e
58
f9
c8
95
6b
52
31
28
f3
f7
5f
1d
4e
5d
05
ca
dd
40
62
6c
d6
a0
d2
79
2d
2a
ad
47
c6
30
81
aa
1e
db
02
85
89
f4
b0
7f
9a
bd
95
b0
cb
3d
4e
82
87
87
94
64
5c
53
71
45
16
b7
c3
d9
c9
93
58
4e
56
06
1c
4d
f5
19
98
7a
89
39
f1
36
0c
59
4f
f8
7c
6d
c6
52
43
65
36
33
80
2e
83
02
c8
56
7e
c7
bf
d6
98
62
99
24
3b
c9
2d
73
1c
6c
e7
de
71
63
c7
48
a8
1b
45
40
c2
2b
8c
d9
78
37
b8
5f
90
84
e0
ac
8d
02
29
7e
24
4c
f3
f8
fb
03
b9
94
42
7c
c8
c5
3f
83
6b
f8
31
76
20
e5
b7
da
a2
ea
84
84
b8
54
0f
08
38
d5
fd
a7
bb
4e
1d
69
eb
39
26
bc
7d
94
15
43
f0
b4
9e
17
fd
21
f9
b9
4b
0c
0d
f5
14
54
27
0b
bd
eb
37
9e
90
e2
f4
06
aa
5a
b9
f2
cf
35
90
31
89
43
75
1c
a9
cc
d9
63
5b
e7
79
87
aa
20
78
d2
ac
61
bf
93
01
6a
48
47
11
09
a3
5b
7c
20
dd
da
c1
f3
e3
d6
5e
a3
fe
18
14
c4
b0
77
f1
4a
f6
74
95
f0
8e
b0
f8
2c
60
a5
0f
19
72
82
8d
cb
c8
e6
0a
c2
cb
13
d4
ec
8d
4a
2b
cc
99
cb
3a
44
ba
47
90
24
5f
f5
9f
d6
51
ee
35
13
82
b0
4c
b4
17
26
f1
32
64
84
4d
6a
6d
7d
e7
11
c5
a4
64
68
d9
66
d4
cc
ea
e7
b8
08
69
5c
ea
c5
30
b1
51
6c
e6
b5
53
64
a1
42
c1
b8
09
96
a9
e7
06
98
88
3f
f8
fc
3a
17
6c
17
e7
6b
21
75
7f
cf
30
65
e0
25
f8
73
01
59
2b
6d
9d
99
f8
a6
3f
61
81
17
f9
c5
81
c6
f2
7b
62
78
4c
79
57
93
4c
0d
d7
45
a8
28
11
ef
8b
9d
2e
f9
e9
9a
f4
2c
1c
e3
a1
2c
a0
a4
ee
83
4f
ee
80
f5
08
39
81
e6
02
61
6d
a2
c8
9f
13
13
42
fd
8c
0c
d0
78
59
77
fd
7f
0a
c1
0c
1f
66
d1
23
0d
20
55
ea
4b
42
e2
16
52
fd
40
05
a7
e4
37
8d
57
11
a9
90
ae
5d
07
14
43
83
68
f2
58
eb
0a
d1
6e
ce
8b
00
a6
66
6d
73
28
8a
e7
3d
88
5c
3e
84
20
30
1b
e3
c9
88
96
66
21
b2
f2
3f
98
83
58
82
2a
86
a0
86
54
fd
df
28
13
45
3d
32
bb
ce
94
e0
d9
00
8d
93
d4
06
3b
eb
98
6f
12
a1
09
a9
0c
1b
d9
02
46
b0
45
e9
6a
b6
77
42
a4
23
05
ca
de
bd
29
a2
1e
25
3a
30
dc
52
56
5f
5d
36
c4
26
b9
8d
95
fe
32
0d
b8
28
c1
b0
74
ea
e0
a0
81
f3
19
b3
d7
c2
d5
bf
ac
d1
3d
2c
de
39
3a
91
87
6e
a8
7a
21
35
c7
54
4b
ac
dd
2e
dd
02
56
9f
6d
d3
ad
ef
b4
a5
ad
7b
b7
b9
a1
59
9c
70
07
aa
5e
34
44
16
0a
4f
ba
69
6f
5f
24
f9
6e
c6
0f
b5
f9
1d
13
e7
88
32
3a
c7
66
7b
db
12
c2
24
bd
0c
44
0d
e4
d4
10
43
a5
7e
dd
d7
19
8c
8d
68
72
e2
74
15
02
13
06
8b
91
23
3b
2c
14
ae
99
56
55
42
07
da
55
28
81
23
48
4e
33
1a
09
1b
d9
92
bb
57
12
83
76
b8
ac
04
ad
65
54
5f
bd
25
8b
1b
01
25
ae
73
88
bf
7d
36
1c
b9
d4
d8
0c
f0
fc
90
8e
4d
26
31
61
54
bb
8d
14
05
64
ce
8a
4e
c7
5e
b3
68
54
52
6f
e4
51
9a
f5
a1
d3
95
a0
03
5b
0d
d1
0d
5d
3a
a2
45
56
9a
92
b4
ad
cc
3d
69
2f
36
91
2e
30
cc
05
bf
74
73
90
9e
6c
10
bf
e6
22
c4
de
4b
a5
42
18
f2
02
3c
1b
69
44
79
dc
cd
35
bc
f3
0b
39
72
68
a5
94
3f
7b
96
8a
40
e5
55
95
fc
c4
99
78
48
02
95
b0
be
14
77
14
af
1f
42
88
0d
f1
f0
f4
41
83
64
b3
bf
88
37
98
24
57
16
75
4f
52
00
34
ad
4b
c5
bb
80
77
f4
e7
ab
cc
98
ed
7a
14
35
84
87
ec
fb
33
88
31
84
31
ed
8b
43
c4
25
52
8a
e1
b4
0d
a3
e3
5a
52
2a
61
be
a5
2b
45
ae
5a
29
f4
07
01
3f
b1
54
bd
91
4e
fe
30
86
dd
44
c5
e3
d5
1e
66
e5
8d
bb
9f
cf
1f
79
51
92
81
14
4b
f5
43
cd
f3
8d
b8
26
4a
78
81
f3
8a
56
38
87
7f
76
66
07
3a
8b
7f
e1
cb
c1
7b
b9
10
e2
de
ac
e4
7f
2d
2f
9b
5f
c4
61
9a
7d
61
a6
af
ed
27
57
e3
a0
c0
40
34
4e
95
e9
a5
00
c7
96
b6
e6
53
aa
bf
1d
72
78
27
5b
46
58
bb
07
e7
27
33
47
7f
ee
d3
4f
d0
be
c2
90
00
17
7a
6f
00
5b
df
11
5c
7b
51
eb
0d
8f
ac
82
48
04
fd
a0
f7
98
b6
59
2f
d8
64
12
fe
15
d2
a4
af
32
02
05
0b
91
5b
7d
74
67
3b
ba
ee
fe
f8
f2
33
85
64
3a
6a
e0
10
55
80
1c
b9
3f
d5
9b
a1
50
b3
3a
1a
7f
ce
fc
cb
8f
4b
89
30
08
a9
92
96
47
bd
6a
7d
f8
d1
0d
9c
13
30
e3
a6
20
87
e4
38
38
8b
f9
60
e3
37
c4
b0
71
3a
10
27
5a
71
78
94
d0
9d
4b
94
a6
40
d3
6f
55
cb
42
eb
8f
ac
85
91
58
4f
e4
e6
37
8a
7b
83
95
40
5c
bb
98
80
b9
3d
ba
5c
f1
8e
46
aa
ab
26
4e
bd
9b
bf
74
11
20
ca
2b
e7
8a
3c
5a
96
98
9f
1f
fa
f1
93
89
13
99
ae
cb
bb
88
65
d9
2d
e2
c3
aa
0c
41
8e
ec
64
c9
20
28
62
f8
fc
e9
08
87
89
21
2d
12
f2
2d
59
fd
89
94
2d
23
82
6a
1b
a8
0e
9b
4b
10
79
cb
cc
17
ca
33
83
bc
e0
f0
cf
1d
26
06
e6
34
90
52
62
5f
8a
d4
34
43
df
76
fb
d3
bb
34
22
4c
2f
50
68
70
7a
54
b5
63
e3
d2
97
99
e5
f6
dc
83
bd
6f
a9
e1
1a
5e
53
5b
0f
60
7e
5f
42
5a
57
ba
15
a4
fc
7d
68
16
3b
e3
4c
dc
47
75
af
ef
4c
64
3b
fc
d8
5c
79
d6
b9
0d
d3
a8
1b
e3
37
dc
35
aa
47
29
6d
78
ed
d3
5e
33
b3
7e
e4
e8
5d
bc
a9
50
6d
2e
10
ef
8b
38
b1
44
9c
00
fa
43
4b
31
f4
1f
38
01
91
66
18
c0
42
bd
9b
a7
4a
b1
99
89
a1
28
de
47
c9
10
42
87
c3
58
79
7b
21
b4
e5
f4
32
8b
2c
0f
84
6a
7b
8c
9f
05
34
f6
34
d2
fa
5e
4d
80
ca
59
bd
d4
23
3a
37
56
4e
bc
74
9a
ae
5d
cd
32
f9
34
0e
03
0b
bf
64
01
1e
ce
8a
64
e7
39
83
7f
2a
9a
ea
f8
41
00
c3
9f
c6
52
80
1f
e0
cd
90
18
00
5a
2d
6f
cd
10
0d
34
dd
de
50
ba
7b
5a
0c
40
a9
6c
18
b1
92
b2
e0
e1
36
0d
f5
03
3d
9a
bb
8a
c7
8a
27
91
6a
6b
7e
06
b6
bf
d5
b9
68
8a
e5
37
a9
38
49
2b
55
6b
b2
cc
7d
74
16
ac
25
9a
ce
80
29
68
2d
8e
09
1b
88
86
09
c9
08
e4
94
a9
bd
bd
02
3d
f4
2e
f5
a5
f9
b1
ef
ab
10
d3
bf
56
02
ad
a0
46
96
43
70
4d
53
4b
3a
76
86
fb
59
26
25
a0
8e
ad
00
49
48
2b
b8
87
41
5c
1f
7d
72
f7
bb
93
f8
d7
27
48
02
d6
53
d1
a1
84
01
c2
ac
fd
3a
35
17
50
02
91
27
08
59
99
20
21
f1
0b
71
20
0c
5e
f1
d2
3a
88
f1
53
af
98
d1
32
b3
7f
09
77
00
a4
dd
fe
ca
34
36
51
7f
3f
b8
2c
c4
b4
04
92
c8
d2
ea
bc
0f
85
65
46
55
34
30
36
2b
23
47
de
e6
7c
8b
20
f9
cb
9e
c3
04
51
19
b2
4f
0e
25
10
f9
45
28
b3
09
33
8e
2f
09
58
f3
c3
b5
a4
3e
4e
91
b3
e1
fe
96
15
da
4f
81
6f
f6
e5
07
02
b2
de
0b
26
95
50
3d
01
eb
78
ee
5c
0f
19
28
6b
8b
02
24
c8
2c
b3
52
79
a1
ba
59
44
50
ba
9f
10
9d
aa
b6
71
77
e2
f6
8d
7b
57
e8
1a
34
86
54
68
93
56
60
6a
8d
ec
ba
4b
d9
8b
2f
7e
c2
79
96
2d
9f
c2
13
87
05
16
c1
b0
85
4b
00
b1
63
4f
f8
5b
52
a8
a1
b4
02
6e
16
c8
a9
74
b6
00
c1
a6
8b
25
9a
2f
5d
35
34
7f
eb
a6
0d
05
bb
99
db
64
23
f2
d0
91
3a
78
7e
b8
dc
4f
9f
db
14
bf
ee
7f
96
7a
1e
6f
c6
27
a5
95
0a
e2
c7
33
3c
23
14
67
c2
7a
84
cc
a6
57
43
6a
92
98
90
fc
37
ce
c0
48
72
ec
d7
0a
64
b8
00
ec
30
90
4f
fd
6d
04
a9
56
c1
0a
a5
e1
c9
6f
ae
50
a3
4b
4a
a0
6f
1c
ae
cc
74
35
cd
49
f0
6c
88
67
8f
ed
23
d5
ad
fa
a5
b5
d2
68
42
c9
a2
a5
57
31
1a
c5
d4
1a
f8
46
cc
57
a5
6d
73
96
e9
00
7f
69
61
59
b6
01
3c
6d
4a
28
ac
5b
86
97
47
a4
85
bb
a2
ea
62
7a
80
ac
a8
62
13
95
f4
c2
a0
c3
0a
f4
36
f9
36
f4
b2
b2
fe
db
fa
86
c0
03
76
e5
a2
78
c4
0b
78
35
05
d2
4d
80
02
b5
70
04
7c
9e
25
61
01
ef
2d
58
03
2f
f8
b3
76
00
be
6c
8b
30
f6
cb
a2
c8
dd
0d
5d
1a
a8
4d
6b
6a
7f
10
11
51
a1
4e
56
88
b5
b1
b8
c4
ac
46
24
ea
21
6d
e1
5c
4a
9e
94
5d
e9
d3
b5
42
4e
fc
ee
f4
8b
4a
fc
c8
08
75
3f
12
82
8c
7d
6c
b8
37
27
39
ec
2e
5e
ec
0d
fe
f5
62
14
10
ab
3a
de
ab
b0
f3
f6
22
8e
f5
73
dc
e7
c2
b6
0f
a5
61
19
db
ba
a8
64
cb
3a
5f
f4
e0
c9
a7
8a
8d
f1
fb
aa
db
98
8c
0f
07
2e
81
fa
02
fd
bc
01
b2
48
b2
b8
bc
f4
a0
c8
cd
e7
3d
d0
ba
4f
14
18
34
f7
21
d2
97
4e
33
ad
ad
ec
70
95
e9
fb
c0
58
9e
91
98
e7
db
ec
f7
be
12
42
8c
7c
b4
70
59
a3
7e
03
56
ca
57
ec
7f
70
69
d9
7f
f4
73
03
04
6c
90
bf
6c
a6
79
40
8f
45
34
cf
c0
06
ec
6e
3b
0a
39
ba
9f
9e
7c
01
0a
e6
6a
f9
56
53
f9
25
4e
67
c1
a8
a7
a5
b8
ce
e3
38
41
b8
72
6d
34
96
0c
8b
ea
8e
49
5a
40
59
de
74
42
94
d8
3e
70
b2
51
a7
08
a1
8e
d2
9c
9f
69
f8
da
6b
e2
fd
5e
85
32
64
b9
81
d7
fd
d7
29
ef
fc
02
49
7a
1e
6e
d3
42
73
f7
e1
8a
f1
19
58
cf
57
ea
5f
b1
99
18
29
e2
64
0f
c4
ca
7c
9e
1f
a5
a5
e0
ba
ac
dd
f5
68
8d
7c
f4
1e
76
25
f5
88
35
32
16
c5
b6
18
d0
d8
b2
97
21
e7
dc
31
70
78
e5
72
81
84
77
bf
38
58
40
06
5e
d3
e4
86
a6
9c
72
c6
f7
fc
d8
19
b1
25
23
b5
6a
14
42
53
88
d7
9d
1c
b7
24
7f
1f
ad
4f
68
95
3e
91
1f
e7
17
00
34
ec
ad
65
bb
f9
bd
3b
5b
6a
93
8e
22
20
d3
a6
bf
28
bd
93
73
08
95
01
1d
3c
a1
90
e6
8d
ce
99
98
50
4d
a3
f7
9c
36
1e
3b
4c
6c
dc
a3
10
d9
03
7b
44
9e
d9
0d
e2
5e
17
cc
c3
fb
0d
1f
c9
17
b0
55
cd
a9
0b
7c
b6
bb
bc
ea
33
04
0a
43
c7
3c
25
50
76
d2
33
0b
db
26
27
fa
13
a1
37
98
b1
b8
b7
53
e0
d7
2f
11
75
07
58
7f
81
9f
bf
f7
11
42
08
07
43
66
11
49
65
4b
4a
0c
84
11
fd
ea
ed
f6
8d
a5
be
55
5b
d5
64
7d
a9
6f
ab
68
e5
69
a0
a8
4f
49
65
84
96
a7
4d
c0
41
f1
ba
5c
0b
17
70
99
9d
90
d4
16
0a
3e
9d
1d
9b
d3
3f
28
7c
52
f7
b9
c5
8b
25
6b
5d
4c
88
62
ee
66
ac
90
db
49
29
44
31
8d
c5
b5
42
fd
35
0e
a4
d7
21
29
6f
1f
fe
64
aa
e5
0a
12
5d
0c
57
2d
b5
73
98
f6
48
2f
da
47
bc
3f
2e
fe
40
1f
f8
51
dd
c4
84
98
ad
af
68
70
9e
e8
91
9d
8b
8e
35
5e
2b
08
c6
d8
85
4c
7f
de
50
7a
4e
0f
78
f6
bd
99
1c
78
55
65
9f
f8
e2
08
74
97
81
ce
b5
3b
81
f6
2e
af
50
93
af
61
eb
29
25
10
88
91
8b
e1
a2
1d
81
90
76
12
8e
99
fe
b0
f0
b7
9d
f4
b2
91
14
bd
be
d3
0c
42
6d
00
a7
49
6f
3b
2a
b4
53
1a
7e
c4
6e
af
4b
8a
ab
4d
24
14
81
d2
78
4c
ea
60
3f
68
83
c4
b4
65
57
0d
e9
f7
3d
93
fc
3d
00
94
e3
75
ef
2d
e3
da
6e
7c
7d
89
d3
c8
77
27
e4
f9
ed
7d
17
5a
a3
b8
29
39
ef
92
fd
ee
f1
1a
e1
b3
c7
d6
78
49
97
f2
51
68
fd
5f
67
0e
e3
b6
f2
6a
0b
0e
a3
6b
1c
7c
e4
2b
0b
cc
8b
74
08
c3
de
09
80
5d
55
f4
fe
b0
d3
c6
f9
92
59
22
b3
23
b5
32
66
52
1f
d9
74
f1
a1
8f
40
12
42
a8
f5
f7
9e
e3
cb
ce
cd
73
a6
61
2d
13
20
74
96
ba
9a
aa
f5
35
24
50
6b
05
96
f6
72
6a
15
cf
95
33
67
e5
dc
62
fd
d7
95
cd
34
d8
7e
64
ce
a6
b1
dc
9d
aa
0d
e7
d6
e4
25
d1
63
1c
d6
b3
e3
46
74
7e
88
5c
d1
3e
5b
ca
a0
1f
44
16
07
25
ac
32
e4
92
02
85
15
0f
54
29
0e
20
33
61
88
7b
24
74
de
a0
7a
f1
0b
5e
2e
bc
13
46
e5
1c
49
2c
ae
87
f9
d8
6a
b5
0b
45
53
e2
1b
ee
c8
4e
28
1e
08
3c
cb
ad
c2
f7
52
63
43
b6
3f
e1
f2
02
bd
4f
d4
05
70
2a
68
9a
2c
69
7e
dc
96
fa
94
76
b7
30
10
51
1c
74
33
eb
52
78
45
ba
6b
c9
be
36
3a
bd
8b
68
05
d1
b2
95
73
e4
60
0c
69
17
32
61
f4
e3
66
a2
49
59
d4
71
be
d1
66
71
ac
4f
10
2e
02
66
47
6e
7f
63
8a
ef
44
8c
24
e6
86
a7
68
0e
25
0b
9d
72
62
0e
c1
12
6d
c6
54
3f
df
df
5e
72
7e
bd
b0
b3
3a
38
aa
2b
72
55
d6
fa
c0
1f
77
a7
6a
b7
d8
d4
79
b0
88
74
16
14
d8
a5
cf
0d
f8
32
c3
27
3b
a6
da
b5
9b
6d
72
3b
e9
e5
56
d1
ac
dd
3c
48
47
a3
8f
49
c5
68
45
9e
1d
c0
ca
64
18
b3
0b
64
f4
79
1e
34
19
9f
05
ae
0c
57
db
75
97
4e
c1
7f
ef
7c
78
a0
03
2e
fd
3c
59
57
68
3e
4b
89
1f
55
d4
dd
72
f2
15
43
12
bf
75
03
63
fe
98
35
18
c4
81
ed
72
eb
3e
21
3c
c4
79
d7
a8
e5
25
3a
cf
78
cd
ee
94
97
a2
c3
72
09
1c
c9
d6
ec
15
e4
de
d2
a5
0d
7a
bd
56
3a
d5
0e
99
f4
11
58
e2
03
ec
12
0a
cc
44
53
89
b8
98
c6
df
ad
19
11
50
9f
34
0e
62
bb
96
f7
3d
b1
60
1b
d7
16
32
1c
15
a6
8b
6e
4b
41
dc
95
ae
01
fd
32
d1
48
8c
35
b4
ed
d9
05
2b
db
fd
62
8b
36
b6
f1
00
c3
d1
43
c7
a8
05
f5
63
b3
45
02
21
59
ed
d4
95
59
06
41
dc
51
94
c9
22
18
d3
2f
95
52
c9
ab
75
eb
93
67
13
7e
23
6d
8b
46
a7
ce
5b
f4
d6
7d
24
bc
d8
9e
4a
39
71
52
f1
3f
1a
a3
04
3a
0c
24
b2
80
41
95
d0
78
b9
11
13
67
f4
6a
2e
31
93
07
65
e7
a4
b1
05
c7
88
ea
e6
1d
05
75
ec
10
77
07
36
5b
3b
8e
4e
f0
97
cd
12
a7
53
ec
70
1d
7e
9c
bd
c5
5d
18
12
ef
db
81
f8
3f
3d
28
8f
40
59
a1
e5
34
f6
d3
d8
30
7d
8f
43
8d
08
c1
7b
e8
4e
da
c1
90
2e
72
fe
09
ce
21
2e
df
18
bc
6a
e6
31
f3
fa
df
7c
ad
ed
6d
ea
55
23
2b
6f
4a
07
4a
f7
33
e6
b7
7c
d2
0e
9c
71
ae
5d
70
37
5a
a8
db
37
69
d3
a8
3d
9c
88
83
d7
f3
60
86
e6
f4
26
fd
32
c1
5b
96
d8
98
5b
c1
b3
70
96
b1
e5
62
32
c7
a0
dd
61
eb
11
27
e6
39
66
ca
2e
59
30
f7
a1
98
c0
f5
64
29
1b
05
f1
59
ee
8e
0f
01
95
64
21
44
dd
36
34
89
63
c1
41
65
98
e6
d3
27
ba
eb
ed
4e
94
89
fe
e0
d3
ad
4d
9c
4b
4b
d5
9d
c9
bb
ce
f5
ee
8a
32
36
0c
1f
82
45
e1
9c
14
f2
1f
01
af
ab
2e
56
a6
93
92
a7
a0
3b
2a
3b
9e
86
c6
0b
8c
5c
1e
5b
08
0a
1c
59
bc
97
a9
70
f7
c2
b6
e5
f4
2b
ae
18
51
5f
94
78
e0
28
21
f4
49
05
93
fc
be
18
e0
d2
00
94
a0
26
8f
94
9f
b3
f7
34
ba
c7
01
8a
bc
bc
71
ec
b2
de
e5
ae
1d
a7
22
a2
1e
7e
7a
33
6b
5b
4e
2a
ad
3f
55
93
e1
ec
d8
02
21
16
83
55
2c
a8
36
a4
72
d3
82
a6
76
a7
36
bf
f6
78
1b
c3
d2
7d
c8
db
60
83
e0
22
46
2c
c5
42
d8
be
e7
fd
ac
2a
d1
19
7f
58
76
78
11
d8
13
2b
c3
37
d7
94
7f
dd
6b
2f
20
fa
a6
85
c2
9b
df
8d
fe
e7
af
0a
09
c6
11
1d
03
0e
8b
0a
93
4a
3a
db
04
50
ea
bf
57
03
9a
25
80
b0
1f
1a
39
06
4e
1a
6d
2d
36
8b
8f
04
67
f6
fb
4f
ad
9d
bd
5f
32
4f
cf
0d
30
4e
08
77
7b
97
2a
e0
48
19
35
36
c4
3e
82
68
81
ed
8a
f5
87
eb
44
90
01
85
72
ef
fb
89
e4
82
1c
55
d0
20
d2
c4
45
2d
5b
73
13
d1
3b
b8
af
c3
f0
71
00
f3
6e
65
03
4b
ef
ce
17
de
27
84
62
67
91
66
c0
75
b8
20
ed
3c
8b
6f
49
3b
b4
04
9f
0b
3c
a6
65
fe
05
5c
3f
9a
19
f5
c1
10
0b
60
bc
f3
66
f2
db
7b
34
42
2f
e6
47
5f
b7
57
43
7d
c7
25
5c
41
34
48
7c
76
88
b7
ef
23
35
66
4c
1f
19
cb
40
af
99
fd
bc
5b
6c
b8
ce
3a
5c
8d
09
d6
24
f7
51
c3
09
9f
d3
0f
f0
b8
a0
77
51
de
dc
5d
66
36
bf
38
d4
f4
36
00
12
41
d6
4d
2b
ca
07
f8
3d
2e
11
74
b5
4c
d6
ac
04
45
eb
39
a7
a6
30
ed
4c
1b
e8
bf
49
ee
af
e0
5a
21
73
34
26
53
89
79
83
8a
e6
9d
e0
a2
bb
82
df
3b
bc
fd
b9
d5
c8
59
e4
e1
f7
e3
b7
9f
cb
91
0b
c4
f3
2b
97
42
d3
43
30
42
5b
40
f2
f8
99
2b
ab
bc
b0
27
e5
aa
90
07
d3
24
28
bb
9f
9e
54
24
79
9f
7d
87
92
f6
56
92
02
a3
f9
31
ae
d1
fc
35
d7
80
ec
3b
ba
e8
73
ce
b4
1e
ec
8a
77
49
5a
47
8a
33
da
f8
a4
81
6a
22
63
78
e0
79
c0
90
43
7b
17
2d
93
0c
06
dc
e4
b2
18
f5
1e
c7
df
b7
8c
3b
a2
27
ed
f1
7e
6c
79
2a
65
26
04
5a
36
35
4c
d7
41
26
fb
54
a0
a6
77
c3
5d
4c
81
bf
4a
4b
1d
aa
51
56
8a
32
1a
6e
ef
a4
4b
f0
43
62
8b
54
2a
17
9c
6f
a5
14
8d
0e
79
23
93
e4
a2
cc
23
ae
d7
06
4f
f3
91
84
25
47
14
18
d8
43
82
fa
d0
85
3f
f3
c6
9c
40
a2
2f
97
df
e0
3b
bb
c0
a3
9d
7d
c3
de
a0
9d
bf
c5
09
54
14
03
83
fa
2f
34
e9
8f
3b
82
4f
bc
9d
16
ea
68
e8
d6
2a
16
1f
9c
05
05
09
1d
12
b9
fb
59
a7
d5
2f
90
73
65
a4
ef
8e
21
0e
60
8c
c0
6e
7c
22
f8
48
46
31
66
67
51
9a
4d
32
36
7a
98
d5
d1
01
85
ab
b3
c2
a8
95
c7
d3
88
ba
58
f9
59
48
5f
be
8a
20
e8
cd
76
e2
6d
30
71
fb
24
57
41
38
53
fb
96
53
72
c6
b7
cd
a3
f4
46
82
fc
29
db
a0
9d
b6
2a
fa
67
50
6a
82
1e
c4
2c
8b
77
fd
b1
12
07
76
4b
c1
f6
f3
1d
00
03
fc
97
4b
f7
b8
47
93
d3
91
2b
c8
21
78
d1
78
65
b2
6f
08
24
20
0d
ec
8f
e4
d3
43
8f
55
60
6a
ee
1b
51
0b
69
b1
7f
c8
88
4e
9e
3b
c6
de
c2
28
bf
d3
5d
c1
81
a9
eb
06
06
fe
d3
32
6b
a5
68
62
f6
ed
f1
b8
6c
91
97
4f
8a
da
68
6d
8d
8b
1e
5c
80
1f
9c
6f
be
65
05
3b
f0
23
df
ec
e6
fb
62
6c
54
d1
1f
53
45
ad
16
31
eb
f8
3a
84
64
d9
75
12
98
b0
38
0e
4a
7b
a8
54
d1
e2
54
03
ea
9f
5a
7a
86
c2
97
6c
ed
05
af
ac
b3
65
f1
ec
20
0a
71
95
4b
8d
95
15
50
8e
e0
70
ba
5f
51
53
6e
01
24
ee
11
7a
0d
31
9b
81
08
e0
bf
1b
d7
ba
77
bd
b9
87
03
55
17
e5
ec
f2
10
59
50
cd
4c
15
d1
fd
45
ed
d5
8c
38
0e
3c
3d
72
98
e5
91
02
80
55
8b
fb
68
e8
a4
bd
c2
15
ce
36
2b
5c
92
aa
0d
ac
32
6b
28
cf
32
89
fe
f0
c9
bb
d3
df
7c
23
40
78
10
7f
24
0f
37
f1
3c
d6
12
62
45
a4
58
dc
49
91
fb
8e
2c
2d
71
fb
35
1c
22
9b
b2
4c
50
82
d4
cf
85
11
a8
5d
e7
67
de
e2
0f
39
4a
fc
4e
50
e5
ee
11
56
f9
3c
d5
7b
58
56
f0
36
b9
91
79
30
09
16
b8
fc
80
64
88
f1
8b
2a
cc
31
34
c2
03
0d
e5
ca
88
06
52
06
b9
cd
a9
28
5b
54
78
cf
4f
2c
94
78
95
95
96
ad
88
26
51
e0
4c
6d
60
10
68
89
f6
e4
8d
0a
95
5b
95
b6
0b
51
14
89
08
09
ea
26
53
fe
8b
de
b2
14
af
62
f3
0d
b4
b4
d4
cc
d3
6b
77
2f
de
a8
4b
72
a3
1b
23
e4
ce
49
83
41
e8
db
76
c3
6d
83
36
8b
1b
45
80
54
2e
bb
32
35
0d
05
2c
0e
00
9e
02
70
68
19
72
52
18
4e
d4
8f
86
ac
d1
b4
06
5a
f0
e7
0a
b7
48
2a
a9
f5
66
bd
53
4a
d5
28
e7
92
79
26
ee
53
56
55
7a
7c
29
89
c0
91
13
a6
fe
2e
0c
0d
6b
97
ac
0c
36
eb
b2
67
a9
b2
4a
f3
59
b7
6f
94
31
4c
f4
8a
9d
05
65
56
57
f8
89
d8
7f
da
a9
6a
07
34
60
89
01
03
05
79
15
b1
f4
0b
f6
f5
58
38
4d
54
ec
db
44
d5
9f
a8
de
e0
6b
4d
d5
07
4e
a2
0b
0e
35
5f
7e
c6
57
97
9e
82
a7
c0
1e
58
c5
b2
c4
60
d9
7c
dd
c7
d7
c9
1e
b2
ac
85
b6
3e
11
21
51
50
35
23
57
11
0d
11
c3
5a
64
dd
6f
ee
25
83
04
24
b6
90
08
0e
9c
f1
b2
70
b8
be
55
89
a1
ec
0e
97
95
f7
47
e8
8a
8d
59
59
08
4e
16
4e
fd
43
65
2a
97
a5
f9
b9
8c
88
9e
17
f3
13
7c
7a
91
51
66
26
d1
3b
f3
3a
0d
5c
a3
72
e0
ed
bb
65
17
ae
6d
50
2f
ee
e7
9b
72
07
ea
5e
fb
b1
62
63
21
6a
c4
b6
51
10
02
a9
52
e8
97
f2
c9
89
6d
94
c3
83
cf
84
2c
33
c8
3e
fe
3f
98
4d
56
42
bc
10
3f
c6
58
19
39
0c
e0
50
1e
81
58
7e
b6
6f
7b
f6
4f
a4
8c
eb
6a
8c
8f
b3
08
20
e4
84
40
bc
54
58
db
0d
6d
d8
d4
b4
b3
cc
d9
c8
25
32
2a
0c
15
26
89
c6
e1
e5
00
7a
ae
25
5a
f6
9a
e3
c3
b9
cf
b7
65
48
9f
ca
38
ca
cc
1e
91
c3
4e
bb
8e
85
a9
06
27
e9
5d
85
b1
ed
45
1c
16
e5
42
af
7e
21
d1
f8
34
07
4e
0e
78
48
4d
97
4d
33
b0
ba
47
1a
f4
a7
44
da
58
a6
cf
71
7b
01
23
54
a9
f3
a8
58
ba
c3
67
9f
80
14
6a
02
4d
71
54
8e
17
c6
1a
65
a7
a9
08
ed
44
94
0f
21
e1
32
65
e8
4f
ed
12
61
70
36
e2
17
d7
52
c5
78
15
a0
a2
79
48
6e
dd
60
e4
dd
45
fd
e6
35
29
fa
94
12
e4
70
27
1f
7f
55
7f
93
53
11
c9
6e
70
d7
47
f1
35
dd
cd
76
65
8b
36
db
e9
97
48
02
03
95
f7
d5
a9
b5
b4
b7
44
3a
41
07
7b
72
fd
25
f0
96
30
3d
e4
6d
ad
b8
d3
2b
b7
30
c9
40
3c
33
a9
d2
8d
f5
da
e9
27
cd
fa
1d
9a
5c
c6
84
87
00
c0
0e
e2
9c
e3
42
20
91
ca
f9
c4
52
8c
fd
3b
ba
6a
41
b9
41
7b
bf
0e
ec
20
29
7a
9d
4c
b1
5b
8b
de
9a
b3
63
05
49
8f
9f
20
c3
f1
3d
ab
bf
ec
42
60
2c
18
9f
03
ad
4e
45
91
9c
49
b1
e2
8d
09
8f
7f
f3
8d
dd
83
73
f1
ae
45
ed
cb
54
49
80
7d
2f
a6
cc
a8
77
10
1b
3d
8f
45
a9
ee
30
f1
88
67
ba
88
12
86
87
d7
0a
0e
6d
3f
e7
0e
cf
a3
5c
22
1d
d0
45
23
f8
41
06
80
fa
d6
c4
2c
44
1a
5e
b7
12
0b
fa
23
d6
09
7e
a3
a4
90
f5
a5
00
c3
2a
a7
13
f2
04
4b
91
74
dc
49
c5
3c
3d
30
fa
ca
ee
c1
a8
54
d7
af
ec
20
19
ab
d3
1c
ac
d0
56
f8
b4
be
70
33
af
52
d3
96
9c
8a
f0
d7
d2
24
0c
e3
04
9c
11
23
c3
3b
05
dd
28
53
8f
bd
78
5d
96
10
4d
0d
04
62
a5
f4
9c
17
72
17
71
f5
ce
ab
71
8a
6d
c1
2c
a7
1a
7b
ef
01
a9
9b
c4
94
5d
1c
51
20
b2
c5
ec
ae
df
63
67
ef
24
40
41
5e
83
c4
e2
c6
98
ab
c3
9d
94
d5
65
28
f7
b8
52
0c
91
b8
04
11
14
e6
50
47
f2
6c
b6
5a
78
f2
1f
0e
46
84
c0
e3
e0
eb
38
49
59
b4
19
c5
17
10
29
54
a6
21
0d
57
e9
d7
10
bd
af
3c
fd
72
3e
eb
fd
56
87
0c
0f
25
ed
36
8e
69
03
58
67
2f
be
9c
e3
15
e4
8e
79
68
d3
f4
d1
2d
21
fa
25
4c
c7
b4
11
e3
83
69
69
0b
75
c0
5a
af
e0
32
7b
67
fe
ad
1a
e8
45
63
95
6a
0d
fd
ce
98
f6
85
b0
f9
c7
66
fc
dd
31
c2
1b
dd
c2
41
19
6e
6d
ce
43
8a
45
bf
1c
8b
3c
e3
b6
55
5b
24
d1
f2
41
36
c3
b8
2e
e2
0e
80
cf
8a
9b
fa
e6
5c
32
50
f1
b1
12
e5
33
c1
15
18
aa
45
34
0d
f4
39
05
9a
e4
eb
9d
17
cb
3c
55
b2
6a
fb
16
b7
bb
01
49
62
c2
8b
f6
5e
13
57
3b
07
6e
24
85
95
bc
99
d7
81
41
9f
6a
18
bf
57
d6
33
f6
ae
78
88
86
54
82
12
97
82
b6
bc
f8
5c
36
6d
8f
ac
64
f5
63
32
d9
0a
46
fa
74
6d
0a
0a
71
63
62
43
f8
7f
99
0b
1b
97
14
b7
a0
3a
bd
be
35
bb
7e
3c
8a
e2
7e
ca
b3
78
e6
02
08
ef
83
fa
58
92
9a
b3
3d
57
14
6e
9d
32
e5
70
4a
4f
5d
0f
25
a7
a3
99
03
d2
02
77
8e
4e
25
c5
a7
cd
af
05
bc
54
ac
77
53
6f
fb
ad
79
25
0c
00
09
0d
8e
7b
c6
75
07
23
aa
ae
1a
95
33
b5
56
84
fa
80
8f
11
89
11
76
dc
99
fd
a3
37
9c
57
65
0d
7e
fa
eb
ce
bd
06
cb
43
99
21
53
93
ac
dc
2b
41
02
19
86
a9
43
91
31
f1
2d
8d
91
bd
dd
bc
11
fb
15
f9
18
87
66
77
e7
7f
a0
5b
d5
ab
8e
8a
b0
35
82
aa
eb
0b
7a
93
45
29
9c
37
08
11
a4
bd
c3
ac
e3
9a
60
ec
63
e6
16
3c
7e
39
cf
77
c1
a9
72
a9
58
82
e2
e3
6b
64
ed
14
6f
e3
14
83
1f
13
3e
58
e6
6c
72
48
e0
28
95
0f
00
75
cb
27
c1
19
a2
82
0e
c4
46
50
f5
3c
80
d6
e7
92
18
24
53
e5
1c
c3
2e
2d
a6
2f
cf
8c
af
60
b8
de
83
88
a5
d9
46
67
3f
1b
4c
31
fa
32
67
44
26
60
86
7e
7d
9f
03
d8
33
70
00
91
b9
99
de
bb
06
a6
6f
61
e0
8a
a4
4a
88
c1
9d
be
c2
bf
00
c2
bd
93
5c
5c
11
95
d1
5f
38
91
39
ef
01
5d
e0
8e
e9
a7
61
ce
6f
52
1e
86
3c
41
43
e3
2c
10
30
ab
41
a1
eb
1e
ac
6f
1e
cc
ad
cf
d2
fc
33
27
67
a5
3d
9b
89
07
fd
22
2b
56
fc
95
3e
08
4f
9f
c7
c5
b3
96
cc
2a
53
7b
4b
34
66
8d
11
28
99
c0
f0
54
a9
81
d0
78
36
5c
e5
d7
6f
50
ed
00
0c
ce
ae
64
5c
26
99
6d
db
9a
81
86
57
45
10
cf
96
7b
3a
ad
5b
f9
6f
0a
e0
49
54
26
c3
4e
1b
e6
52
58
e8
9a
d9
ba
f5
8f
b7
d4
3c
2d
e8
0c
f7
b5
1d
5f
56
b1
20
00
09
99
25
6c
07
43
f2
1d
02
9f
dd
38
46
6d
85
36
67
e5
25
77
a2
4c
f1
da
4b
10
54
38
c0
7e
a3
13
a1
95
fc
c9
92
7e
04
bb
c1
22
22
3e
23
56
a2
0d
93
8b
a8
db
45
89
e8
f0
80
0b
cd
d1
ed
9c
3a
bf
3b
86
43
ba
9f
0b
f1
8f
63
35
5f
3e
61
8a
9f
5c
8e
de
d6
59
e1
e1
6c
37
3f
e0
2f
6c
16
a4
de
f7
93
d6
db
a8
c5
98
2f
f8
7a
e9
c5
ba
23
72
46
e9
c2
88
0e
20
f3
34
11
38
d4
57
f4
7c
9c
01
a5
03
2a
d0
a0
2c
9c
81
1b
6d
0a
db
8e
0e
9e
c2
16
fd
39
9b
8a
c6
7e
f3
44
c4
e6
e3
9a
38
0b
a9
56
db
50
64
a0
1d
98
c2
04
03
a5
b8
19
b1
81
a4
9d
1b
a9
e8
4c
06
fc
39
fc
24
6d
98
f4
42
0c
3a
1a
9f
a1
0d
6e
09
4c
e5
d1
d1
bc
47
51
ea
97
09
21
9d
60
37
0b
fb
89
46
c8
a4
ed
05
41
c6
bb
c1
a2
c5
dd
08
bf
60
d7
37
af
a7
ce
3b
50
86
18
0f
c6
66
5f
d2
a6
ab
84
72
92
2e
60
c8
de
be
dd
f8
ec
20
ca
81
c1
ab
90
07
cf
59
eb
f4
b9
a2
a1
5a
f5
57
fe
54
0e
0d
6d
33
10
8f
f7
88
58
3d
39
2e
6d
c7
5b
dc
40
22
3a
79
03
eb
0a
9f
2e
e1
18
c8
06
dc
84
8e
dc
c7
5a
37
7d
6b
95
e0
a9
a6
2a
f0
9d
4b
2e
0d
2e
fc
3c
ee
b9
a3
c5
7b
f3
29
04
c5
c0
d1
85
07
76
5b
be
34
14
63
19
45
ef
3d
5c
dd
8a
da
96
81
09
69
8e
2d
77
bd
27
bb
eb
69
d6
12
a5
bf
46
df
a5
5f
e9
dc
ae
d9
6c
f9
c2
9d
63
ac
e7
d9
cc
41
a4
1c
d5
15
bc
05
51
71
2e
37
5d
63
12
2b
59
bd
c3
e5
5e
d9
76
5e
97
40
51
00
2e
f1
c9
10
37
95
e4
91
0e
54
54
16
37
50
c4
c0
6c
07
ed
c9
83
c1
db
6e
af
25
5e
89
50
c8
63
cd
6f
8b
95
62
f3
75
75
cd
91
d2
99
89
3e
f1
2b
ad
9a
19
07
e9
e4
1f
bd
66
c9
7f
db
20
9e
10
52
d1
a0
8a
90
e8
84
5a
1c
4d
ed
d8
22
f4
b9
e1
8d
93
b7
0e
0c
e1
b4
83
ec
f4
f1
74
da
4b
9a
18
0f
3f
c4
a9
11
ca
05
01
cb
02
92
b8
28
e0
5c
45
40
12
ec
e3
0d
49
f5
54
9e
00
f4
36
54
9c
10
e6
f2
6d
33
a8
de
ef
29
07
a8
57
a8
9a
af
04
f4
a5
e8
56
6b
78
74
fa
97
fe
b4
36
c8
87
1b
bb
31
85
af
0b
8d
b5
77
e8
a9
c2
56
96
f7
bd
2c
01
46
35
88
39
d9
5c
c4
02
24
db
fc
d3
cf
d2
4c
0d
1a
6f
89
54
28
e7
45
c6
08
6f
c3
3a
91
e2
3c
81
9b
27
e2
37
9c
f3
99
a1
d5
de
74
88
bb
c0
c8
7c
12
65
45
d1
dc
de
cf
b8
fe
4c
8f
8b
98
e5
c8
5e
8f
90
6b
f4
b0
7d
9b
b9
e5
36
98
11
14
8a
24
4c
65
24
87
73
f4
e9
fc
d7
28
b0
fc
0a
ae
db
b3
69
f4
78
83
59
58
c5
05
ee
08
2c
29
30
a1
f3
93
1d
ca
92
13
d9
53
e5
40
c8
e0
7e
39
c7
44
06
66
31
b6
23
79
67
f6
d5
aa
90
a6
e0
10
14
e6
fc
b1
46
48
d9
03
6b
d1
0c
55
fa
d1
3d
a7
c1
5f
7e
a9
45
95
10
55
91
50
a3
18
a1
2c
76
95
25
18
4f
fa
5c
d6
38
88
93
49
13
07
2f
56
ca
a9
09
68
02
3a
e7
0d
70
9b
ad
da
72
10
4e
07
13
64
0c
3d
7b
79
a4
fb
63
e6
48
95
fb
fa
d7
9e
77
ae
00
d7
7e
85
9e
9f
e4
00
65
8b
c1
85
90
83
bd
48
5c
67
f9
23
ec
41
c8
99
c7
8f
19
19
3d
5a
09
f6
54
7b
8f
c3
bb
67
81
c9
a4
d5
3e
fa
96
8b
d0
6d
2f
b8
e2
0d
1a
df
4b
0d
c6
af
34
7b
d0
e7
26
4b
fe
1d
cd
07
47
66
24
f0
2b
1b
22
ee
3d
f5
89
e8
86
b8
c9
7f
bb
33
bb
e8
8f
a5
f9
1c
9d
e8
7b
21
ec
a8
24
17
31
2b
f6
79
ec
61
f1
6a
c2
aa
80
d2
85
f4
4d
ee
6f
cc
23
bd
c1
f4
59
5a
b5
88
2a
46
da
f4
bb
98
59
49
49
80
aa
cb
cc
2e
b7
26
cd
21
31
f9
ad
d0
4a
ca
e5
65
cb
b4
4a
9c
15
fd
bb
a0
cd
86
1b
7c
c4
08
6b
2d
df
b8
51
cc
6d
d4
b9
03
e0
d7
8a
33
15
03
d5
1a
7b
24
f7
9f
38
d2
78
af
4e
19
b2
2d
e0
c8
52
ae
81
0d
2d
ba
c6
bb
60
1a
00
c3
3b
8e
12
63
53
c8
98
eb
27
58
b2
20
18
17
91
9a
d4
53
16
cb
79
b5
4c
19
bf
ed
e8
e3
03
91
e8
5d
5e
88
2f
76
cf
15
91
81
94
a0
ca
b7
d9
ba
fc
03
f2
b7
f8
aa
3c
2a
2b
8f
17
51
78
38
9b
f9
74
f3
34
9a
e4
32
f6
c0
35
e8
fa
97
7b
dc
eb
2c
11
d3
2e
b6
17
72
35
6a
96
6d
88
65
12
2f
f5
82
1b
3d
ea
62
2c
59
cd
38
02
e6
3b
c8
5c
07
94
2e
d4
06
29
68
5d
51
41
1a
da
b9
aa
30
ee
6d
1c
95
77
63
9c
a3
c0
f4
75
2c
e8
7b
3d
21
24
cc
ba
09
43
44
e5
de
70
45
80
fd
c0
a5
b8
ae
ca
20
e1
de
7c
ba
63
9b
05
eb
39
97
e1
22
da
e6
99
18
69
40
32
ca
83
3a
1f
62
b6
67
ba
f2
28
81
df
e9
75
77
2b
f7
37
8f
46
18
97
37
03
9e
37
65
74
b2
c8
87
0e
8d
32
cd
8a
28
e5
9e
1a
3a
76
8f
d9
d5
f1
02
ac
2d
69
70
d8
9d
05
70
d0
7c
fc
ec
05
fe
26
f1
74
02
6e
91
2a
e0
3a
39
bf
2b
1a
a7
20
5a
10
e2
f9
c8
07
41
74
d4
73
f0
82
08
31
47
21
06
13
93
a6
6b
0a
50
67
03
ab
9b
0b
cc
d5
39
5e
a1
af
52
6a
24
33
20
77
9d
67
91
7c
6c
20
ca
7c
0a
14
b4
66
17
86
68
cf
95
57
72
e6
1d
54
4e
11
76
db
82
07
1c
18
6d
87
7e
5f
7a
5c
60
c0
17
b0
d0
1a
52
26
6a
2a
e0
26
23
66
93
e0
a5
34
08
15
9e
22
fe
82
9c
6f
ae
6f
f5
b4
ae
f1
08
82
0c
b5
9e
18
3b
88
b7
4a
a4
a6
d2
6e
8b
82
fa
4f
c6
fc
e7
95
17
6e
92
7f
c1
eb
b3
43
c0
bc
0d
cd
a1
e0
54
5d
85
f8
8a
94
14
13
d0
20
4e
bf
13
fe
f3
af
01
90
3a
66
31
0d
58
32
24
97
50
07
17
92
5c
db
24
2d
c5
d2
ed
a5
05
55
fd
3b
91
b7
7e
cb
e0
f0
7c
36
88
58
05
ad
b1
4a
9a
c6
2f
9c
c8
a3
fc
86
2e
d0
5b
6f
6d
0b
85
9d
45
8c
68
0b
64
62
72
1e
08
56
e2
3b
af
ed
69
2d
80
a5
f8
1e
2b
ef
6d
9d
05
90
7e
54
a4
d3
be
76
8b
df
35
ed
e3
8f
8c
0a
95
c0
9a
40
01
ea
0b
c2
71
38
dc
7f
d9
e4
f8
52
42
cd
36
d6
94
20
f7
15
db
27
9c
06
19
88
4f
84
5a
57
f5
88
16
7d
ae
f8
f7
01
78
5b
ee
4e
16
10
4c
f3
14
24
c6
aa
51
c6
f0
72
ed
5f
ea
82
07
3e
98
3d
ca
28
a2
9b
cb
4e
04
b9
d5
fe
da
06
73
58
e3
76
46
55
ad
79
b3
4e
49
0d
81
da
af
0f
c1
bf
46
a8
07
e1
ce
e3
42
f1
f7
fc
3f
83
80
68
95
f1
b1
08
46
60
a2
7e
8c
58
b2
5d
03
e8
46
99
ab
44
ac
4a
4e
62
02
75
96
73
2b
25
f1
0d
69
33
66
6a
09
8e
36
58
82
a7
a5
3e
be
b7
1a
93
94
83
06
ee
36
ac
80
ba
e3
ab
33
8f
8d
73
61
b0
62
89
e8
05
54
57
42
f2
44
71
71
ef
24
0e
dd
7a
a8
af
55
5e
91
28
a5
3a
dc
0f
10
2a
9e
ba
ee
d5
40
68
89
ab
d3
18
e7
7a
b9
7d
b8
9f
4b
6d
37
c4
c4
15
2f
0d
d8
5f
8d
0f
0d
e7
75
2d
ea
c6
56
5c
79
33
3f
43
73
9c
7b
9f
1b
59
4e
bb
0d
2f
47
dd
52
af
e3
02
a2
a3
31
4f
30
08
47
1d
ac
7e
ab
d1
fa
29
47
e0
ac
20
8c
d1
8c
4c
ab
9b
4d
c0
f4
6e
41
2b
3d
ec
fd
70
bb
1c
2c
c4
af
95
c4
15
56
be
0b
1a
d7
45
2a
7d
d0
24
e7
6d
02
08
3c
ad
74
5d
76
ca
5a
6b
89
1d
bc
b7
5d
64
c1
72
1a
b5
18
c4
81
b4
27
ee
ba
70
32
36
e8
36
fe
cd
e0
40
b0
1f
35
e4
45
41
07
12
58
da
83
91
b2
70
43
1d
d1
79
5f
b6
63
fa
b4
85
86
3e
a9
b9
22
b7
cf
d6
be
f5
dc
cf
af
36
ed
4c
e0
c9
31
64
c8
c5
4b
8a
83
67
9f
47
80
01
63
01
6f
fe
f8
43
e0
3d
2c
13
c5
b8
0f
2e
c1
d1
e1
e0
ea
a2
45
ce
76
c7
ce
2b
e8
8e
a5
98
f3
11
1d
dd
a4
99
bb
de
db
cc
23
35
e2
9b
f4
2c
81
60
57
79
3b
9e
d7
54
02
9b
8d
5e
ac
96
9e
1e
31
9e
a5
0f
5b
d7
48
7b
19
ca
07
f6
2a
c0
5d
77
75
48
bd
19
0a
57
2a
ea
ad
e4
56
35
fa
2d
aa
8a
97
d1
4d
f6
58
b5
f4
53
81
08
d0
e3
de
d5
c0
71
31
1d
d5
aa
e4
41
58
70
b7
23
05
84
24
84
6d
34
22
92
15
c9
14
63
65
c8
73
27
98
2d
d1
3c
cd
da
86
8d
2e
10
b6
a0
fb
dd
d5
4d
61
e0
c5
aa
e6
94
43
8c
b1
e5
a7
6a
f3
41
99
13
fc
15
e3
8b
e8
88
13
b7
1b
70
69
19
e1
ba
19
8e
89
21
2f
c7
64
1b
25
fa
82
9e
a9
19
7b
2c
ab
85
10
98
f1
ba
e3
45
0f
45
af
05
fb
de
56
e6
49
26
dc
40
6a
b0
53
47
2b
ea
96
e4
8e
a2
d1
35
7e
05
e5
74
04
ac
bb
fa
5e
a7
5d
0a
93
49
d7
15
03
58
c1
b9
95
22
13
e7
02
bf
7e
70
73
93
b6
82
a7
91
5b
be
3b
8b
1e
49
e2
89
97
42
06
f7
58
2b
ba
bf
c2
6c
ef
7c
5b
38
2d
6a
af
d7
a0
58
7e
60
58
14
0c
d8
71
82
fb
9c
92
9a
c4
65
51
ce
dd
86
76
29
a2
be
ef
b0
34
fa
4a
21
75
1e
8e
98
ad
85
28
6e
59
96
98
85
f8
f0
63
a5
a9
bf
51
6e
3a
00
30
0f
a5
a0
98
fe
e9
cb
56
a7
a6
da
54
01
69
4b
b3
58
43
79
57
de
0a
d6
0f
8b
76
4d
c6
be
22
89
3b
9e
f0
18
b4
3f
2f
3c
3f
29
54
53
5e
49
98
14
03
bb
67
7f
2c
00
1c
04
ba
d3
03
c0
e6
1b
da
0b
cd
a4
28
c8
a5
e7
04
9a
db
07
a6
64
c6
ca
70
19
9e
3f
a3
73
5f
95
f4
df
05
71
84
f5
21
5c
f9
d1
44
f2
92
46
eb
42
87
03
05
ac
3c
49
31
60
98
6c
bf
66
af
d9
21
cb
47
f5
43
41
59
9a
d4
1c
22
95
18
3e
ab
80
b9
3c
f7
06
9d
d4
c6
f7
d5
bf
d2
06
82
0c
cf
ac
81
46
e9
0b
7e
91
21
a7
5d
1a
3b
2b
be
63
7b
44
ac
ed
02
ae
c5
79
3d
ad
34
35
12
90
a8
d0
5a
f9
70
b8
a7
f1
78
5a
32
1a
9d
99
d8
67
79
e6
75
c1
73
ae
f7
bf
43
11
33
c1
54
0d
c5
ca
9c
62
55
99
a1
83
32
b9
12
68
32
c3
42
41
c0
54
7a
fb
f5
e7
99
25
70
20
3a
c3
fd
ad
db
13
44
47
e1
07
12
d4
55
99
94
ec
7f
cd
96
6c
47
48
e9
b9
c5
dc
05
b7
54
bf
f9
f5
3a
b0
d5
52
42
86
29
4f
f9
64
bb
e9
f6
68
2e
c6
48
c7
32
da
a3
41
d1
0b
a7
87
46
99
40
2e
e8
59
b1
4d
84
17
d8
bb
95
9b
dd
a5
29
c0
05
65
df
a2
01
bc
a4
17
83
f5
99
18
ec
50
54
ce
84
2a
54
58
97
25
f6
db
5b
fc
6b
48
0d
77
06
26
c7
f9
13
f7
db
6e
22
74
6a
65
b9
4d
da
47
b7
c3
4c
86
55
0c
49
30
a7
0b
55
21
cb
6c
67
fb
66
1c
38
7d
9b
23
20
4a
4f
97
78
15
ef
f5
57
89
6f
7d
d9
13
51
4d
d6
4d
ba
47
63
92
bf
d5
62
ed
97
0f
b6
d5
41
32
6f
cf
61
61
d9
b7
6a
9a
48
4b
d1
7d
2d
25
92
61
44
1d
f3
e5
ba
6d
49
5e
3b
11
b3
74
6b
26
9b
d4
eb
88
37
2c
e6
85
36
10
e8
1e
7c
7b
3c
d0
a5
88
e3
71
75
79
f2
c5
4c
81
58
56
70
80
03
46
66
50
58
33
47
49
47
63
af
c3
f3
8a
2d
2b
c4
66
2c
e0
f7
67
77
4d
63
c7
a6
4f
1b
9c
0d
df
b0
67
4e
b2
d1
8d
0d
1b
88
5d
06
20
19
c0
ab
59
03
ca
d0
37
c8
03
0e
80
3f
5a
95
0d
22
62
fa
6e
99
61
4e
0e
05
23
b9
11
de
f2
07
3a
58
65
96
ba
4f
16
2e
36
38
ae
26
3d
6d
36
96
21
4a
c3
76
a5
d1
79
ac
4e
50
e9
75
e2
a4
7e
7b
a9
51
6e
7d
de
de
36
10
2a
a6
bb
84
00
92
6d
48
76
34
49
20
c6
08
70
08
ae
c1
b1
1e
36
c6
e8
e7
9c
f8
41
40
40
99
ad
28
f7
a5
11
3a
a3
86
bc
56
c8
93
89
17
f1
7b
40
ab
61
70
af
d8
19
6d
25
1c
6b
21
d4
cd
b3
13
a3
1a
9a
9f
60
f3
fd
2b
f7
df
73
1f
a9
c8
43
d3
34
f3
cc
0c
18
38
70
75
d9
a7
a2
01
47
06
ec
19
82
41
07
ed
1b
45
13
06
4c
7c
17
9f
9b
3f
83
67
d7
17
c3
aa
77
e6
55
21
04
c3
59
a7
67
bf
01
0d
d9
b6
66
5a
b6
20
21
89
9b
dd
a9
c6
2e
58
2a
ca
79
2a
d0
93
3e
73
6e
04
b8
31
65
cf
94
a1
87
cd
f8
56
52
56
92
61
ce
90
a8
7c
7b
e0
31
3f
58
1f
52
14
3e
09
f5
7b
d8
51
a8
21
52
c5
b0
57
59
a6
78
43
a4
ef
a0
f7
c4
0c
b1
b8
4b
53
81
3c
9b
d5
a1
4e
3e
fa
63
7a
78
e1
d0
b1
a8
20
46
7f
be
c6
8f
c8
2c
7e
91
a0
0a
69
79
79
36
7d
fd
51
8a
2a
aa
3a
a0
05
e1
a9
a0
d0
de
43
69
7e
b6
6b
d9
97
1a
08
7d
ac
64
65
eb
c6
22
5f
c2
12
d8
9e
fb
ef
3e
6e
2d
91
84
ce
ba
04
d1
ba
5c
fc
a6
6a
c8
54
f3
bd
e0
3f
b5
b2
5d
5f
dd
5d
08
fa
a5
16
1b
8f
1f
fc
fb
11
8a
71
63
8b
ac
59
0a
cc
c3
6e
a1
9b
27
d4
e2
54
38
bc
e4
5d
08
2a
25
7c
dc
8c
db
8e
ad
f1
44
29
8f
83
a2
97
fe
b3
00
d6
31
65
e7
c0
94
ca
cb
e9
c8
35
e9
80
14
6b
4c
a8
cb
8d
6f
5e
97
9a
3b
fd
29
58
11
4e
a0
58
a3
3e
c6
10
60
ca
43
77
bc
1b
bf
5c
3c
3a
07
4b
c9
11
e7
00
f3
f3
d3
c2
09
9b
6e
fc
5a
da
7e
2a
eb
0e
f4
4e
04
4d
ef
a4
22
3b
c6
13
5b
23
c5
dd
50
19
d6
89
e9
33
cc
ba
18
f2
49
af
c2
ac
c6
bb
a7
12
7f
16
75
85
ed
2c
b1
cc
cb
bb
8f
2f
1a
a2
42
f2
8a
10
bc
39
a6
c5
8d
de
f1
3e
46
2a
cb
4e
07
e9
6f
de
ef
4f
5b
de
4c
c1
8c
c1
8a
39
97
ef
fc
59
07
76
98
b9
73
34
9e
b4
ce
51
ef
2e
a1
0b
b7
a0
ae
aa
6f
cb
5d
43
77
8b
3a
3c
94
b4
b1
bc
4b
22
87
22
95
9a
b9
b3
b9
cd
e3
9b
d3
dd
9d
52
d9
ee
85
08
41
3f
3c
74
6b
2c
34
bd
e9
78
13
52
4a
48
0f
1a
93
79
51
b6
3e
5a
82
eb
e3
7c
69
12
4d
5f
98
d3
9c
4e
42
ae
dd
08
a1
ea
1a
5f
f8
8c
2f
36
84
c0
2a
14
51
4c
b8
59
f6
a4
b0
9b
b2
fb
a9
80
d9
df
c4
88
ec
a3
60
4f
90
e9
08
4d
da
bf
63
6a
87
1f
ca
b7
84
e4
fc
ed
a0
06
e4
9d
16
36
92
bf
e8
95
da
1f
54
7b
d6
c0
9a
b1
40
0b
2f
88
05
df
3e
21
0e
6c
2c
bc
e2
9f
1f
e5
3e
5d
d0
2c
01
12
91
b6
27
8d
46
70
2a
73
5a
19
f3
c8
59
4e
c3
8e
6a
af
59
be
65
f1
42
bc
ad
c9
01
35
18
de
f7
3c
0f
23
10
db
ef
d8
3d
e0
c4
f0
48
92
ec
4f
7d
a3
6b
5e
c6
54
e1
76
d0
98
de
b8
d0
eb
50
f2
10
f5
df
31
72
62
f1
3f
db
ba
27
cc
9d
27
ea
b2
6d
dc
4f
f0
18
fe
27
4b
24
6d
fc
da
d6
3d
32
5e
e1
fd
61
a7
f5
14
9d
4c
f7
f7
72
c9
df
68
a3
93
92
d6
b7
ed
b6
e0
42
d6
14
ef
6d
4c
05
5a
7a
ad
a5
20
9e
a7
8d
85
e3
c7
2d
9e
4a
34
9e
c1
ea
44
f7
18
87
a3
c7
06
8c
6c
69
7e
c8
3f
fb
b7
ae
eb
b7
7e
54
b9
b9
ba
8c
60
9e
bf
a2
c8
80
1b
78
ab
16
8b
2e
0d
a0
84
9d
7f
15
fd
1d
ba
21
e7
39
d3
ab
9c
de
9c
b3
aa
7f
f8
25
51
bf
73
fd
c5
11
1c
7f
6c
b2
9a
e1
15
e1
93
82
e3
d5
cd
52
09
14
28
4b
ae
c2
b6
a4
01
0c
79
35
c7
d1
f9
e4
94
9f
24
40
23
bc
8f
b4
16
e2
eb
45
ef
d0
0f
63
29
4a
e3
9c
21
89
24
73
70
6a
ae
57
1d
6e
c9
5c
e3
0a
d3
d2
3c
41
25
c0
25
db
bd
8a
6a
1d
11
ab
4e
8a
8d
29
c5
68
e5
16
e7
d8
15
87
ef
81
30
4e
0d
bc
4a
92
99
c1
36
26
06
74
65
d4
af
90
a0
58
14
e5
ab
2a
de
8e
ac
72
0c
8f
7d
4a
ea
fe
5f
d8
bc
17
08
93
62
a4
be
a8
5a
df
b9
1e
78
0d
a3
90
30
ab
d7
b4
6c
cb
0f
7b
af
42
44
67
e3
eb
6b
92
db
2d
48
38
8f
fb
8d
87
d6
69
26
3a
26
5e
35
66
2f
1c
a4
9f
6e
79
32
c1
7f
74
d4
00
b7
ab
23
51
39
10
cf
d0
79
14
62
1b
9b
44
6d
5f
8b
37
e5
aa
a5
c8
e3
8b
8d
b1
20
6c
ee
25
3b
b7
18
cc
dd
0e
98
69
83
f2
91
81
f8
49
13
49
11
13
4d
be
f2
34
08
ee
1c
52
73
16
dd
e0
f0
22
b5
3d
92
f4
80
b5
45
d3
e0
49
29
05
1b
e2
e6
27
34
5a
c6
cb
92
fd
56
7b
dd
e9
c7
b6
15
78
27
5d
78
b5
84
2d
a8
f4
1f
bb
cf
0d
25
8b
e7
ec
74
7b
46
a4
eb
f2
b6
59
28
62
9e
2a
f2
56
a2
87
32
df
b0
9e
8c
a0
9a
c4
22
55
e8
d3
95
bf
61
41
f9
86
45
f1
85
ac
b6
8a
de
0b
f6
60
26
39
1f
c2
68
e0
10
7b
d3
a8
b2
ea
6b
5f
b4
7b
ed
12
80
dc
00
37
b8
93
a1
dc
6d
0b
94
3c
15
52
84
d8
3a
31
e2
0a
b5
d4
88
98
aa
4a
e2
1a
f4
42
46
11
e6
65
98
5d
8d
47
d0
6d
cf
fb
84
68
39
da
c5
8a
0c
c2
bb
e5
5b
73
a8
4c
d7
5f
5e
a3
f4
0d
2b
12
86
cf
ed
7e
24
49
e7
ba
e2
08
60
fb
af
b4
98
f9
f9
b0
2c
7e
c5
5b
8e
c0
b5
33
28
e4
28
f6
a9
4a
9a
58
a9
34
78
15
2d
f1
40
a5
19
76
b1
e8
1c
d7
ca
0e
28
ae
59
e5
e4
31
bf
e5
3a
d0
c1
db
5e
65
fb
d5
c6
24
b7
a2
02
8e
5d
2c
1c
fd
f1
d3
2c
9d
52
13
b9
d1
c5
88
10
10
bc
06
76
4d
8e
d7
08
f5
26
d6
00
3d
e7
6a
fc
1b
06
a3
27
df
e0
6f
b2
e7
9e
2c
c5
59
73
06
46
8d
2a
40
67
32
35
61
30
0a
0f
e2
c3
34
3a
8c
ac
4d
1b
d3
0e
d7
50
07
13
b3
80
a9
46
ce
4f
c9
d4
2f
e7
a2
0c
58
f1
86
c1
94
b8
17
dc
95
08
17
8f
71
d5
ed
31
89
c3
7c
88
99
23
b2
dd
be
4a
80
51
c1
dd
1d
2a
5f
c4
e5
8d
e5
ce
89
9f
a1
c4
81
72
c6
51
15
71
aa
6b
38
dd
56
36
21
60
82
53
dc
1d
50
9e
65
27
1c
9a
f3
09
a2
4a
02
7a
37
96
04
bc
58
08
7a
47
68
53
01
ca
fb
68
c3
ba
ad
97
4b
fd
c8
1d
31
99
ad
fe
e7
af
f6
34
7e
4b
76
de
65
8e
d0
0e
fe
ce
5b
cf
8c
04
4c
43
ef
f0
52
d1
b6
58
bf
cc
c6
5c
71
80
66
5a
cb
7f
17
99
f1
3b
a0
81
f9
ee
1a
d2
f2
02
1c
13
87
e8
67
55
c5
d0
f9
52
96
65
9c
5d
41
1d
25
98
d6
6e
92
76
54
9c
04
e3
34
a5
92
b4
19
71
29
43
e0
6f
38
d6
7d
c5
86
5a
5a
d6
56
12
9f
08
7c
c1
fd
15
0f
4c
58
a5
19
c3
3c
e6
ec
3c
80
9c
65
41
df
81
73
76
c4
3d
fd
96
78
ab
7b
ad
e3
2e
51
84
bb
54
19
40
cf
eb
95
1b
ce
2b
5f
1e
eb
9b
7b
e6
73
12
ee
25
b7
07
96
db
01
8c
8e
bc
da
8d
3d
a9
d3
73
2f
fc
4f
bd
42
e5
14
de
76
ab
c8
ac
99
90
18
f1
b7
35
61
64
c8
e0
29
5f
a5
ef
5a
2d
70
6a
4d
ba
b6
e7
05
c8
d1
57
58
bc
8f
dd
a3
ce
99
14
fc
b6
6f
27
ca
4b
fc
97
88
c9
98
23
ee
af
df
14
90
54
c2
2b
07
6b
c2
32
7c
e5
80
41
82
98
9a
4f
f2
2b
fc
98
ee
37
fa
f2
f0
fe
c9
0c
04
50
61
6d
fa
8f
b8
67
fe
b1
db
0c
e0
22
f2
5e
bd
60
15
9f
52
19
56
69
6e
d8
6c
81
4a
5a
f9
2e
25
a5
7a
5e
20
f0
7f
71
1f
88
b2
57
3c
f5
58
8c
7e
f2
72
17
28
2e
e3
41
10
2e
e0
f5
de
8d
1d
f2
57
4f
2c
c5
00
e8
d2
b3
d7
c2
c8
ab
e8
64
56
2e
b1
b1
9f
7f
e7
f0
71
c8
6b
1f
39
9e
64
c5
a0
c2
f7
97
19
8b
90
d4
b9
1d
4a
12
63
fc
fe
be
5c
a5
a4
1b
75
2d
24
7a
df
6f
6f
18
a2
0d
c6
ed
dc
b1
f7
c7
59
87
8d
ef
67
a5
20
2e
e8
08
e7
d7
77
a4
49
34
04
14
09
9d
7b
80
dd
4d
37
7f
5c
c9
92
3b
da
aa
37
8a
c5
40
97
dd
17
df
aa
94
83
6c
92
56
f5
6b
99
dd
2b
25
be
e9
d4
99
4c
04
7a
39
cc
11
31
de
48
93
5e
70
4d
f6
07
aa
1d
20
65
29
80
aa
a6
5f
97
d3
bc
b7
26
f0
aa
ed
b8
77
81
14
2b
4e
f7
cd
97
4f
07
d2
6a
4b
21
5e
7d
b6
14
47
ab
31
c0
69
59
6f
67
d4
18
25
fb
08
5c
e1
c1
3e
01
58
d5
fc
ce
ed
ce
12
49
e7
9a
73
12
15
91
47
e2
0c
00
53
cf
81
fa
5a
bc
81
15
88
91
b7
85
7e
49
7b
d9
83
5c
a3
be
04
b2
f4
60
ac
05
58
62
7f
9e
28
1e
e1
3d
df
e7
7d
12
ab
61
5f
06
4d
ec
ef
d1
75
be
74
b3
3c
ca
24
43
4a
b8
c8
a1
91
eb
a2
91
69
bc
5d
5d
65
a1
6c
23
ea
29
f2
cd
e0
ba
84
9c
f8
d1
b5
b6
09
c6
d0
b6
78
35
2d
91
8c
f6
c5
e1
e1
c9
02
ae
9a
04
25
6c
1b
2a
1b
e3
dd
8e
7f
14
d1
11
2c
bf
97
d5
84
fd
8c
e1
ce
6e
ae
52
4e
a7
8c
93
ae
72
a7
f1
5e
49
3b
8b
a0
24
ab
72
ec
a5
9a
3b
bb
fc
14
85
f9
a5
2e
a4
63
0a
5c
c2
e6
57
f8
9a
e2
f7
65
70
a8
b4
7e
d6
66
77
ea
2c
e7
5d
19
f3
49
47
5a
c3
93
20
41
03
16
9f
a9
2e
1f
10
e7
d4
fd
35
53
80
95
ae
7c
51
2f
2e
4c
27
32
d0
3a
09
34
f5
cd
58
5d
23
cb
0c
74
09
79
0d
f3
e1
b0
c6
bd
97
31
55
0e
2d
ef
fa
25
72
27
61
86
6b
24
01
e1
13
2f
7f
33
d0
83
84
f7
12
f0
6b
14
ba
2e
c8
a9
8a
5e
de
97
3d
c2
01
11
5c
a8
39
68
19
5d
08
5a
e4
81
da
23
6f
04
9f
75
9b
2a
c6
50
81
24
f4
7a
f0
e5
d2
ee
03
ed
46
e6
b8
f4
a3
ec
d3
9d
6a
ed
e7
c7
01
54
6c
c1
f9
7a
a1
94
7d
40
bb
97
a1
56
7b
47
01
b7
57
b8
be
bb
e2
dd
20
32
d0
d6
f5
cd
c6
0e
f1
b1
30
72
ed
2b
de
53
c3
2e
0b
59
1a
63
8e
c1
67
be
a9
58
6f
35
5c
a5
9f
51
2e
ae
cf
59
57
6e
96
ea
4f
08
fd
c9
8c
77
76
a6
a1
08
50
99
52
ee
0b
27
f7
7a
01
4b
92
74
8a
c3
7f
7a
a7
aa
dc
77
b2
84
db
c9
cf
40
ef
95
ef
66
9f
0e
c9
c8
a5
aa
0a
50
04
5d
e5
05
2e
c3
b9
80
4b
1d
5f
de
e2
fe
aa
f9
63
d1
5e
26
20
86
cd
d1
fe
fa
f1
f2
93
fe
98
85
50
b4
50
03
cc
83
ac
76
0a
a0
bc
03
03
a1
a6
81
a8
f7
f0
fe
9c
d5
5a
a4
9e
59
37
72
94
af
44
98
e8
16
4b
61
c5
92
3a
0e
f3
b9
a5
b7
fd
28
5e
be
9f
a3
cb
8d
3b
09
6d
d0
87
81
df
b7
37
1f
43
51
a9
a8
62
a2
3b
fa
10
9d
14
6e
c7
0e
55
c0
9e
b6
e0
7b
77
6b
ad
16
f5
ea
f2
8d
fc
17
82
9b
8d
a6
df
67
3e
91
46
99
49
ba
7e
23
ca
fb
17
f0
ba
e0
07
16
55
0a
57
3a
d6
d3
9e
f3
2c
58
e0
03
e5
36
97
d0
6a
96
1c
50
ac
aa
8e
f0
d7
0d
e2
b4
72
d5
8d
48
52
f3
0c
4e
62
c7
34
b3
1a
a0
b8
22
95
e8
8a
c5
fd
fe
b3
56
78
f6
fc
ad
32
cb
53
5f
a0
62
b6
2b
c8
c6
2a
78
ef
76
2f
88
d8
12
e9
9d
1b
dd
50
7b
75
f6
c1
ad
ce
e1
17
2a
dd
cb
be
02
e5
e5
47
f9
4a
1e
97
d9
96
c5
96
de
5e
bb
35
3a
af
d8
d2
2e
aa
44
8e
3b
94
14
41
f3
ed
a7
c7
8d
f5
6b
79
fd
2c
64
e8
41
e8
f5
44
87
32
56
c0
34
c9
bd
36
60
0d
99
15
cf
4a
6f
e0
a9
8b
b4
cf
ae
1a
8d
69
a1
8f
2b
fc
b7
b2
3c
91
6e
30
33
74
a2
60
c6
4e
d8
d8
e2
82
84
0d
db
39
f4
be
6a
df
23
35
cc
6f
99
54
ba
0a
c4
08
3e
72
8d
2d
2a
16
cb
62
ef
47
20
06
a0
d1
fe
5d
77
25
21
3c
b6
31
c0
29
48
8c
15
92
bc
50
05
97
69
15
47
83
1f
2c
0b
53
13
b4
52
dc
ee
9c
e1
08
cb
b3
83
97
73
f0
43
37
28
17
3a
b7
2a
45
9d
a3
06
51
83
f4
d2
24
92
08
05
e9
08
5c
5e
5f
97
b7
94
50
42
bb
b9
d3
98
93
2a
17
77
b5
f2
69
27
80
6c
b2
7f
3f
ee
19
cc
7b
78
4a
f5
51
d2
e2
cb
6e
a6
ae
73
4f
5b
d3
d3
34
c3
69
a5
89
8a
0f
44
1e
96
89
b4
b4
b4
5b
76
42
83
e3
81
3f
88
8f
54
ee
b5
2c
a3
d8
b5
ee
e8
a2
51
a5
ad
d1
13
91
0e
25
7e
02
e7
43
f9
54
60
c5
aa
23
a8
97
4f
1a
27
3e
31
20
7d
73
d1
0b
f9
79
98
37
fa
aa
e2
ae
95
c5
1e
12
dc
a9
24
3c
d4
06
b5
dd
98
62
a8
bc
14
a4
7c
2a
df
61
e7
94
c0
49
21
87
4b
f6
82
5d
bf
0d
d9
11
c6
16
f2
db
43
31
5f
ce
f6
79
f8
45
b5
64
cc
f8
a5
46
4e
7d
0e
75
ac
37
82
49
6e
3d
93
cf
95
28
cd
a2
e2
a3
ce
67
1d
ce
b2
ec
ed
8c
b9
3a
6c
21
c2
5c
a9
4a
1f
cd
ea
e0
3f
0c
03
47
ad
4d
97
09
d8
fe
48
a6
83
66
99
07
83
4a
ae
f6
26
a0
4f
09
22
c8
37
d4
17
95
1a
25
85
d0
ad
2e
9a
80
e9
43
71
a0
bf
7c
59
de
66
0d
48
e9
f7
59
da
85
94
de
68
0b
ca
54
ef
64
67
50
0c
9d
e6
0e
50
7a
9b
bd
62
76
90
17
b3
9d
31
da
07
dd
a4
1d
70
31
11
64
7c
e3
3f
6b
5e
61
7b
be
17
cd
cf
f4
13
47
18
e0
2e
4b
ba
29
59
73
4f
5b
62
fb
1d
d7
8c
cd
d4
1a
50
30
2f
68
87
3a
b5
86
4d
0a
31
29
97
d3
ae
19
ac
30
20
c3
93
35
f6
6f
4e
8f
c0
13
d3
41
6f
c6
c8
82
eb
0e
35
8b
f6
32
36
8a
95
69
f5
d9
41
9f
33
4f
02
4c
59
d7
2e
a0
1e
1a
01
27
32
c1
da
e9
6c
d5
ee
e3
04
08
e3
15
77
82
a4
4d
d0
0b
78
83
43
af
4e
f3
4e
8a
80
74
9b
05
2f
94
3e
9c
55
4d
9f
70
01
db
78
59
5d
93
ad
f5
ed
db
93
a1
df
a8
55
d8
82
42
c8
62
c7
d8
b0
f1
1c
77
0d
5b
25
b8
d1
2c
07
fb
dc
60
7f
a8
98
6d
aa
30
95
5a
14
5a
c2
fe
d4
4f
fb
de
1f
0c
4e
0e
a3
84
4c
3a
63
f0
e0
3b
20
d1
79
be
f9
f6
04
95
4f
e3
1e
1b
18
8c
fc
3c
38
30
77
00
c5
e2
76
be
15
c8
41
11
a3
90
2d
f6
3c
72
14
5c
7b
0d
f2
b7
92
fe
fd
07
a0
df
31
7e
6e
a3
8b
90
0c
3f
39
75
b9
ab
fb
b9
af
12
ad
5b
04
85
db
60
19
35
a5
46
a3
31
b9
16
9a
67
5c
ae
b0
93
20
12
8d
90
a1
5e
b9
5f
19
2c
84
d1
f4
eb
f9
fa
fe
a7
cc
0c
9f
05
f3
91
41
35
a6
2c
16
6c
bd
b0
5c
18
80
e5
56
ce
33
21
b1
31
ef
cd
e6
bb
3a
8d
3c
9f
d5
c1
0a
c8
38
22
5b
5e
4e
f5
c1
e0
60
b9
0b
71
ba
7e
91
3e
8e
1f
b8
e2
52
4c
45
5e
7c
c6
f1
c0
66
55
8a
f8
a0
d8
d5
a0
74
e5
7b
b8
93
ca
70
0f
84
4c
e4
4a
f5
69
34
d9
25
85
80
12
7c
79
ed
99
d1
7c
62
cd
9e
c6
04
40
88
7d
8b
9f
23
8c
02
7e
5e
06
25
f7
f2
e2
c9
04
f1
66
38
86
f0
80
e1
c4
30
14
ab
3c
5d
a7
23
dc
54
d9
92
eb
12
27
a0
34
28
b8
1a
1f
08
8e
a1
42
4c
46
ed
be
39
1b
93
d0
13
05
56
7f
0d
cd
b0
88
36
44
d3
72
77
7f
48
7e
5d
d2
de
fa
01
b4
b8
4d
fe
83
88
1a
99
22
51
9e
8a
f1
62
56
a7
98
b3
af
93
4e
81
8c
ef
56
48
5d
42
22
6a
bd
d5
71
17
16
ee
54
8a
55
8a
43
5d
0b
d1
dc
fa
3b
f1
21
d8
f5
b3
6d
cf
ee
2b
03
eb
1e
b5
92
31
bf
f0
c8
66
d4
b6
89
64
25
17
e9
6b
29
e8
2c
d5
51
f1
8d
f4
36
50
1c
5b
29
4d
83
de
d6
81
30
19
6e
8e
2b
38
de
e2
51
b2
48
92
9e
fa
99
59
75
cc
a3
28
12
ec
5d
8e
53
34
e1
8f
6f
0e
49
f5
a9
ac
4a
06
0c
b6
ba
ac
9c
87
af
1b
1a
94
ac
9a
e6
31
44
32
ce
4b
c2
49
05
59
aa
f0
07
b2
75
61
06
79
7b
bf
37
9f
e2
16
da
29
8f
89
bf
52
03
66
9f
65
1c
dd
eb
e2
f0
d4
58
bb
c7
7e
32
f2
b7
13
ce
ad
7d
0e
28
9a
5a
52
77
96
88
85
6c
e5
6c
4f
d6
93
8f
d6
87
10
0d
8b
3c
39
b7
e1
ac
20
ef
c4
3d
4a
06
b8
36
47
2f
c2
d9
36
77
05
5c
c0
32
17
aa
b6
ee
3a
eb
76
77
89
9c
56
6b
9c
58
85
24
33
fa
87
c1
01
01
c5
03
5f
d5
01
c5
87
bc
60
b9
a9
b7
f7
6f
35
3d
54
9d
ca
66
f8
f5
d9
38
80
22
fe
f9
8e
ac
12
6f
58
55
06
ba
31
0e
fb
bc
bc
ee
6c
df
69
0b
21
7d
28
19
57
4b
1d
2d
e8
4c
37
32
07
f4
7e
02
4e
79
49
d7
15
36
e2
3a
e5
86
07
27
04
05
f6
e9
c7
24
30
01
4b
cc
81
85
98
57
61
38
84
fd
54
b1
22
19
ea
55
29
9c
44
50
3a
e4
be
74
51
56
08
44
45
d5
5f
45
a6
a5
e7
c0
bf
54
28
89
54
0f
49
e2
32
14
5c
aa
63
26
e3
b4
2c
6c
67
3d
ad
85
9d
32
31
1b
3f
3d
dd
36
26
b4
75
f7
69
93
3b
00
d7
4a
51
66
eb
58
03
e6
bc
ca
ab
65
0c
b2
cf
64
d2
08
48
59
9b
6d
f1
b0
27
9a
e1
19
e8
a9
52
90
b5
11
a8
c3
f7
42
ae
d9
75
8a
7a
a6
d5
e3
27
f2
5e
32
2e
d4
ef
9e
0b
b6
65
b4
d3
5d
48
f7
56
25
d1
13
8d
40
60
b2
cd
aa
b3
30
86
a0
ee
03
42
55
69
31
40
5b
f7
ce
4e
96
1c
bc
9a
8b
e5
51
0e
6e
80
b9
05
40
28
93
8b
37
28
a7
b7
82
da
73
6c
3a
8b
88
72
82
cb
ee
ef
4f
fb
70
9d
6f
39
47
b8
ea
11
d7
a4
40
a3
4b
3b
f4
e7
9f
ab
ad
fa
c2
19
8b
9a
b2
d9
da
a0
88
a7
2f
2b
85
46
1c
e6
5c
f3
21
db
2a
c4
90
d0
62
71
54
ea
7c
e5
fd
20
49
2d
ef
3e
d6
f6
ce
24
6a
43
b7
e8
f3
8e
4e
a0
47
aa
03
48
06
82
70
62
96
c6
69
5a
5b
91
4a
ea
d8
e0
31
79
f8
c2
5b
e0
65
ca
e2
20
8a
be
f8
48
a0
af
7e
2d
a5
29
1d
c2
99
2f
f6
94
a7
c2
91
da
b5
89
39
58
04
9d
f0
3e
2a
9c
e8
b3
83
5f
5b
d4
3b
44
b1
1e
4b
19
ca
34
84
70
3a
cc
83
94
8a
90
f4
45
aa
05
d4
6d
00
c0
ee
f5
b3
b3
8a
02
41
5f
a9
43
af
af
c8
30
6a
49
1d
fa
a9
d8
61
e7
60
76
a7
98
a5
93
b1
07
f9
bd
d6
7b
95
e6
ee
9e
03
f2
c6
26
ae
a1
c9
41
64
68
a5
8a
a6
fc
b6
0a
db
6c
76
d1
ee
58
99
9d
47
90
fd
a4
9f
03
f7
57
3d
4f
43
a5
67
fc
d3
ec
84
e3
ef
97
6d
b9
e5
2c
4a
ce
f1
25
53
55
2a
f4
9f
78
a1
4f
51
0e
c0
78
6a
9b
7e
ef
3c
ca
83
81
b5
78
5c
f1
98
8f
07
a3
22
20
22
32
30
8c
1a
50
63
59
46
a8
fa
1e
17
1e
31
8f
45
81
7c
0c
41
c1
b3
5a
f2
51
5c
ac
17
f2
f2
a4
aa
6b
7e
a4
a4
b5
fc
43
13
a5
ca
81
51
2e
79
47
dc
7c
03
7e
a9
f8
0e
63
23
07
86
05
7b
5d
87
46
8e
dd
a8
68
82
12
ec
92
95
8b
8c
25
08
41
e3
9e
d3
24
78
8c
42
15
9c
48
5a
85
a0
b7
15
75
73
b6
ae
1c
44
d3
34
12
1e
dc
41
7f
c1
0c
f7
29
7a
22
e9
01
f6
1b
26
26
2e
ca
67
ad
b8
e4
6c
b5
cd
02
b7
0e
a6
a3
4c
d5
12
e6
fa
44
7c
5b
6b
33
41
33
85
27
48
74
49
7b
ba
f9
35
c5
84
dc
3b
10
f8
4f
65
c9
dd
40
16
51
11
a3
5b
67
fc
65
c6
ac
e5
23
1f
86
df
40
db
cb
ad
92
c0
47
b3
bd
5e
87
b2
34
21
87
ab
5e
69
23
c6
d5
dc
e7
7b
0e
3f
a5
b3
ad
b3
26
7e
35
b8
e6
0a
68
98
81
19
d8
10
d8
92
8f
6d
da
15
d8
b6
b3
05
48
f8
26
2a
9a
64
da
d9
90
13
e8
e3
7f
1a
b2
68
06
b7
30
59
b7
51
e6
c0
b2
c4
05
c3
b0
6f
41
80
af
15
81
95
80
bb
76
86
24
2a
4c
a4
8d
77
c1
a2
7e
f7
94
1d
61
de
6b
ee
41
9b
7a
b9
e9
96
b1
7b
90
e2
07
d2
a9
97
b9
15
74
b7
0c
9e
0b
8c
aa
9d
a5
e7
96
db
cc
ac
0e
4f
cd
c4
70
6c
91
08
c7
07
bb
15
c7
be
b1
02
98
20
df
96
aa
9c
df
70
f0
08
61
36
7a
04
d5
8d
a9
a0
7b
e1
05
08
e2
50
5d
44
d9
56
37
ce
05
04
b2
b1
3a
f7
a0
da
c3
37
b8
24
ea
4e
03
8e
d5
32
e8
0c
87
82
11
fe
fe
05
76
cb
ef
00
af
d8
1a
d9
d3
ea
0a
83
56
46
17
85
06
27
21
16
34
5d
b6
70
a8
e1
4f
7c
87
44
65
f8
ca
19
a2
bd
0a
b3
6a
ec
e0
bc
52
00
f3
1f
7b
96
20
61
cd
1c
7d
60
d8
8e
86
5e
bb
b5
95
2f
91
86
bc
a4
cc
55
ec
86
f0
88
23
29
f4
80
ea
22
ca
49
08
b0
f5
57
da
d8
36
b5
90
06
00
f9
7a
7b
15
b0
57
8b
13
fb
a9
f2
22
bc
07
ed
89
b0
51
cd
fd
7f
af
33
b6
4c
57
e2
00
13
26
b9
c7
0a
46
5e
b1
d6
6f
23
04
ed
43
42
eb
d9
87
0a
5e
bd
1d
8c
f3
bd
51
7e
e8
98
85
09
05
f3
5b
95
9b
be
d0
d1
dd
1e
ce
bc
52
5a
1e
66
af
04
9c
d1
eb
9b
92
85
dc
af
d7
2a
7a
da
60
5c
23
85
c2
e1
06
75
88
f4
0f
1e
a6
90
4d
6e
00
2a
ea
ec
29
fb
66
dd
ce
51
f4
1e
5e
3d
c9
ca
1e
93
db
60
d4
14
1a
2a
74
0c
c7
6c
a3
7f
7a
56
07
0e
7c
7f
62
7e
80
79
e9
5e
fb
e3
27
c1
0f
91
b2
31
31
9f
b8
85
ab
86
38
8e
e3
f1
21
da
bb
5b
5f
63
5a
cf
79
a0
7a
d8
33
e1
f9
c4
b2
65
e1
bd
bf
4d
89
6f
af
63
9d
3d
a0
d2
e0
0b
fb
00
6c
8c
d0
9f
25
99
f7
a8
8a
2a
f2
fa
02
52
5f
9c
f4
80
b2
55
e0
47
c2
a8
a9
d3
7b
ba
c2
76
57
54
bb
50
5e
b2
70
8c
7e
6c
0e
a6
fc
1e
38
07
0d
95
80
92
1f
62
a6
b2
f3
a5
ec
85
39
34
57
87
de
ee
82
8b
f5
c0
f4
02
93
1a
80
a6
02
35
c1
59
4d
f6
6a
79
e1
6f
4f
7d
60
4a
97
c4
63
87
7b
bf
de
6b
56
09
40
de
4a
2b
7a
89
4d
70
73
36
69
ce
6b
95
02
f9
45
9b
3e
cc
22
27
8b
d0
6d
22
c8
c4
b0
71
4f
48
cd
5d
1b
0c
13
cd
1e
aa
dd
5a
f5
65
b7
7a
0c
0b
38
1c
60
b6
cc
73
31
f9
9d
fa
ce
4c
44
20
63
92
0e
e2
17
d4
1c
6c
16
a7
96
95
79
6b
85
24
47
1a
d4
dd
4e
62
04
44
32
e9
d2
ef
e6
71
f5
5e
83
6c
94
d9
9b
c1
57
6f
7c
84
cf
61
d5
31
e0
20
a3
9d
ae
9d
dc
c9
8e
bc
f2
f3
4a
8a
d5
b0
68
0d
d4
37
4b
51
b9
69
95
01
b7
eb
fb
d4
50
1e
83
01
a4
79
58
3c
05
cd
9d
50
e4
a0
3f
61
2e
db
42
16
20
44
db
1e
a9
45
87
2c
bd
46
4d
85
09
55
0a
a0
eb
b9
f5
7d
0b
69
08
ce
b2
d6
be
d8
3c
a4
38
f4
b3
b2
1a
f9
cb
f2
69
29
99
a0
f3
c8
32
c0
ab
31
95
72
5c
37
f9
9d
2a
88
98
c7
53
29
8b
82
4f
51
fb
4a
51
11
37
dc
bf
79
f0
34
a8
c1
cb
78
d5
c7
d8
83
a1
ba
d7
67
81
c7
55
ba
5f
6a
f5
1f
84
78
ba
ee
b6
cf
ad
53
31
f4
60
f3
74
0e
c3
29
bc
89
85
1a
e0
9b
6d
e9
13
24
65
8c
a5
be
05
3d
6d
2c
ca
b0
2e
21
67
17
1d
01
ed
6c
ae
fc
80
b0
3b
05
53
4b
c4
1e
95
ac
c4
26
ae
34
29
a8
82
0b
17
50
61
63
bd
53
3d
48
38
22
aa
78
49
00
35
88
01
1b
86
86
2a
03
8e
a5
fb
4b
72
ac
52
9f
dc
95
4f
ed
f8
08
d5
26
d5
54
f6
f9
0c
63
88
38
ef
2f
98
7b
1c
84
df
8e
c7
a6
bf
9e
95
77
ee
ab
c6
62
b7
57
7e
a3
4e
3e
11
bd
48
40
e9
b4
52
26
dd
90
bc
e4
98
da
6d
16
52
3f
de
4c
f8
2b
3f
a5
32
04
d6
70
55
8a
90
7b
fd
c6
1c
b9
ed
2d
0c
23
c4
d1
b7
56
b4
d9
f8
86
95
c2
29
23
fe
af
bf
f0
1a
91
a8
b7
3c
e6
15
5a
5a
1d
59
e7
d4
92
d3
5e
8a
4c
2b
52
87
31
35
19
c2
24
4f
b8
41
8f
71
b6
f1
3e
4c
0d
9d
11
37
9f
7b
fd
14
dd
79
b5
c6
31
de
90
ab
66
43
e6
06
8d
b7
f3
3a
32
fe
b9
17
07
cf
c4
82
2e
8b
e7
bb
8a
35
58
89
68
9b
2b
77
e4
f5
1d
51
17
f5
2f
af
b8
82
c9
79
3c
74
ef
cf
ec
d8
40
dc
13
bb
40
01
15
2e
56
6c
8f
52
f0
68
5d
fd
ef
5a
e1
d5
e1
c9
76
54
7e
c3
2a
72
08
62
05
39
3d
08
68
48
85
bc
46
eb
c3
cb
5f
86
3b
6b
5b
ab
d3
93
a8
f6
85
9e
51
da
7e
7e
c2
03
52
32
90
8b
c5
74
31
fe
c3
fa
db
5a
04
95
c1
01
34
3c
12
86
43
d7
03
c2
24
00
73
6d
5a
6f
d8
a0
05
0d
ba
02
77
e9
7d
5d
db
ed
6d
87
00
4e
1e
97
70
bc
78
98
8e
a6
ca
db
12
49
d9
71
46
9f
aa
86
43
7a
d5
56
01
be
3c
24
c3
48
95
27
93
09
6e
34
06
28
c6
69
d8
06
a1
b7
0e
a5
c9
c1
89
cf
f0
e1
2b
10
c2
8f
fe
1b
ac
70
bb
f9
0c
84
be
ac
d8
9f
fa
56
ba
f2
4d
d9
6e
85
5c
48
d6
1d
27
e4
53
e9
88
c1
fb
e7
07
99
f3
80
b1
ee
75
52
d8
25
2e
1f
5e
6d
84
de
3a
51
4b
6c
ea
85
bc
64
b5
90
ed
27
77
3d
8e
c3
28
56
d0
07
83
e1
d4
72
c1
da
42
2c
6a
a5
39
e9
c9
4e
39
b5
0a
6c
a7
d6
22
51
93
ae
4b
41
ec
2a
5f
93
fe
6f
40
01
7f
9e
51
f0
8a
b7
27
21
c5
b7
cc
09
86
3b
7f
8e
be
02
ea
ab
66
30
50
c4
c9
9f
61
a5
37
02
7f
53
dd
de
bb
32
ce
9d
6a
ac
d4
dd
5c
5c
a2
d7
b7
4d
31
58
69
b1
ab
cb
fe
85
c7
01
57
73
b2
25
15
42
69
a9
b1
6d
33
8d
6c
fa
33
9d
b4
36
93
32
4e
fe
04
9c
c0
f3
f7
4f
85
45
25
35
af
d5
e9
c3
a0
35
71
1f
ca
3b
3a
37
32
85
f9
b4
41
6d
7f
6b
8d
1d
a8
e9
6f
75
8f
6f
eb
07
3b
9e
4d
9d
e9
de
23
9c
fb
0e
d0
6d
70
0f
9e
ed
68
1f
43
05
fa
ee
41
50
21
a6
4e
5f
b4
59
2b
a7
af
14
19
5f
42
f8
24
2c
6a
48
c1
1c
44
df
30
7c
a5
68
0d
6d
8d
f8
be
51
6f
03
bf
04
8d
43
c7
5d
f2
bb
26
5b
d8
f2
89
b1
74
ad
b3
18
ae
6f
38
5c
b2
61
ed
93
87
20
6d
7e
29
a3
60
0f
c6
6c
7f
f0
09
9b
26
70
52
a7
ab
c4
39
10
9f
29
71
a6
df
a8
9f
36
f4
8d
c2
2f
2d
d9
f4
2d
79
d6
4e
33
bd
12
3f
81
33
e3
08
db
35
b4
e4
41
2a
3f
d3
05
8e
22
2f
df
1b
9b
73
c7
15
82
87
10
3d
d6
23
3a
f7
d2
30
f3
0a
60
92
dc
eb
3a
3f
cc
dc
e7
07
71
4f
6a
c3
07
18
dc
6c
ae
53
cd
fa
45
76
55
d3
66
b3
f3
dd
4b
23
29
dc
c3
d9
ad
26
5b
42
ba
28
0d
11
fd
ee
f2
23
cd
2f
e7
44
20
3a
12
41
b1
25
d3
0a
71
2e
85
7d
ed
41
75
5e
40
3d
38
fa
69
5e
ed
d9
e1
78
51
e4
0c
f3
eb
d0
4a
a3
97
f6
63
e7
0a
58
06
8b
e9
a6
77
8b
3b
83
92
e9
cf
df
dc
4d
93
a0
53
6c
64
c4
9e
50
99
06
86
7f
68
16
94
71
e3
cd
3a
de
96
80
96
7c
1f
fc
7a
f0
1a
9f
44
24
a3
c6
df
c0
53
8d
fd
bc
55
f0
fb
fb
61
88
4b
12
e9
9a
47
51
f7
fa
87
99
7f
0e
ee
fe
20
56
da
94
33
24
41
6d
7f
a8
d9
bb
68
d4
61
16
e4
2b
c9
89
13
f0
2b
52
4f
c6
9e
83
7c
3d
a7
e2
a4
d7
f8
a3
7a
a4
be
e9
43
ae
15
a3
91
82
77
a9
e6
f9
19
4c
b2
ab
6e
e4
c3
c8
27
a8
c3
91
e8
e4
3c
4a
59
9a
bd
6c
26
e6
e1
36
e3
b6
74
8c
40
ca
d3
4a
0b
75
1c
3c
53
91
8e
a9
24
b8
fe
5b
5d
66
89
4d
6a
12
a9
29
c5
56
f8
62
7a
72
a9
21
02
e6
f7
1c
a3
9b
98
2f
f8
25
0b
d8
2a
b0
53
89
ea
23
46
15
92
ef
cd
69
fe
ec
13
5d
72
99
c8
64
0b
45
1a
ea
ef
fc
fd
56
f9
01
4c
33
ec
24
7e
49
3a
3c
16
64
4b
77
7f
ac
b9
01
4e
e7
16
a5
2f
a9
3b
80
8d
28
07
75
1a
ee
f6
07
af
86
fc
38
cd
88
f2
be
f9
02
2a
9d
d3
79
6e
45
06
1a
78
3a
da
92
52
95
87
32
77
eb
2d
29
cb
f7
0d
bd
e5
3a
c9
1b
16
03
7c
8e
9e
95
d4
db
72
a3
16
26
14
d7
c9
72
d3
d3
e7
47
39
fb
63
61
9f
95
fa
3a
ac
84
a4
bf
4a
3b
b3
0b
51
58
d8
62
98
3b
5c
21
49
f0
1f
eb
ae
65
67
df
bb
bb
5f
32
3e
9d
87
b6
bf
79
13
0b
26
92
85
c9
d2
91
27
50
33
90
3a
bc
4b
a7
44
66
f5
cd
b3
37
41
0f
00
6c
b9
51
db
91
0a
42
a0
d6
c9
18
f8
88
f4
4d
11
34
63
eb
4f
55
4f
46
f9
e2
26
3e
f0
0f
9d
9e
dc
8f
41
8a
ef
3a
c1
b3
c9
e3
98
d9
59
ad
4d
bb
d0
75
19
8f
a8
f2
9e
f5
b2
8f
f7
2d
58
6e
5c
ba
36
27
36
b5
ae
55
6d
c4
84
ca
3c
f8
d8
1c
5a
a1
5c
c7
c6
db
ae
47
b1
c2
d6
91
5b
5f
94
62
71
f0
54
69
57
8c
36
a3
dd
29
27
f2
90
0f
59
f5
a9
49
bb
18
61
db
93
9c
9d
36
7f
84
5e
0a
60
06
df
d1
c8
69
07
7d
2c
64
4d
3d
86
70
bd
12
c3
cd
75
d7
c2
86
46
23
75
09
2d
90
c3
38
8a
9d
4e
e8
0e
f8
30
fb
e0
05
15
37
98
e8
f3
43
bd
da
e9
f9
9b
eb
50
1e
c9
ba
b7
8e
b4
f9
2a
c8
bb
e7
55
19
c0
17
54
ce
91
13
e2
8d
68
59
18
02
ed
09
74
4e
7d
67
4e
9a
d4
34
60
6f
64
65
5a
95
79
7e
85
ac
fc
46
e6
68
e4
f8
74
fb
e7
75
05
88
4c
f5
93
bf
72
da
79
d2
5a
f4
0c
1f
3c
6c
56
10
7c
af
3a
46
2a
61
68
44
6c
af
78
79
05
6e
b0
95
2f
72
a1
a1
52
18
58
80
de
30
a5
fc
36
86
52
43
46
d2
5b
b0
a0
26
05
a0
3a
57
cd
86
17
9e
dd
1d
1f
a9
93
79
e1
72
7b
4f
82
e4
da
cc
3e
ed
37
53
50
b7
aa
32
d7
17
fb
48
a2
ac
36
1e
66
e5
66
46
ea
12
15
92
6a
fe
19
ef
7f
1c
c9
e2
5f
db
22
ea
07
86
a1
88
56
84
5a
cf
42
95
47
e6
a7
21
e8
da
f5
ee
cc
2b
ef
1f
48
8c
8a
cb
5c
cd
70
50
8e
ea
8d
07
c4
48
99
34
60
d5
32
02
a8
f3
cf
74
38
ee
13
36
af
4d
28
24
d2
26
3e
7a
4f
26
c9
f7
a6
9e
e0
36
0f
94
4b
ba
1f
14
e2
92
26
75
93
38
30
f7
0c
23
b4
a5
ba
f8
09
b5
cc
32
9e
33
54
65
47
7f
5e
17
72
98
bf
90
20
72
7d
c9
2b
9e
59
d9
a0
a0
57
d9
55
76
8b
4e
2b
83
50
9b
da
27
c4
44
e2
1e
6b
ab
1a
3b
39
c5
0c
1c
c8
d1
74
5f
64
bb
6d
78
61
49
b3
14
d3
db
2d
21
92
a9
6c
25
8d
a4
5f
4e
75
28
44
67
c6
f3
c9
f3
fe
39
c0
77
5a
a5
19
65
67
f6
fa
8a
f3
ea
c6
dc
10
a4
68
4b
9e
37
0c
9c
b9
73
67
d1
b6
d2
a6
1b
54
c2
a8
fc
09
42
88
4c
d4
06
d4
62
ce
5e
0a
c0
21
ac
d0
d3
ba
f8
24
1c
76
fd
25
e9
8a
ed
2c
ae
64
7b
9d
b3
9b
da
c5
e7
63
c6
d1
3e
24
50
65
b7
4d
15
d9
24
e0
e5
68
c6
a9
e4
0a
19
c7
8c
1c
4a
29
61
26
4e
e9
1c
59
ed
08
fe
1d
02
cb
78
a4
44
ad
8e
d2
0b
f3
01
34
0c
ef
b3
3a
55
54
9e
72
3e
13
96
02
ac
f3
e3
ea
9f
3d
86
d5
06
93
9c
cf
21
8d
0b
05
38
ca
32
c6
7c
48
fe
80
84
b7
64
b8
ca
ca
c7
a6
3b
c7
f5
d5
e6
c1
88
5b
62
d1
d7
bf
be
91
79
2b
b6
37
76
6b
98
94
54
61
a6
0b
1a
28
ed
21
c1
51
bf
9a
f1
65
ab
7f
29
28
28
fa
5f
08
49
b8
a6
a5
3d
aa
29
6e
fd
48
3f
fb
0a
6d
7c
76
97
8a
e1
9b
88
6b
d6
41
0d
0c
e5
63
db
c7
2f
7a
09
e7
d6
1e
c6
44
0f
67
99
31
6f
4d
10
99
90
29
b1
d8
14
68
f4
5d
95
17
c9
01
86
71
4c
8f
42
5e
8f
8a
54
ef
79
b3
97
7a
3f
dc
4f
8c
91
29
a6
95
9a
1c
17
a9
a7
1f
4e
c4
d9
e1
14
c6
1f
a9
66
3e
16
86
5f
b3
12
89
06
4a
6a
95
a1
36
98
bf
3b
92
6d
ee
1b
69
ee
3c
c8
c8
8a
2a
16
d4
dc
79
62
fe
b8
23
a4
e7
b2
77
67
cd
4a
d9
74
3e
39
d9
3b
59
34
22
bf
0e
58
7e
e6
f1
dd
52
93
aa
5d
b1
b2
df
e1
a6
8d
09
5c
77
bf
e3
15
3f
cd
56
50
ca
ae
2f
52
e1
59
14
fc
11
c4
2b
98
e2
4a
08
f6
d5
11
03
74
61
05
d3
55
16
e1
08
30
b3
12
f2
c5
9e
3d
8b
ef
6e
f8
75
82
bf
d7
36
27
ed
9f
3e
bc
de
fb
cc
fc
cc
31
cc
10
66
f1
d6
ce
f2
49
df
90
35
9f
6b
4a
ca
ac
77
93
47
94
04
37
ce
d6
67
e8
5e
b1
dd
3d
5e
13
95
bb
60
04
bb
cc
5e
88
0f
cd
8e
cc
a3
67
b8
84
40
6f
4e
f6
35
9e
36
52
b4
72
4b
62
30
35
50
f4
6f
e8
7b
77
2d
b8
c3
09
0e
48
40
3d
7f
02
61
d3
d1
b9
2b
43
38
cb
2b
62
1a
14
c0
60
16
2e
c6
7e
bc
5d
84
ac
bb
94
d9
05
94
4f
2c
b7
16
e7
08
ea
9b
3f
8d
fa
bb
19
fd
8d
39
75
ec
c1
7b
8e
5c
92
3e
83
e5
32
1b
89
f7
a8
54
d8
59
3f
91
09
9c
f8
c1
4c
47
67
49
81
2a
59
9f
af
61
d3
52
10
b9
1a
14
37
bb
0e
ce
11
ec
48
16
a5
30
a8
6c
dd
0e
8b
4b
d6
b8
05
49
50
0a
f5
4c
4c
07
80
37
13
79
34
8c
1b
30
f5
28
e4
4f
0a
33
f0
31
8f
86
7f
5e
67
b7
45
4e
80
bf
57
8c
c0
4c
bb
7b
13
8f
d5
40
56
da
d8
c2
2f
cd
b9
a3
d7
9a
77
ac
c6
7c
ea
72
53
b1
34
72
7e
be
80
7b
5f
e5
a5
36
fe
88
b5
30
dc
c5
5c
7b
6b
69
7e
0f
79
16
97
08
86
4a
4e
5f
f7
fa
67
89
49
73
c6
51
3f
3f
05
f7
20
5d
da
75
eb
89
79
2f
51
fd
8f
fd
bc
60
c3
88
f1
a4
68
c5
1a
79
bd
dc
f9
15
08
13
37
d3
f3
8c
b7
58
bf
0b
fd
bc
80
75
bd
be
a6
e0
f2
24
db
d4
62
1e
b7
7d
61
1c
ed
e5
4b
90
7a
5e
35
32
19
f8
dc
7a
81
43
94
25
9b
a0
10
95
4c
ba
3e
b1
01
df
ea
a3
7e
e8
15
cb
1c
f0
16
80
30
ee
c2
f9
a7
ae
e7
f9
cd
e9
dc
e8
a2
ec
94
d7
b1
97
5e
e9
30
cc
dd
8f
31
36
db
66
0d
6d
22
65
81
19
71
32
ce
d7
f4
52
4d
97
63
a3
ac
71
e3
83
52
6b
aa
bf
20
45
0f
37
4a
59
8c
35
fa
ad
de
fc
60
bc
8c
3a
bb
82
ec
60
c8
31
c9
59
1f
82
6a
c0
31
b6
59
50
41
ce
b5
de
01
de
20
9a
45
57
cf
9e
3b
f4
6f
6c
00
6c
e1
ec
d8
54
cb
02
57
29
1f
f0
d1
13
2d
18
22
e2
ce
de
69
d2
ca
2b
c1
17
eb
fa
c8
b3
28
60
94
15
a1
ad
e1
e4
77
9e
62
1b
d6
22
31
59
11
1a
82
11
f8
84
17
45
71
b7
79
56
4d
7a
d5
8a
c3
8c
1c
08
7e
3c
77
0f
51
f2
af
6e
d6
f8
c2
b6
e0
34
a7
57
57
2b
e3
1f
d9
6d
7b
33
ab
c6
f5
c3
18
5f
ec
1e
3e
bc
80
44
09
36
32
ad
fe
dd
d7
72
53
6f
55
e9
fc
65
35
db
cc
94
a3
77
b0
fb
4d
38
cf
b8
ca
b5
d1
3d
b9
b5
72
b3
66
a9
99
b4
28
3b
50
27
71
bf
74
fb
91
45
3c
ad
84
9f
a0
17
99
14
72
b7
5c
e3
bc
9a
e7
1d
a6
fd
55
f0
7d
53
e9
56
32
8b
d0
49
9e
cd
8a
3e
82
aa
62
da
6a
8b
d4
fb
ac
e2
4b
1f
be
c3
99
de
77
cc
7a
ce
a5
30
79
a0
8c
e3
13
7a
77
39
fd
bf
51
46
4b
62
39
e7
36
cb
35
62
86
0d
59
15
da
d7
49
f1
71
12
5a
1d
cc
e9
56
c2
c1
97
bb
ba
87
e6
9b
50
99
99
5f
85
73
b1
10
49
19
d6
1d
1e
2e
4c
d2
69
bf
43
12
2b
71
c2
71
d2
1f
24
46
bc
35
dc
33
19
6b
e6
7d
a1
4d
24
45
e4
b6
53
60
78
c9
47
eb
a2
27
6c
2d
ac
0b
43
f5
a0
c9
4e
8d
7b
f9
23
45
58
f8
1d
c9
6d
36
a9
10
bb
12
f8
96
75
d0
f5
0a
c1
94
f0
85
cc
d1
1c
db
d0
e5
1e
08
af
c8
3e
11
0d
67
2c
d5
00
1f
30
1c
1e
86
1a
13
1f
8d
56
a1
02
85
ee
cc
05
3d
1e
ea
c2
b7
f2
28
11
90
a6
32
9a
51
93
5e
4c
77
75
87
76
97
f5
61
e2
50
dd
a2
bd
6d
28
60
6e
62
7a
aa
06
d2
30
40
5c
0a
ae
4e
cb
e7
b5
79
dc
04
ab
2d
1f
3b
54
a3
b6
a8
5d
74
c7
bb
a7
62
f3
82
40
d9
98
f9
22
15
6b
c8
9f
8b
34
8b
8c
d7
43
4f
1b
49
10
3d
38
50
62
a1
b5
2e
fe
47
d1
3b
36
2a
d2
ea
b7
1d
d4
ea
a3
4f
9a
7f
20
7b
80
48
81
84
a8
97
7c
4e
8f
b1
7b
90
23
dd
76
b8
c4
89
b5
14
ec
41
97
3f
49
ce
11
f1
87
55
7b
c8
2e
78
d2
08
42
cb
0a
52
53
35
c1
fa
f7
56
b2
5e
1b
02
68
13
32
6e
19
8c
ad
0c
c2
48
89
0a
74
52
7d
1e
57
ef
ba
d8
00
f0
d5
b2
a3
88
c0
6d
76
f3
d0
d9
56
ce
40
b1
a4
99
13
0a
ac
bb
1e
76
c3
6b
5e
bc
29
e2
08
6c
33
a2
ef
d2
3b
f2
b6
60
fc
f2
ee
e6
91
4d
6d
7d
73
d3
cc
80
2b
d2
1b
f1
e2
e6
3f
a0
28
2c
26
8f
5d
e0
75
f4
66
df
49
e8
1a
8b
1c
9d
77
f4
28
69
05
fe
5b
02
f5
e2
59
0b
fe
32
4e
2e
05
17
a6
97
f0
0d
54
2d
84
c5
4d
22
a6
d5
e0
d6
13
66
62
c3
71
0b
6d
23
6d
a8
7a
53
d5
7f
30
32
2d
2e
c4
3b
3a
bb
e3
d5
8c
10
60
33
ca
76
db
1e
38
b4
d5
0b
c7
f8
49
cd
bf
fe
70
cd
b0
d4
4d
bc
e1
89
cf
eb
a6
0e
7a
83
92
9f
64
63
84
54
05
14
5d
f3
73
29
71
d6
c5
23
51
8a
92
e9
9b
46
eb
fd
f7
d2
d1
4d
d8
ab
46
5c
23
fc
2d
7b
ee
c9
fe
77
fc
d9
32
7c
bc
f0
c0
48
3a
7a
c7
8e
f6
6c
12
39
37
ab
b8
80
50
48
05
52
77
13
9c
ac
24
da
d8
7d
52
41
89
d0
59
cd
aa
62
60
82
6d
a5
16
d8
aa
0a
d3
18
4a
25
cd
03
f4
61
2b
8c
a1
c6
45
e1
74
f1
f0
55
bf
8e
61
e0
e6
72
1c
a0
d2
58
84
0e
0b
6b
eb
c1
8f
69
07
ce
b5
d2
58
20
85
e3
4c
5c
4d
4d
e1
88
be
2c
66
c0
82
f8
4a
f0
b9
b7
ec
95
7b
e3
8d
de
63
1f
19
33
48
2e
20
ea
0b
2b
eb
f1
d8
94
07
fa
03
fc
52
16
cd
ba
c6
1e
aa
9e
32
3f
a5
c0
1d
47
62
ce
c9
6e
08
b5
cf
40
ed
25
45
fd
b9
62
0a
3b
da
9e
0e
7b
ef
f3
d9
9e
dc
94
b0
27
46
37
89
22
5d
f3
a2
a3
e6
b6
e9
bb
7a
5f
60
ee
8d
7c
9b
3d
64
a5
af
ae
9f
ba
ce
55
6a
1d
ea
77
09
ab
9c
b6
7d
b4
84
79
12
c1
15
16
5a
ba
40
cf
2c
87
ac
50
44
73
a1
4b
ed
ea
db
cc
29
d6
46
80
0d
6e
ed
a0
75
80
63
b3
d8
4b
55
7f
08
cf
f5
d0
66
2a
02
98
fd
aa
c0
06
2a
b6
0f
8d
5e
c7
45
42
6f
5b
46
40
89
54
21
cf
82
ae
22
e5
47
29
88
16
79
be
df
b8
68
b9
91
7c
9e
b8
2d
18
db
6d
2c
4a
61
c2
2d
21
6e
22
a5
af
55
cf
bf
b5
b8
b1
6d
b1
7c
4e
a5
ac
e0
ab
7b
a9
d7
4c
45
11
f6
16
11
bb
69
8a
b3
bc
97
6e
a0
18
30
1e
86
12
90
45
e0
dc
fb
d3
3a
e9
de
a0
36
21
c2
50
49
89
88
08
c1
67
b4
97
b9
f0
22
19
52
90
5e
4a
63
bf
06
a0
b9
33
f9
86
e7
87
75
e6
24
c5
f0
46
93
1a
fd
83
d3
81
86
6c
07
f9
90
ea
33
4d
51
ad
ca
b4
ab
65
5b
b7
04
5c
3b
0f
b7
51
38
22
44
3e
a0
d5
b1
3b
2f
65
9d
35
6d
ca
ae
e3
40
d7
79
3c
f4
46
8e
22
35
0f
b0
21
0e
53
80
46
89
3c
25
ce
3b
69
36
91
0b
65
9b
5f
e7
5f
60
53
d2
d1
7d
76
63
d8
81
27
e0
74
7a
2a
58
4d
13
ed
22
29
07
de
80
2e
5d
63
0c
58
26
c3
4f
58
2d
e7
24
e2
e3
7d
b2
31
d3
97
a6
28
85
3f
3e
eb
5c
ca
23
90
c1
8f
fb
28
30
d1
e5
38
d2
3d
0e
08
1d
6d
9a
7a
65
f1
c5
7e
20
7b
75
9a
9a
a0
a4
25
2c
8f
30
0d
5c
fc
3a
b7
24
c2
5b
32
96
f2
24
e8
34
88
ee
cb
4e
7e
71
65
50
da
31
06
99
7a
b3
24
25
f5
30
27
1b
bc
e9
76
b9
59
26
52
07
f6
95
27
68
f5
a9
2f
be
ea
63
36
a0
bb
1a
52
91
59
52
78
f2
ef
8e
df
c2
c3
27
4f
3a
58
8f
a2
88
21
ce
d8
1b
42
17
3d
90
43
96
fd
26
98
29
83
58
25
90
e7
fc
0f
e6
6b
1c
11
62
81
e3
1d
bd
88
d2
a6
1d
24
fc
62
a3
0c
b0
29
9c
d3
7d
44
39
3c
25
49
24
f9
fa
6e
e5
00
f0
c7
ae
1c
28
95
cf
9c
d4
cb
ad
7b
d2
2f
c3
47
cd
11
aa
36
cb
45
36
18
fa
d7
a4
ee
69
30
74
18
df
84
c7
53
7d
f9
c4
78
de
6f
46
c2
e5
6d
d8
78
69
ed
cf
7a
58
e0
08
87
c5
2b
ee
dc
1a
84
15
67
ea
bd
0b
68
cd
5e
0c
c2
82
80
66
c4
9d
d8
90
d5
4a
da
0b
d1
90
f2
1a
df
ee
0a
a5
35
e6
58
40
21
b1
d8
c5
c8
1b
f2
b4
4c
03
cf
3a
33
bb
1b
be
ac
64
2a
80
cf
87
56
97
77
ef
67
1b
fb
a1
72
ee
4c
bf
0f
66
20
39
82
27
1b
8d
49
8b
26
77
84
42
4b
96
28
12
66
6c
f0
d8
57
5b
6b
35
4e
41
41
a0
3d
c9
79
a6
d4
72
31
3e
55
08
92
f2
93
30
12
f3
27
e3
f6
82
a4
f3
30
ce
9d
4b
95
e8
76
4b
13
73
7d
c2
f5
7e
b6
5b
ab
fb
78
5d
21
07
d3
a9
88
97
f5
5c
70
4f
29
69
f1
8f
c0
4f
1d
be
ee
59
33
76
02
1a
48
f5
8f
e1
ed
1e
c3
10
9d
da
ec
0e
11
bc
27
fe
9d
c0
9e
a1
07
6f
7e
f1
96
1b
43
45
6b
93
b5
69
30
74
1c
08
cd
15
cc
d2
35
d2
c4
91
51
ed
4f
8c
03
4f
41
24
fd
4d
68
27
f4
55
46
54
d4
0c
c3
96
ea
60
8f
3c
8a
99
3a
8c
a8
c8
0e
6f
99
10
62
97
0a
92
6a
e5
2a
a6
e8
64
59
bc
a6
e1
b9
80
51
17
fc
d5
a5
71
eb
9b
f4
cf
61
e2
53
94
ac
e5
44
6c
29
b7
45
c2
63
92
a8
c9
1d
d1
0b
76
5c
61
6f
8b
d3
ae
8b
2c
6c
ce
89
2b
f7
e5
28
26
78
25
c8
20
ba
71
f6
66
2f
49
78
ac
6c
cf
8f
1a
3f
f8
99
37
f8
03
81
07
e9
ce
07
2d
20
5a
aa
96
1f
48
37
b7
25
ed
49
9c
d5
1f
71
fc
73
21
1d
d8
8c
f1
3d
73
63
d9
57
07
01
a2
d0
15
4e
ef
f5
87
ed
80
07
f4
d1
d0
7c
01
1f
36
19
45
81
2c
c6
3e
2f
31
18
5c
b5
7f
44
28
10
4a
14
3d
34
20
3d
6f
ab
06
fd
69
08
80
17
ed
36
d0
95
47
e3
bb
2a
e8
9b
be
d1
99
2b
5d
55
52
17
0a
f4
18
c6
b6
9d
94
a7
ba
54
97
31
76
80
1f
d4
ab
d6
83
c8
c2
c5
e7
96
12
3f
e9
39
c3
4a
c9
4b
0c
29
b6
60
3f
11
29
65
e6
86
6f
86
1b
d9
43
50
d6
c2
4f
39
92
2e
35
5b
b8
02
d7
4c
47
61
d6
0f
df
27
cc
6f
e4
a4
e0
2a
db
98
b7
e5
4e
36
88
e8
2f
2e
02
78
0a
e1
fc
44
07
74
98
c8
6f
ad
a5
bc
1d
9d
49
97
3f
71
f8
37
9d
5d
39
5b
66
12
92
97
a2
4c
92
a0
01
90
1b
6f
66
1a
ee
cc
02
71
da
1b
e8
ca
97
61
30
c6
8e
5b
11
01
25
a0
26
6f
9d
a3
62
0f
6b
54
40
ed
89
3c
aa
52
03
6f
64
76
40
fb
ae
c2
bb
e3
35
2a
a3
94
fd
8f
9e
b6
40
00
79
53
a7
53
f1
a9
6b
72
5d
1e
69
75
fe
14
aa
19
d3
8e
58
8b
10
b5
a7
3f
b7
b9
59
ba
b4
3d
00
79
b0
57
9c
d1
1d
89
f9
b2
51
ba
db
f4
0c
e7
e4
1d
9e
87
44
8c
20
c3
cc
b0
f3
67
db
49
57
b7
47
74
66
03
bc
e7
9b
32
21
48
fa
3f
45
6f
07
0e
64
63
86
a2
2b
aa
5c
ba
b5
ab
ba
30
64
21
d3
31
85
de
44
ba
5c
94
4c
a1
e1
67
46
71
a8
77
fa
9c
55
68
c7
cc
2d
a3
44
9c
46
23
20
1e
ce
2f
5d
9e
75
e7
e2
43
97
67
39
56
c8
69
fe
8e
a3
e9
36
35
d6
ac
55
b1
fc
ba
f2
39
7c
ae
24
3d
bb
39
11
b5
e2
25
c4
3c
86
9e
54
1f
12
4c
af
31
cb
8b
3e
41
10
a4
8d
73
c4
9a
20
04
2e
c2
ec
ee
a4
78
e2
1b
d0
f7
f1
df
7f
ba
58
90
6e
be
55
b2
72
db
26
0f
29
1f
8a
23
a2
0a
d0
d3
d0
88
72
a3
3b
ad
d4
44
0e
55
cb
6e
48
3c
77
0e
a7
a0
3e
7e
e5
d3
1d
18
6a
23
57
89
eb
42
77
1f
ca
6e
be
be
7c
9d
ba
5f
80
5d
02
11
ee
85
8d
62
15
91
a3
f6
44
e1
4a
14
f7
00
1c
e5
01
74
4b
35
ba
b0
83
d6
4e
39
b6
ea
4b
34
2e
3e
43
5f
2e
df
bc
14
e0
d3
d7
12
04
53
1e
f6
d0
1b
ae
28
f3
69
24
03
e4
ec
a0
02
1d
be
74
6b
55
c2
c4
86
e9
3a
cf
9c
01
fd
c4
52
43
b2
78
11
24
dd
0a
be
ea
8b
b7
62
35
9c
2e
cd
1d
e4
b5
38
c5
80
9b
83
cc
a1
24
5f
f6
97
56
61
d2
de
24
a8
f6
9d
fc
0a
7b
6a
94
24
60
c5
af
fa
04
da
11
21
ad
6c
91
e7
e2
18
19
66
fa
69
31
e6
68
11
07
42
16
62
9c
55
e0
14
0a
bc
8c
a1
09
98
9a
b3
05
f5
66
a5
fc
85
b9
50
2f
82
0a
8a
42
e3
3f
1b
ee
1d
f8
b6
e5
55
9b
ba
bf
ec
e9
2c
9f
0a
06
b8
68
ef
00
c8
e7
53
86
b3
da
f9
0f
33
05
b2
ca
62
e8
40
9e
79
c2
89
f2
bd
cc
34
b6
7d
c2
9e
cd
d6
ad
c2
35
2e
5c
49
37
b8
ee
f5
ea
f2
11
06
83
ba
b2
e2
8d
92
28
42
30
54
25
b5
2b
a9
7a
f2
2d
ee
a6
50
ba
82
a7
bd
2f
f8
e7
e8
ab
b7
ca
b3
0f
90
61
6a
50
4f
04
5c
d7
2c
4f
18
09
8b
84
58
51
4d
b2
83
60
4c
00
0b
13
34
56
be
4c
20
dd
83
35
c4
00
9b
2a
59
7e
c6
a6
f4
dc
5e
69
e6
2f
82
65
b6
47
f8
c9
1c
9b
a3
28
4f
49
9a
17
fb
4e
5d
13
fc
fe
37
e1
d6
2c
f6
e0
f2
79
9b
cc
2e
ed
23
42
53
e1
76
72
1b
65
ee
b9
19
8d
4f
12
18
05
e8
19
fc
2e
6d
75
01
d6
6e
12
a4
3d
49
0c
b7
3e
ed
e5
a5
9f
f8
c5
c8
a8
14
80
87
86
28
99
6f
e4
a1
1c
77
31
96
27
6c
a0
2c
47
f0
bb
38
8c
3d
45
53
e1
87
fa
a4
72
1f
f9
0b
e3
08
7a
33
f2
d1
f4
59
84
5a
3a
02
b2
b2
67
a0
6d
e9
95
a5
2e
4a
12
27
cd
85
22
93
c9
3f
35
30
1f
60
a9
17
f1
57
1b
80
97
a3
91
a3
dd
50
a1
c8
8e
72
c7
89
7b
62
aa
fc
78
f7
a4
52
86
0f
8d
ad
26
a9
c3
42
c0
c4
94
72
89
21
de
86
81
c7
fb
41
99
42
7c
7b
a5
88
a4
1b
c3
98
d4
27
95
11
d8
f8
0f
75
c5
89
be
91
25
07
d6
71
17
cb
8d
f0
5d
82
9a
75
7f
b4
e1
b9
a6
b1
62
b6
5c
7f
81
9f
68
82
e8
a7
4e
19
48
01
1f
46
a2
78
8a
ca
64
7d
f9
03
39
a7
e3
f7
7d
4e
18
55
f6
6c
3c
4e
f0
f7
91
98
dc
44
e7
b7
2b
a6
d2
be
34
49
df
50
fd
6c
0b
5b
a3
5e
c4
d7
1e
21
34
b8
a6
a8
41
37
f4
cb
9c
ad
95
6d
74
2f
6b
44
e0
19
f8
5b
9a
91
11
f0
48
b0
21
9e
77
41
12
5f
eb
1b
21
6e
09
95
80
60
5e
f4
9b
64
2a
93
e9
0a
37
1e
f2
32
f5
24
8b
2c
1f
1c
7d
6c
cb
df
e2
c2
ea
e4
48
fa
57
36
d9
94
5e
df
ca
30
ed
62
58
5a
fe
b9
67
29
90
a4
04
05
66
10
68
bb
87
24
46
47
2c
3d
2a
8b
61
c8
ba
2d
53
5c
20
50
1d
5c
ca
7b
12
39
05
12
85
43
fd
52
d0
cf
ca
eb
2a
a4
a5
7e
f4
c9
52
bc
5c
7f
96
29
22
35
5c
c7
ef
20
fd
7c
63
74
b2
8a
50
ae
7d
3d
77
26
4e
84
c2
8f
50
dc
cd
3c
18
62
ba
63
33
85
41
5b
a9
8f
a2
f3
29
d4
0a
dc
13
48
fa
ad
a7
ea
a7
2c
6b
ee
8d
84
7e
d6
c0
61
10
cd
60
e3
c4
87
54
37
85
f3
65
5f
dd
48
e5
81
92
00
0d
ce
68
24
38
51
4f
29
4d
6d
f5
ae
73
93
ad
60
63
40
97
62
63
52
fb
cf
93
c0
63
84
d3
c0
35
28
cc
70
4e
43
d6
d0
fd
3f
e0
67
cc
fa
d4
f3
f9
ac
55
f0
0c
06
0a
71
91
b3
db
47
5c
45
c0
2b
09
75
17
8a
26
35
b4
0f
c5
23
68
8e
b2
23
93
1c
b1
22
54
92
20
c3
78
61
d3
b2
f6
b9
69
7a
f2
aa
ed
22
15
76
ba
4d
f4
20
4e
16
15
53
dd
36
c9
75
d6
7f
db
21
74
37
70
04
e7
45
07
83
43
04
fd
c9
fb
42
a5
7c
17
29
1e
05
30
1b
fe
d0
97
58
bd
5c
65
30
49
ef
39
4f
a4
07
40
37
8a
13
e8
c1
d9
92
9d
1d
3e
eb
43
87
8f
c9
36
13
69
ea
d5
27
66
d0
79
39
a0
49
47
da
1b
22
f5
1c
6d
a5
4b
5e
2b
4b
f7
e7
4c
67
60
04
01
1f
8e
0b
94
0e
2e
01
28
10
0f
6f
6e
33
8b
69
2b
48
5c
9c
0e
a6
70
67
7c
56
2a
68
29
93
94
79
51
86
62
8c
b7
7b
4a
92
df
b8
ec
de
b4
c0
2d
fb
0a
2c
bf
15
db
90
e8
1f
75
56
be
76
30
9b
37
c6
93
4e
82
a5
25
97
92
50
14
b4
cf
d7
cf
83
57
be
b9
9a
48
7f
ab
e6
12
47
f8
58
79
03
79
09
44
a3
06
1e
05
c1
c8
21
f7
35
79
0d
82
55
f0
87
a0
6d
96
7a
d7
8a
1c
1d
32
46
51
c2
65
68
8f
9f
17
11
90
bb
42
64
c2
f4
05
57
b0
99
42
2e
fd
e7
2c
b4
7d
4a
af
70
ee
24
3c
2b
c4
d7
fe
f4
40
08
14
1a
c2
c1
9f
0b
dd
0c
2e
20
82
a8
dc
97
9b
f3
3d
ed
b0
a4
9a
b9
d2
19
5d
cd
bd
69
c0
5c
75
05
52
09
10
e0
bb
48
8e
3f
eb
94
f6
2a
50
d0
e6
93
ab
f7
c2
91
be
9d
6a
1a
4c
99
ad
71
45
9f
3a
89
86
7d
ba
12
22
05
4b
92
5d
05
5e
c3
5b
31
76
39
76
36
0a
aa
7b
e3
90
39
ce
d7
08
44
cc
40
8f
f4
0f
12
47
3e
cc
54
fe
f5
6d
ce
0c
54
ab
38
f9
9c
da
36
53
c1
5c
cf
e0
92
43
9b
e3
ad
10
ae
aa
57
6d
a4
a2
8a
75
d8
de
22
37
48
44
36
84
97
74
ed
05
ae
2b
a6
49
3f
a1
9d
e8
c7
70
0c
bf
46
b4
02
a2
5a
01
b1
91
50
d0
4e
7c
36
b9
0d
2d
97
11
c9
6a
3a
85
ec
79
1e
79
c9
f6
fd
6b
c0
17
47
b6
f6
b1
c6
85
69
e7
5f
87
32
3a
c4
dd
77
8c
d0
e4
24
74
92
ec
98
87
6a
ca
83
be
c6
99
1f
9d
3b
f9
5a
6c
2d
72
2c
52
4d
14
b6
9a
fe
81
8b
d7
71
5a
58
55
47
32
03
ab
83
ba
ed
e2
ca
a5
25
e5
74
8d
a4
3f
e8
67
a9
80
38
70
1e
53
38
43
1d
d2
e1
e5
3d
b3
e4
df
c2
db
64
59
e4
00
a1
fb
a9
01
72
d2
c2
0e
a6
fc
b4
b4
30
37
df
81
90
c0
9e
32
b6
56
90
a1
2e
51
cf
42
31
a9
4b
fc
cd
94
fc
8a
ad
af
c0
c9
d1
08
6a
55
fa
36
ac
a5
57
14
26
ef
71
04
ea
ba
bd
ec
d2
41
cf
5a
fb
be
b8
97
df
00
2f
8b
1b
c5
b9
60
d4
ec
f1
30
c0
fc
91
10
7c
a0
10
80
7c
ec
16
70
c5
12
7c
67
2a
e3
1e
23
42
2b
97
0a
ac
89
60
92
bc
6c
d5
88
26
af
7e
ae
44
aa
70
4d
03
7a
96
00
3e
d7
78
40
02
70
0c
2f
e2
25
9b
b2
6f
e4
bb
1c
fc
d5
0a
f7
e6
c2
bb
97
20
f3
cc
f4
49
41
f2
a7
2d
3f
cf
83
5d
48
4f
1c
9f
b1
d1
72
94
70
95
dc
24
9f
8d
0a
22
0f
8c
7c
dd
07
84
22
85
eb
68
6d
84
c0
76
d8
69
ba
20
5b
4b
10
36
ac
a4
59
d7
10
01
e8
ea
51
c7
c2
c4
b6
a0
26
a3
0d
f6
b3
9e
b5
99
3c
d7
ed
bd
f0
47
07
37
3d
c8
2d
9a
56
3b
e3
b2
4f
e3
97
24
4c
77
1c
cd
a8
6e
ec
2d
ef
5d
8b
83
42
f4
c0
0a
5f
f5
6e
18
9d
46
b7
ee
91
10
b7
41
ac
80
55
22
2e
60
0d
42
51
14
4b
cc
81
92
e3
82
44
75
6f
8a
d7
e3
21
a5
c8
60
b0
c5
c7
ca
09
5a
e2
d7
e5
be
07
a6
d5
59
41
7c
20
63
29
c1
c9
ba
07
ac
7a
3f
63
56
57
fa
9a
b1
77
1b
84
ba
e8
28
fc
4a
7b
ae
5a
8f
55
f4
81
00
a5
c8
f7
70
f0
8d
ea
e4
aa
9b
b9
56
e5
72
ae
a7
ad
de
36
8c
67
3f
c1
7e
bf
e6
e3
f0
72
ec
ae
44
d0
02
27
9a
e5
18
b5
f1
58
6e
f5
eb
a4
8f
46
83
8e
d9
81
93
69
d4
9d
f0
14
98
bf
59
0d
53
10
1f
fd
e4
7d
a2
da
2b
07
34
7b
2a
88
87
cd
48
09
02
09
38
d2
b9
6a
f1
f3
90
a1
20
72
b7
44
0e
a7
43
79
9f
52
d6
c0
a2
0d
ae
bb
59
49
22
7b
05
8b
23
79
94
a6
d1
53
66
fc
c1
bd
05
8b
e9
24
0d
62
02
a3
b6
3f
e1
f1
32
1c
cf
38
48
d2
c7
7e
ed
75
c4
ec
2c
ab
34
8c
b9
0d
af
42
b2
99
d1
ae
a5
f1
c1
34
75
22
20
bc
6a
24
94
c0
a8
5f
f2
0b
89
d2
64
63
71
ea
c9
2a
da
c7
a6
2e
de
8c
46
28
cc
d4
5f
19
f6
4d
31
63
d5
19
f0
53
e6
b7
72
a7
0f
2e
0e
49
21
a7
39
a8
4b
9f
87
70
e6
66
b0
cb
e3
b0
79
ac
0c
86
c9
f8
0e
67
b5
c7
f3
e5
62
c1
60
9b
1f
5f
7a
4d
04
8c
de
b3
a7
f9
8b
61
b8
89
3f
15
d7
d8
ba
eb
52
85
e0
5e
39
1e
de
89
92
29
c7
29
72
8f
ae
09
bd
8d
6c
e3
5a
bc
6b
c3
ac
4e
c3
00
2f
b9
95
60
3f
96
ab
83
f0
47
f6
6d
3e
d4
ee
f5
1d
07
c7
41
a4
90
30
69
69
d6
53
58
70
9c
a9
ba
4d
a4
6a
73
6c
a6
35
70
e5
7b
4e
d3
ad
04
8d
8c
00
e2
8f
46
29
b6
f2
ec
d5
43
7c
73
7c
0b
32
12
ad
90
0f
16
db
71
6d
a1
19
47
e3
b0
b0
5b
d1
66
eb
e9
1f
7c
9c
17
a6
1d
11
13
08
dc
74
22
5c
4d
e5
a8
17
fa
1d
6e
db
2d
0b
90
21
6e
38
fe
ae
7a
58
08
9a
98
0d
cc
42
eb
7b
5f
9f
de
b7
21
2b
6e
5b
29
39
e2
27
92
fa
ef
fe
82
cd
29
bc
82
bf
33
12
0a
1c
a3
ad
54
1d
d7
6f
fd
41
6a
3c
8c
5e
cd
4c
9d
26
f9
fb
cd
cb
86
72
15
1e
ee
c3
3e
c3
a3
a5
30
52
40
3e
7c
12
6e
3a
4b
39
cf
fb
d1
9f
c7
a4
17
a1
b0
1e
76
8a
bb
2d
51
02
da
3e
40
8a
b3
93
eb
60
7f
a1
40
2a
f1
cd
82
bf
ee
98
08
d7
d9
ce
73
78
7c
96
19
27
ed
f5
a7
aa
0f
35
95
8b
d9
52
04
42
22
1f
ad
55
96
8d
4f
01
1f
ca
6b
0f
1f
d3
8c
94
0b
25
08
11
f9
4e
2d
9a
cf
5f
7f
de
74
07
06
67
89
ef
c6
0e
eb
a3
f1
10
32
55
d9
72
9c
01
69
1d
79
5b
f9
dc
58
2a
4c
64
75
65
d4
5c
3b
b8
16
e1
a4
ef
74
b8
a4
29
42
72
6e
94
f7
b9
fd
80
49
0b
71
d4
a1
34
ee
f1
1c
7f
4e
ca
a1
93
37
e7
ac
f2
a6
09
f1
6b
1c
c0
a9
4d
93
e0
c1
82
e4
ac
92
1c
fe
88
14
2e
cf
ee
68
33
fd
f6
88
b4
66
e4
9c
29
ea
6e
c5
c3
58
99
92
7b
32
a2
65
a7
f2
77
91
e4
da
17
04
14
b7
a3
36
5e
0f
72
eb
3b
a0
81
fe
df
fb
ab
17
6a
f8
26
3c
ae
5c
9d
7d
a2
1d
5b
72
08
1e
9e
08
c2
b6
51
6f
81
95
b1
f7
72
18
82
a6
6c
b0
5f
0d
be
3b
3c
4b
b4
a2
fb
78
52
5e
f2
01
12
91
8a
f0
55
30
a6
1e
12
51
12
5d
50
93
8b
56
eb
e7
33
bf
4f
b0
7d
94
74
7f
ce
f0
95
46
0b
bd
4c
5d
18
77
d0
49
6a
a2
09
2a
48
d6
2c
93
86
f5
23
75
79
8e
df
b6
51
60
12
2e
24
ae
0e
79
88
a0
b8
21
0e
1b
ea
bb
f2
58
18
38
b4
44
82
71
89
fb
59
08
4b
fa
bc
67
b0
62
91
2d
9c
19
7f
21
05
26
75
87
4b
79
79
ed
76
3d
43
1b
a0
4e
cd
b4
b6
ae
29
d1
62
3e
f8
58
33
6c
63
63
b9
c5
69
3f
e3
7f
92
74
3e
30
e4
2a
c1
39
ae
d7
2f
75
17
9a
1f
cd
3f
a0
37
d7
d2
b2
72
3f
5d
92
64
ce
1d
1b
dd
4b
f3
3c
9b
85
39
5e
fb
09
58
da
f6
ba
78
f6
6e
fb
a5
6d
b1
9d
48
9c
97
11
be
20
46
52
e7
60
e9
a3
f1
8c
33
70
e2
2c
0d
1f
dc
d1
a2
e3
93
ce
a0
f6
39
59
cc
fb
9c
30
fb
26
30
55
68
73
25
a1
7e
33
79
40
22
ba
47
29
5e
29
a7
ba
bd
b2
23
b9
5f
a0
51
43
00
08
a9
d1
87
41
04
79
4a
ab
f2
f8
ba
48
be
b5
d1
66
d7
8f
f2
a7
0e
9e
ab
16
10
00
5f
53
2d
ce
f9
b5
fc
24
32
ab
b9
25
db
6e
10
36
c4
6f
4e
b2
a2
72
69
ac
09
96
4c
f6
22
2b
f5
7c
bb
9f
5b
8b
f8
44
5b
1b
e7
a7
ea
06
b1
74
de
7c
b3
24
93
96
c7
0a
78
4c
24
bc
53
53
dd
ef
2a
35
45
6c
49
47
47
42
c6
e7
ed
4f
1d
88
6e
01
3b
9f
ac
6d
43
71
db
87
12
63
d0
c3
ec
68
94
17
02
1c
fa
20
0d
e3
d3
ec
da
4c
6a
33
ae
7a
13
25
4d
e3
e1
8e
50
a3
bc
5a
32
b4
fd
9a
cf
d6
23
99
34
80
0f
6b
d4
2b
cd
91
79
b2
61
36
c0
ed
40
1b
75
b0
59
7d
db
70
03
81
47
e3
8f
23
4a
1c
48
92
b3
5a
5f
0c
4a
c6
56
80
3f
6c
f9
4d
72
9c
dd
fa
7f
8b
fd
f2
38
1a
7d
0c
b1
00
17
9d
9b
5f
c7
a5
08
a4
3b
96
bb
1c
8c
db
af
59
09
80
4c
b3
30
a8
41
ae
5b
14
17
55
72
11
f3
cb
84
6b
74
3b
e1
ba
3b
1b
a4
8e
bb
47
71
16
96
70
24
51
b5
e4
b5
a2
1d
b9
74
2d
47
67
5e
80
b6
bd
45
f4
18
a4
e0
e4
ad
fd
df
3d
34
ee
ae
c7
2e
d3
ad
56
b3
12
12
36
5a
73
06
cf
26
ec
7c
2e
79
67
19
e8
d5
bc
22
e5
86
41
c6
b1
c5
32
36
5e
49
29
97
8d
ee
ee
0f
e8
00
c7
91
bb
79
ba
68
b1
1f
32
85
3f
aa
d2
80
1d
78
e7
1a
b9
53
10
bb
42
e5
40
c2
29
7b
d0
23
76
7a
cb
4c
f2
2e
99
c8
fb
65
1a
cf
d0
6f
c0
f8
b0
e7
f9
21
e7
4e
03
39
75
62
91
72
8f
df
56
f6
2d
85
c0
ce
32
d2
40
6e
69
a7
16
a7
8b
bd
51
97
fb
c2
14
c1
19
4e
c3
84
0f
21
0c
76
57
10
7a
0b
93
cf
21
bc
61
8e
68
7f
02
e5
6a
cc
15
a5
63
eb
94
7f
c7
de
49
75
bf
d8
62
45
e0
b3
5b
bf
ef
3d
bc
13
dc
70
04
34
51
f3
d1
3d
b7
49
fa
4c
3e
9b
06
9b
bf
60
da
07
4b
1e
76
06
46
eb
a4
3a
e4
68
eb
1d
0c
14
59
3a
68
75
71
71
9a
5c
2a
95
8a
cf
43
72
1e
b9
3c
19
8f
bd
a8
0c
2e
a3
a7
dc
e1
89
f5
4e
85
83
be
c2
56
8b
cf
4e
cb
e0
14
7e
bd
e1
23
f0
a0
b5
fa
ba
d7
62
a9
46
6c
e7
1a
75
9c
75
8c
94
9e
92
28
e5
83
12
97
f7
7b
38
70
7c
5a
f7
4a
2b
aa
57
37
d4
f6
4d
98
8d
d9
71
c2
87
34
42
2d
64
c6
ae
0d
04
5f
48
00
df
d9
20
b5
5f
3c
4b
50
15
d2
b6
87
ad
c8
68
cd
66
cb
1a
2b
3a
5b
28
e9
d0
50
6b
1d
0a
f2
71
c7
fa
99
a7
f7
4a
83
70
70
8b
c0
67
2b
18
62
2a
eb
c7
cd
96
d7
c1
f3
d3
e5
10
a0
15
a7
61
d4
4a
cf
a0
a1
ca
74
b0
f4
be
8e
14
95
c2
c3
13
f8
30
c2
59
b1
3a
58
7d
91
8b
f6
72
10
50
e3
ef
4e
28
1f
85
33
5f
75
ab
a2
6c
b1
81
b1
9f
d2
67
95
4d
23
7d
db
3f
52
b2
05
52
ed
eb
75
71
59
e6
64
e0
17
39
c8
65
c4
d5
67
38
c0
12
c9
2a
b9
c0
cb
dc
c0
f7
e6
c0
67
b5
84
e8
27
a8
52
4b
ef
2a
05
71
f6
3d
39
b4
4d
f6
6b
7d
03
ae
a8
05
0d
89
47
8f
7c
c5
1e
e6
00
a2
97
dc
27
b3
0b
24
82
97
63
85
3f
d7
ed
62
fa
60
f5
69
40
a3
be
f6
af
92
a5
93
a6
eb
6e
c3
a3
cb
99
e5
82
6b
57
25
9c
c4
ef
1e
36
b2
4a
1b
e8
94
b6
79
e5
2f
e2
02
f7
f5
7d
cb
af
f0
a7
9d
d7
89
69
18
eb
3f
fd
3b
33
67
9e
98
1e
e9
34
c9
92
c8
9b
db
67
dc
a1
1d
88
2c
c6
ed
08
59
b0
f0
7c
cd
15
20
f8
b4
db
23
6a
d5
cd
0b
3f
69
52
26
ba
6b
8c
12
d6
ca
8f
de
d6
3a
f0
cb
45
b7
75
0f
4d
17
e4
15
f0
da
27
fe
a8
b2
27
64
e0
f3
99
04
5d
78
df
4e
bc
f8
15
ba
46
5c
0e
ca
3b
45
2e
d1
d0
bd
9b
34
86
a2
ae
6d
93
56
3a
88
23
57
1e
0f
c8
82
07
66
fa
ef
91
66
b1
48
8f
13
3c
e7
48
f2
ab
f7
c8
2b
cc
42
6c
35
e0
27
b8
7c
cd
c0
a9
92
a9
b8
ed
d8
14
83
ee
f5
06
2d
a9
3f
06
e6
4a
34
b2
eb
15
a5
a9
e1
7b
96
f7
8e
55
fe
b7
8a
d3
4b
03
cd
e6
c9
be
fc
12
6b
7f
af
1f
2e
57
be
ad
a9
69
b8
40
bf
45
a9
4b
b3
0d
39
b8
01
ad
04
0e
54
40
2b
44
4f
23
ec
cf
77
98
a2
95
b9
77
fb
67
b5
15
03
60
33
56
35
e0
57
c2
e2
2f
84
10
f7
6a
1b
9c
c9
6e
a5
56
13
66
6f
11
80
75
d8
d1
a4
bf
a5
08
1f
16
aa
dd
02
9d
eb
fa
70
f8
bc
f2
8c
a8
35
7f
cb
f1
a1
b8
af
a2
66
de
96
b5
30
36
07
24
f2
85
d9
30
c5
8f
ab
dc
15
45
e3
9b
5e
38
c0
9b
c9
db
41
cc
b5
6b
77
9e
87
5d
07
70
04
41
bc
96
2c
b4
28
95
3f
e5
ef
7d
7c
5f
75
7c
99
cd
e8
49
f5
4e
b3
0b
4f
70
db
fb
9f
4d
7e
03
b1
f7
ef
bd
c6
d7
c8
98
4c
ea
05
8e
23
52
cb
c9
0b
3c
d1
fb
cc
76
db
93
52
33
df
cd
9d
10
ea
94
d6
20
b4
13
05
67
82
31
19
61
9f
0d
dc
37
53
4e
74
de
fd
76
92
96
90
f9
5f
fe
01
a9
9d
90
34
3a
7c
d2
d5
03
ea
7e
31
1a
62
bf
1c
8f
7c
1f
dc
73
ac
04
8c
f4
94
7a
c7
13
a6
ec
03
16
b8
b4
65
29
b4
9c
dc
77
4d
f6
e8
6f
79
e5
b2
5c
a6
d2
cd
24
00
a7
30
28
4f
bb
5b
f9
ee
a2
be
61
2b
b7
2e
ac
e9
bb
8f
2f
53
bc
e0
f5
d7
d5
e9
2c
32
1d
5d
c8
7c
0e
8a
8a
de
59
09
07
ee
95
a1
8a
17
49
29
4a
65
15
2d
29
f0
d2
d5
23
86
85
0e
88
56
2f
df
48
f7
1a
89
a8
a7
26
02
79
54
26
2a
8e
53
37
ac
03
9c
68
9a
94
d2
2b
2a
71
2c
9b
79
6a
6f
e6
af
36
52
27
67
88
70
30
22
40
d4
a6
cc
2a
ac
b8
93
5f
9f
e1
ba
16
bb
c1
b2
be
50
ec
3f
93
1f
77
8b
35
6d
8d
b1
06
db
9d
a5
3a
57
cf
e9
03
46
e7
84
92
95
bd
32
9d
67
81
24
14
e4
f6
50
64
33
6b
9e
2d
d8
d4
aa
de
a0
9f
87
0d
3f
e6
b7
1f
35
74
5e
b1
f8
8b
98
b8
10
4a
bb
94
77
54
e9
6b
f5
55
9b
7f
3a
6f
ba
c0
13
18
38
2d
88
6c
bf
5d
33
ec
a8
b0
92
04
9b
57
bd
c0
95
27
dd
15
50
82
ce
3a
cf
14
75
1f
ed
77
7f
3b
8b
43
dc
ee
22
be
61
e6
1f
3b
52
f7
5d
e4
b7
15
8d
c9
4b
6d
73
97
9f
41
10
b5
f9
0f
5f
df
1c
13
c3
5e
1a
0d
6e
05
f9
ca
aa
7e
9e
6e
b7
96
26
69
fe
92
2d
91
77
ee
20
52
15
e5
8c
c4
eb
2e
b9
b0
5e
de
29
4a
7e
33
de
f8
7b
ab
34
b1
ea
26
97
6a
79
5e
0f
0c
92
d9
c7
4b
86
30
d3
da
08
69
1e
b7
31
5c
83
df
03
be
1e
fa
21
36
db
84
05
34
67
54
b3
0e
5d
b0
56
c9
8e
d6
f2
aa
4d
7e
0a
6e
eb
3a
3b
b9
cc
40
90
c4
a5
d9
74
d5
94
7e
93
bd
4f
a1
58
c9
30
24
72
4b
d0
e1
3a
9d
8e
c2
ba
8b
44
24
87
2d
ac
7d
a0
e5
e2
1f
55
be
bf
2c
df
bb
d2
7d
7c
00
70
2a
78
3e
e5
08
7f
db
2d
a9
ba
95
92
01
f8
00
63
95
82
c1
94
5b
16
80
05
ca
6b
e3
12
6e
7f
d0
19
71
be
41
91
3a
8d
f3
ac
7e
b8
1e
4c
b1
95
0b
a6
cd
08
02
96
a0
cc
57
5e
7d
18
27
45
cc
39
f1
78
3c
d0
da
09
16
c2
39
90
31
a0
87
05
34
ba
16
3f
66
bd
2f
bd
c0
c3
4f
05
15
27
da
5f
4f
46
73
16
74
72
83
51
83
4b
66
77
58
d7
fb
c8
d9
23
b1
7b
15
06
9d
93
9c
ba
9b
22
46
f0
cf
ec
91
67
7e
35
2b
2d
33
81
50
be
be
97
33
a6
bc
c7
3e
02
45
f4
ba
33
7c
de
04
12
1a
c6
bd
ab
e6
20
53
a4
9b
3a
63
e6
78
be
b4
2e
c4
4c
2f
06
7f
08
46
02
64
01
0c
62
4c
d7
2a
d1
ce
73
d2
35
37
92
29
f1
d2
72
56
7b
99
f3
d8
96
f1
d6
71
d6
24
82
79
83
80
75
0e
53
cc
5a
fa
f8
87
b8
91
7c
09
30
4c
7e
6d
95
f6
53
40
63
57
79
48
06
22
07
ab
2f
40
04
9a
e5
7b
69
f1
59
ca
24
73
b5
74
97
65
19
f4
11
b5
7f
a8
e2
3f
e4
74
54
27
b8
eb
8a
ae
0c
93
b2
71
04
88
f2
4d
dd
fd
13
c8
6c
1f
55
8c
d6
b1
e4
a5
b8
b5
54
89
b4
30
7e
c9
c6
77
7b
6f
a2
27
e3
c8
43
e7
27
3b
0f
c3
13
ad
b1
dd
fc
35
9e
f4
a7
7e
03
a9
b2
88
57
1f
5d
fa
19
e5
ea
fb
82
12
b0
20
4a
b0
6e
d3
93
a6
98
c1
3f
94
ec
60
cd
a7
96
49
20
33
43
da
0b
8a
45
5a
c5
26
fc
f5
87
e4
48
bb
5b
8b
2e
55
ab
9d
52
bc
7c
f4
27
53
d1
1f
e5
a4
15
34
d3
5c
bf
f4
ea
6b
23
d6
ee
5b
01
f2
2d
f8
dd
95
4c
d4
58
3b
87
1d
4a
ab
d0
40
69
a1
1c
6c
b8
09
5d
14
ba
7c
3b
10
04
fc
1c
50
61
4e
