2e
71
e6
54
12
ec
9f
17
2b
78
af
98
07
0c
43
0b
3e
1d
64
05
0d
b5
6c
34
81
42
27
43
12
2c
00
bf
ab
e0
12
36
6a
a4
c3
b0
2a
d0
ce
fc
e5
96
61
53
7b
35
06
cd
fd
20
0e
05
a4
3b
11
03
d3
c5
f0
fe
15
95
a5
ca
7d
12
c2
f4
a8
28
59
e6
de
41
61
bf
ae
3b
ad
7d
37
9a
ee
68
99
8e
3b
80
e4
ac
13
76
c0
60
ac
38
8b
0e
7f
61
b0
92
76
f2
dd
80
51
7f
e5
33
b8
b5
56
5d
40
88
fe
b8
25
b9
1a
50
85
1f
b7
ca
7a
73
04
df
88
8b
65
1e
13
0c
02
6b
4e
a5
5b
13
34
cb
fb
0d
dc
a2
c4
07
d9
f6
e8
e8
b3
ae
cd
15
4e
fd
57
0a
15
dc
e8
d9
00
eb
ab
d1
1a
05
24
62
2a
40
cc
36
e4
fc
db
40
b6
76
3b
57
12
89
a7
ed
76
9d
70
49
53
26
bd
68
f0
7d
53
c5
44
dc
0a
c9
d2
8d
3a
6a
f3
b3
1a
1f
4d
5b
18
0b
75
a2
d4
4d
36
ca
47
43
cf
b2
be
f6
92
0c
74
46
bf
1c
8d
f5
47
86
fa
7c
86
b8
81
ec
f3
7b
90
c2
b6
2d
2f
57
98
95
7e
db
e6
94
81
ac
3a
0a
9a
df
4d
62
39
99
cd
48
7f
75
92
27
ed
ae
23
c6
be
f7
f2
6d
2d
71
c3
fc
26
44
31
b2
24
c9
7b
7a
90
d6
dd
78
88
27
7d
f9
e5
da
af
35
df
2d
3a
98
98
1e
c9
83
8a
0e
57
fe
d8
26
26
a4
c2
92
43
16
38
49
af
b1
7c
cd
c4
b4
a4
14
ac
16
5b
7e
a5
6b
aa
31
e4
4f
4b
d8
25
fd
f5
fb
3e
2a
d3
34
86
b2
83
f3
c9
66
a5
c6
7c
e9
bc
e1
c4
67
75
85
b3
04
85
67
24
15
59
fc
8b
0f
84
72
4c
1a
4d
86
97
06
ec
03
20
1e
fe
cf
10
cb
e2
35
06
9f
fd
3d
63
6c
f1
4d
80
82
c6
f5
1e
f8
15
5e
dd
83
f7
6e
48
b0
18
c8
1f
58
c9
16
e1
ae
27
c4
01
65
fe
96
02
e6
db
8f
b1
cb
59
9e
f2
dc
39
f5
18
9a
69
8e
93
db
cc
e6
d5
68
8a
4f
a1
14
66
40
e0
99
d7
15
8f
93
14
8a
7b
db
c8
08
7f
45
6b
de
b1
76
7e
39
04
5a
1f
14
a9
6f
9f
a5
a0
38
88
4e
fd
e1
c0
2d
9a
53
9b
b1
74
7a
82
da
94
2b
83
1c
f7
d0
ad
03
d7
a2
e6
be
91
4a
6f
d2
78
39
5f
d0
e0
81
d4
be
12
f0
70
82
62
3c
34
97
ce
28
44
85
da
22
50
e8
c2
2c
b1
bc
2d
19
78
19
7d
e3
9b
28
51
79
58
ad
e2
39
c9
42
e2
2d
62
33
3e
6a
63
a8
88
72
b1
72
bf
ad
9b
9c
14
fd
8e
75
4e
de
76
46
9a
54
49
6a
39
38
c8
c6
a5
e1
4b
1f
47
0b
d6
d5
7c
7e
28
69
0b
be
e9
12
25
2e
aa
b7
f1
89
cf
ed
93
d4
1c
42
65
78
36
c5
01
ca
b1
2e
6e
7c
a3
f7
34
46
6b
e7
f2
da
43
a5
43
40
8d
b5
8e
43
40
23
e9
25
ac
dc
ee
b3
97
6e
fa
af
a8
d3
2b
c3
49
90
50
5e
6c
be
6c
ec
24
ae
d2
f0
d7
70
90
f4
ef
da
fb
aa
e7
64
be
bb
40
f5
7a
53
22
a3
19
12
39
02
89
50
96
3c
11
8d
24
b4
7e
62
fd
e1
ca
e6
cd
62
81
60
af
c5
64
b1
b1
4a
4a
4d
d1
ee
9a
d3
c5
39
d2
7c
88
6a
c7
38
cb
31
56
f7
86
2c
13
32
55
e2
dd
4c
6d
c9
71
18
9a
4e
91
6c
e7
1c
e5
9d
e1
04
e2
10
ab
d8
39
51
a6
1b
04
be
ec
a2
8d
35
24
65
b4
f2
5e
ca
8a
12
b3
3c
c0
17
6f
07
6c
6b
49
34
c2
42
8d
d7
9b
2b
92
ea
10
95
17
77
7e
a4
0e
f3
0d
93
e0
53
94
61
62
b8
79
f7
75
54
65
cf
b8
92
02
78
88
45
35
53
4b
b0
6e
8b
eb
a5
3b
94
70
29
f6
97
88
42
f8
98
25
9b
e6
14
61
c9
d6
71
78
55
c1
22
d4
db
2e
f6
b9
c7
9e
6c
48
1b
fa
0d
1f
0a
c0
74
30
77
51
51
46
c9
32
ee
67
98
07
48
3b
c7
62
fd
b0
59
6b
7b
47
3a
31
c6
2d
b0
53
80
7a
81
f7
db
1a
e8
b2
02
95
12
5f
46
39
9f
29
2c
a7
cd
a5
e6
d1
aa
b6
f7
15
d3
85
96
2e
88
da
3d
cd
80
19
39
d7
8a
8f
1a
c2
94
66
d6
2e
fa
d8
7e
65
3a
ac
84
0d
a3
dc
12
31
90
18
f1
c7
7c
26
8e
4e
0b
c9
4a
72
89
ae
98
6e
2a
73
d6
1a
0f
d1
14
be
e1
02
1f
d7
e0
58
57
3a
0f
a9
a2
20
97
fd
eb
a0
66
56
82
e7
92
8c
d8
b2
47
18
92
a5
6f
e1
5c
ae
26
02
1a
a9
a3
d6
67
e6
7e
ce
a2
6b
0f
f3
8f
44
69
4d
65
d5
15
63
7f
dd
63
cf
8f
0b
23
3d
f8
c1
68
58
d0
9c
a4
f9
f8
da
88
33
98
d7
96
b1
a2
2a
a8
1b
5d
97
f5
5e
10
b9
cd
b3
a9
39
af
6c
a8
aa
b0
91
c8
35
ca
d3
aa
da
11
16
99
35
d6
c9
5a
f4
cb
0d
c4
5d
56
4e
f4
81
2b
f5
31
9f
0a
bc
94
4b
58
f7
d2
63
19
27
fe
fa
85
57
8f
f1
8c
85
25
c1
85
f4
71
77
5b
e8
6e
d1
cf
b7
5f
02
0b
b4
89
1f
e7
76
84
11
2e
95
64
4a
8e
ec
ee
3e
fa
65
35
aa
53
f4
6e
c6
a5
37
14
29
35
0d
ee
b0
89
08
31
d3
0e
7e
3d
5f
63
d2
90
59
83
16
f7
71
9b
ac
9b
f4
fa
7a
8d
81
46
e8
db
1c
61
42
30
ce
42
2d
75
3a
d9
cc
20
b6
39
ae
51
90
5e
e2
7f
2d
2e
23
34
6c
60
97
cd
f9
22
f4
3a
44
98
f2
f6
1a
ca
7c
8a
c9
6b
b2
2a
66
1a
b3
07
0b
ab
e7
f5
82
e5
b0
16
e0
f2
63
f2
44
5c
ea
8e
18
69
9a
73
3f
a5
3c
1f
8f
1a
8f
6b
a2
a3
11
ab
df
a1
32
28
39
3f
34
3f
35
5c
c7
34
c1
dc
51
76
3f
06
f2
09
2c
f4
a4
b7
33
aa
30
54
62
f1
82
a4
3b
5f
a3
a3
77
62
a4
06
8f
9c
24
38
b4
01
6c
6c
ad
9e
f8
1b
c7
7a
03
ac
01
37
c1
c6
22
3a
ec
c8
bf
de
cc
b2
99
22
94
b1
6d
8d
66
2e
e7
dd
83
9f
36
bf
0a
37
36
9a
e4
1d
b3
92
f0
6d
a2
16
58
e5
5f
ba
b6
9f
e6
30
d8
e5
ec
55
69
30
00
e1
61
47
b5
22
05
62
2e
bf
51
91
5b
09
b9
82
3b
28
95
6b
a2
07
f3
b3
8d
fd
55
70
8e
82
00
3f
06
14
c0
e5
5f
3d
b9
7c
c8
43
7e
d9
52
10
76
08
00
3d
37
d2
4a
6a
7e
43
21
ea
4c
90
d7
85
38
d4
95
13
b2
23
1b
2f
6b
a9
22
46
91
47
20
6e
a6
5b
3d
b8
ea
ca
d8
c9
a4
60
3d
dc
7c
19
1e
3f
46
fc
98
fb
03
f5
39
b4
71
d5
06
29
5e
d1
91
22
74
ba
8c
6b
0e
34
42
fa
c8
0b
6c
6c
cd
4e
c6
0a
40
10
a3
d9
99
12
d8
6a
d9
62
ad
48
b7
ac
2d
c2
f4
4c
ac
63
18
22
bd
d1
1f
9c
54
91
07
36
38
ea
f6
e5
99
59
a0
16
86
32
15
2e
48
d9
16
70
26
fc
47
f2
57
85
08
b5
5f
b2
69
fa
17
5d
39
21
c5
94
2f
dc
ba
f8
cf
45
81
a0
41
5d
4c
18
5b
9f
a0
7e
b4
33
64
9c
0e
77
7b
69
20
16
d0
d9
48
cc
7d
3b
89
73
20
51
b4
95
1b
5f
12
d2
4b
02
5f
7e
98
51
f4
6f
90
35
ad
13
63
19
6f
46
6c
90
c3
07
b0
6e
c7
77
ac
87
e2
67
53
df
9d
6f
4d
f8
92
4e
af
60
7b
a1
06
e7
d1
2e
62
88
25
d7
e3
37
fd
1e
8a
cb
b0
5e
37
4b
02
44
08
82
1b
32
f3
c2
e0
95
e6
46
e8
c4
f7
e8
e5
59
44
15
27
3d
79
45
9a
0a
d8
01
7e
b3
f7
ec
d9
20
99
52
a8
eb
63
50
03
65
cc
44
20
34
bf
2d
93
c6
a8
da
d4
37
95
77
6e
3c
a7
3e
0c
65
c2
db
ef
5d
80
61
92
18
f7
96
ce
a5
8b
00
a4
cd
58
0f
f2
f9
17
01
7e
cd
f1
b6
78
88
8a
c3
56
cf
09
a0
12
ae
04
fc
eb
e7
f8
1e
3a
12
b8
65
51
7d
0c
1e
e5
a2
b3
e6
70
51
90
f9
3b
06
3d
76
67
a0
4f
c2
05
6b
6c
e7
5d
a2
a9
99
6b
3a
db
32
08
0a
4b
c2
1b
10
24
e6
3b
58
37
35
9f
56
4e
c6
4c
20
8e
6d
c3
bf
db
34
67
f7
4c
2a
8f
e4
3e
60
40
79
5c
70
a8
1c
2a
14
89
03
9b
12
ba
67
ad
04
b2
af
10
be
b9
4a
c6
fd
1c
24
80
7b
5b
87
3f
e3
c9
2e
f1
09
06
22
bd
cb
83
2a
52
52
e8
32
d4
df
a4
83
79
a1
61
95
c5
c0
80
87
8e
53
d0
44
bd
5d
45
9f
2b
de
71
95
af
f9
0a
a6
b4
f4
4a
9d
df
c0
5f
0b
ac
c5
08
5e
57
48
f2
0b
9e
c1
79
a4
6d
48
13
f7
df
ba
ad
75
e5
27
b0
cd
58
30
37
83
c3
df
c7
a5
bd
ac
80
e6
d0
20
2a
2b
00
5d
d7
9d
76
6c
f9
bd
5b
cb
30
81
78
27
ad
fe
03
50
b6
1f
bb
6f
56
8e
74
53
99
bd
70
5d
d7
7f
ad
34
93
b3
d0
7c
45
b7
59
d0
b8
43
1a
a0
1a
74
9a
0b
22
87
20
e4
51
15
35
36
2a
16
2d
2a
97
bc
69
89
94
1f
d6
5e
90
d2
af
2b
15
76
92
86
91
c6
f5
28
0e
3d
e2
40
08
29
7d
84
0e
bb
4e
cf
78
c3
39
b9
2f
8a
f2
d0
5c
e5
55
bd
f8
51
af
fb
5f
66
fb
8b
8b
67
9c
0f
7f
ea
c8
06
a9
51
b1
7e
84
6d
7e
87
17
82
f5
8c
dd
82
d0
2f
62
2d
59
88
c7
81
92
8c
42
6b
3c
f2
04
a7
f8
57
a9
15
dd
a6
8a
8d
92
05
93
24
88
ae
3a
e7
8d
c6
2b
84
b6
dd
9f
fa
ba
10
90
f2
3d
f2
e2
cf
ab
e4
70
27
25
3f
d9
d7
54
78
8c
3e
0d
e2
84
35
3b
b8
eb
9d
5b
c4
b7
f8
71
2e
aa
a4
1f
5c
f7
e9
8a
c4
12
fc
2c
d5
6f
15
c5
87
2a
d5
37
42
a2
d5
34
0c
c2
93
67
94
93
6d
b9
da
af
33
00
4a
fe
c6
48
fe
c3
0c
93
57
02
07
8f
01
97
b4
97
94
30
b9
a2
03
68
03
96
2e
60
b3
13
bb
f1
7e
97
4e
0e
0e
ef
ee
18
91
79
7c
55
dc
29
51
41
9b
61
aa
b0
e9
d0
8c
9f
57
2b
14
0d
53
5c
53
55
2f
c6
3a
37
0b
96
b2
c1
ac
a0
5d
93
d7
02
ba
ac
4c
4c
c4
b2
be
ef
d5
19
2a
c9
cd
27
16
fd
ce
ca
25
96
d3
76
ce
23
41
68
c0
66
b8
73
e6
78
9e
f7
7c
6e
e5
16
aa
87
85
e6
2b
6a
26
1c
3e
2a
01
c5
00
2c
af
9e
15
1d
da
d2
3f
f1
85
93
92
f2
e4
16
1f
6f
f2
16
ae
49
62
bb
64
e0
c8
94
23
bf
1e
25
a5
54
ab
50
f1
36
03
89
b6
93
8d
e4
e1
61
bd
5a
a1
ae
eb
ad
a9
03
d9
66
63
2c
f1
01
97
35
3c
04
b6
a2
fc
8a
aa
89
7e
cd
0e
21
43
93
6a
02
39
97
9d
99
30
52
d0
40
e8
69
de
67
06
e4
1f
fd
24
02
e5
4a
a7
7f
bd
27
55
b2
c0
ab
8e
58
ed
91
f6
54
a2
b1
fc
ec
1d
f8
01
51
40
0a
5e
75
bf
ed
f9
bd
54
03
bf
ad
97
94
8b
98
e9
8e
a9
74
9d
42
3e
9d
ed
2f
72
24
71
ca
27
51
73
5b
ac
8e
39
55
91
6b
9b
1d
56
84
ef
20
6d
ee
ef
73
86
c0
19
f7
4f
c4
51
f1
00
08
ce
e7
b3
b5
41
fa
2d
29
32
ab
a5
2a
7b
02
32
9d
90
15
c5
8e
9c
9e
85
07
18
c7
3d
21
7b
4b
06
86
91
f4
75
94
d7
2e
90
7b
b5
67
b8
d4
dc
b9
aa
94
cc
de
6a
f7
f8
11
a8
83
13
94
93
ad
e3
c1
e5
3f
e9
ad
25
fd
3f
73
07
ad
af
fe
fd
35
7e
17
63
20
fb
a6
e7
47
36
32
bf
d5
c4
e0
18
ae
8f
8e
e6
56
0c
0e
a6
23
b9
61
79
d5
86
4d
0d
1a
ed
96
57
47
0a
6c
cc
81
06
d4
bc
af
38
22
92
a5
55
e8
20
93
59
33
a2
03
d1
9d
03
d0
34
19
5e
3c
26
ca
8c
e4
7b
23
fe
a8
33
fd
43
f0
65
ca
d8
c1
27
7d
7b
30
ec
fc
ad
aa
8f
f7
2c
4d
f8
db
4b
88
a1
45
f1
e7
9c
3b
91
6f
7a
5d
71
5b
dd
ca
bc
ba
97
e6
b8
79
c1
96
31
05
49
83
1f
4f
7a
e5
48
a2
35
ab
f3
f3
3e
e5
6f
bc
80
f1
74
52
a6
5b
52
e3
57
63
03
37
b6
06
ec
70
36
b5
41
66
f5
32
19
4d
0b
1d
6d
37
30
3e
cb
d1
a7
48
f9
d5
54
fe
d1
97
4d
8c
1f
26
0e
f5
56
aa
69
4f
20
32
24
84
49
7f
25
e3
c5
2b
68
69
9f
4c
05
f8
88
c5
40
51
2c
d0
a7
50
f6
42
35
04
5d
01
db
de
04
ac
77
9b
bc
53
e2
4f
9b
5e
87
09
2f
69
a1
b6
e9
4d
ee
d9
7e
82
69
67
a9
58
ba
cf
e3
29
e3
b3
98
f0
6e
b9
a6
64
4f
41
f0
a3
63
1b
1b
b7
e6
2a
06
07
3c
11
ae
0c
79
14
47
d5
08
35
21
66
8d
ab
2d
03
4f
6b
bc
c0
07
79
57
d6
37
da
7b
8c
3e
09
33
67
3f
c2
65
5f
f6
93
cd
89
33
a3
77
be
d5
cb
58
ac
39
1b
e8
d3
12
ea
4a
a5
41
dd
e3
ea
79
a0
68
1c
ac
c7
a4
8c
7a
e6
ef
32
2a
a1
1a
5a
c2
84
36
21
9a
2f
16
62
c5
83
33
b7
a8
4d
ef
b5
f2
62
4c
60
f6
1f
84
66
0b
4c
03
67
f7
d5
7d
ec
58
1f
1e
c1
77
9e
7e
01
00
85
ce
3a
cf
bc
fe
f7
52
be
90
40
26
51
da
2c
4f
fe
20
c6
8b
36
6b
43
0e
3b
0a
d3
86
87
ca
fe
62
2a
7e
87
9f
60
29
4b
f9
77
8a
d7
e5
9a
31
f4
f6
a4
58
0f
ba
7e
e2
a2
7c
be
6e
b2
0a
bd
a7
9b
03
95
83
08
b9
06
e7
61
a0
dc
5d
f5
37
63
f5
ba
77
de
0a
5d
da
17
9b
a9
45
6c
4b
b6
23
09
2c
f7
f1
3e
85
ab
bd
1f
a9
77
08
e8
cc
97
28
35
95
7b
09
fe
ce
ee
56
0d
c7
26
2a
42
08
09
77
b8
23
00
00
43
00
2c
ef
5b
7d
e1
c9
bd
65
01
f7
2d
f6
72
5a
2a
42
17
a0
b6
58
67
70
f4
f9
99
90
7d
76
90
64
91
21
47
02
52
f1
00
02
34
0a
6d
34
89
aa
01
bb
3d
76
cc
14
e0
2e
0b
a3
c0
67
9b
69
6a
58
da
18
18
d5
28
96
6f
c8
07
d1
93
fa
61
80
b0
45
34
4e
53
6f
cd
10
8a
2b
71
a6
38
66
94
a7
4b
3b
0b
5d
8c
44
22
87
89
b9
04
35
40
6c
63
1e
2a
23
a1
e8
79
80
93
52
a7
7d
fe
0f
78
36
4e
d2
b2
45
67
28
4b
bf
f7
6f
1f
4c
39
0a
19
9b
9a
dc
18
c7
0a
41
25
33
84
2f
5e
1d
74
be
2a
dd
52
da
05
f5
5a
fb
6e
48
83
bb
78
61
56
48
28
7c
59
f0
92
d1
3e
20
c5
98
cf
81
8d
c6
39
63
25
df
56
9f
74
20
a4
7c
34
7c
5d
14
f4
41
ca
c8
3f
ec
e6
24
50
ee
5d
56
74
8f
b5
55
2d
46
43
bc
0d
05
10
cf
90
71
49
3a
00
dd
2e
90
0f
9a
e2
43
df
07
16
d1
61
76
d5
34
f5
49
4e
28
52
29
0c
7b
b6
b3
9f
41
bf
85
2f
23
de
47
19
f4
e3
76
8b
74
79
2a
1f
dc
71
57
33
b1
4d
05
ae
06
ce
0a
dd
51
93
81
5b
7a
58
b4
01
b8
e7
34
4c
b2
e6
e8
b5
0d
50
af
28
41
5e
6a
c3
5d
23
25
db
4a
7b
04
86
36
ef
63
50
46
10
f1
f3
5e
cd
e8
d5
13
f7
ae
34
1f
23
d8
74
5c
92
0b
2c
f6
7e
56
94
c8
a1
6d
a4
24
54
38
1d
ee
7a
65
81
0d
b8
06
c8
e5
38
bf
fe
13
0d
1f
30
b0
19
30
93
b2
cd
a7
c3
17
47
07
30
39
d0
a4
0c
4f
0c
43
51
d6
d1
4e
8d
23
ca
87
1a
97
d2
41
48
3a
22
ba
0f
d8
9a
18
aa
fd
60
a9
af
ef
3b
0c
65
75
9e
03
9b
aa
fd
3f
d2
d5
12
f9
26
0e
22
0c
6d
9f
71
27
e1
4b
48
0d
79
e7
9d
8f
5b
76
b9
e5
55
09
b0
5b
62
e9
6c
66
37
e6
83
df
fd
c5
3e
e5
7a
49
d7
4b
24
b9
a2
d8
da
f0
43
4e
15
60
88
ae
1e
fe
07
3e
71
e5
42
95
af
bd
c8
27
71
e5
63
d0
ef
e1
01
6e
47
37
9b
c1
82
06
13
8f
da
60
a0
eb
cf
94
44
b6
d9
a0
eb
10
e3
08
64
98
4e
66
dd
48
14
3c
dd
83
3f
94
61
99
a4
8b
76
58
31
68
85
f4
9d
93
33
0f
e7
ba
48
06
5b
cb
72
4f
f0
4a
51
1a
65
a1
19
ec
cd
56
d7
cc
81
ad
f6
d6
28
b9
f4
7f
a4
13
28
c0
a9
5b
32
80
29
1e
4d
3f
00
ef
d4
e3
4a
79
bd
9a
b0
74
f3
27
d0
82
27
3e
95
f7
2e
3e
db
cc
81
0a
03
eb
27
1c
77
61
59
5f
6b
f2
5e
e8
57
a2
c0
14
29
fe
f8
7c
ed
c6
6a
f2
a5
e7
d4
31
7d
8e
2c
ed
83
35
ef
c9
f3
14
05
c3
63
d4
fa
ea
22
d9
c8
b7
03
69
41
a3
73
27
35
b9
ab
5d
cb
b9
ea
24
b0
e8
9f
92
b7
22
06
88
be
92
e0
08
e9
15
70
a5
b0
44
db
9b
bf
98
37
e9
d7
f6
3e
37
b2
3c
ec
46
ea
18
2b
97
a1
c9
1d
2f
27
75
13
67
e1
3d
9f
a1
d1
8d
13
52
a3
50
09
e2
90
65
30
2a
37
53
36
06
d3
e0
f0
d0
36
5a
47
31
27
62
e3
c7
79
84
e6
75
eb
aa
bc
b8
fd
dc
d7
d6
88
57
cb
e6
38
01
3c
21
11
37
83
cb
6c
83
16
e8
9a
81
ea
fa
77
1a
1c
8c
f4
ed
51
f1
c5
47
8d
1d
d6
7e
3a
8c
95
06
28
5d
bf
8c
7b
2e
af
25
61
73
e4
69
66
02
1c
e8
93
ad
e2
6d
a1
18
0c
92
63
76
3c
b2
8b
9f
ca
06
c9
85
ef
e7
ec
50
12
ab
59
c9
26
fa
2d
40
3d
21
1f
37
77
a0
08
0e
4c
03
2f
bd
40
5b
83
21
7e
5b
f6
4a
05
62
82
ac
4f
38
c0
da
46
74
6b
a1
65
6a
e2
cf
6d
26
32
b7
c2
c5
4f
2c
22
73
e0
64
ec
d6
2b
43
91
1b
b0
99
0f
c7
bd
b7
ce
16
4e
6a
88
8b
4b
13
32
06
ef
58
f6
b8
2b
b7
9d
b2
a1
46
b3
c4
2d
62
06
d9
d0
1e
01
05
81
d1
5e
72
b0
4c
2b
82
66
57
a6
58
3a
a6
76
bc
04
14
81
cc
5c
86
2f
3e
7b
04
61
f6
cc
6e
28
bd
23
bd
63
bb
a7
15
86
06
9f
1f
8d
01
dc
3e
7d
57
7b
44
98
8e
de
ee
69
ea
30
cb
c2
ec
0a
6e
14
5f
a0
e1
4a
64
4b
e7
15
55
c5
c4
b1
fc
a7
5e
bc
a2
a7
09
8e
28
49
db
ca
9d
94
12
34
38
e8
d1
16
32
8e
c0
51
d8
bf
03
fc
8c
50
25
6d
c6
0e
b5
05
a4
53
b9
4d
36
60
3d
94
a2
83
90
77
61
d6
57
c3
d5
85
5e
67
8a
3b
83
09
81
6a
23
79
49
c2
86
b0
f2
00
df
e9
4d
a7
05
78
4a
a6
32
75
62
87
99
3b
5c
c7
64
e3
06
5e
8b
90
da
31
b1
d3
9c
bd
e9
ba
9d
98
a3
c1
40
f6
9e
c8
93
f9
7e
02
f1
b0
42
fa
ca
60
18
a0
63
9e
25
a1
3b
7b
35
15
07
16
4a
1b
02
77
b9
ed
af
55
c6
2c
cb
ad
83
98
46
ef
59
83
9a
72
a3
2a
4c
b5
34
2d
f9
ea
c6
cd
57
aa
1a
53
04
65
e2
1b
98
a0
a9
30
eb
74
de
73
49
e1
3e
e1
9b
b1
47
4d
9a
56
65
12
cd
8c
0e
d2
99
01
65
4e
92
68
01
41
76
3d
fe
67
b4
c9
80
ec
53
3e
78
83
7a
9d
ed
f5
cc
88
7d
31
ea
7e
ac
47
c4
c1
4f
e0
25
2a
4c
0a
3a
8a
8f
a1
bb
44
03
e6
60
35
2f
02
ed
cc
e9
df
6b
23
9d
3f
2a
95
cb
26
2f
b1
ec
5d
78
71
61
14
08
2a
d8
d0
1e
05
d0
bd
98
43
6d
63
16
ae
c9
e4
8a
2b
41
23
07
69
d0
06
bd
d7
61
20
8d
99
f7
0d
62
db
bd
06
c3
da
ef
07
a8
ad
24
e9
93
0b
5c
f5
8a
56
ba
ed
2a
62
65
c6
dd
b0
78
f7
79
e3
cc
95
ca
9b
cc
b2
32
72
b1
f8
2e
37
f1
d3
5d
f7
aa
2e
af
b9
0e
62
54
0d
64
92
1e
d5
20
3a
d5
82
e8
f9
e4
cb
75
d1
68
fb
c0
e9
c4
af
ba
06
9b
a8
24
94
77
e0
d5
14
7d
a1
bb
2a
23
16
ec
27
a7
49
37
5c
63
61
53
79
65
9b
b5
d6
b8
5c
02
b5
26
47
4a
a2
e9
da
ab
79
c4
13
d7
ea
9a
68
d3
b8
07
76
d6
af
3f
bf
68
59
26
22
02
50
b7
bb
c2
b5
64
43
ae
6c
b5
02
82
22
c7
de
0f
77
10
49
01
c2
95
82
ed
a3
1e
77
8c
07
46
8c
57
41
c2
7a
ba
0d
29
ac
0b
93
6f
fd
76
7b
5c
b1
47
7e
9a
2b
fd
c2
9c
28
a3
98
a4
9d
f1
4a
c6
92
0c
20
13
37
06
2f
5b
9a
b0
0c
14
e2
e7
64
59
3b
62
5f
91
df
e1
97
58
19
7a
b7
3d
66
d1
6f
6d
87
31
38
6e
3d
f9
65
a5
5c
c4
ce
0c
30
30
5f
a1
bf
ad
26
bd
43
4f
8c
54
b0
a1
40
18
fb
26
90
45
24
e0
2b
66
d1
a2
a9
7c
b9
a1
f8
b4
09
d9
b9
be
b9
87
f8
c9
57
c6
48
d1
e2
1b
2e
13
21
f4
05
91
4e
bd
fe
1a
09
a1
50
64
9a
35
5d
7f
0e
2f
26
aa
66
cb
c1
e0
a5
05
0c
5a
3d
d6
c5
e9
48
fc
ec
51
05
56
3b
62
d5
b0
4f
cd
33
52
98
f8
90
09
4e
0b
fc
7a
ea
88
b4
82
b6
4a
c6
a2
2b
2e
52
86
82
cb
ad
53
d7
4c
a9
32
14
fb
b7
74
b7
21
50
ac
89
d4
cf
8f
e9
fc
df
77
f9
28
63
71
7b
ec
f4
5e
0d
7b
f9
69
15
ca
5b
8e
6f
93
d9
0e
59
0a
4c
42
37
17
46
14
32
dc
a9
a1
e4
7d
96
4f
c7
f4
16
ef
57
d3
a9
db
87
4c
a9
a4
fe
4f
f8
cd
6b
95
79
61
82
5e
76
85
ef
6f
d2
05
bf
e2
a6
73
a9
38
4a
ce
b6
fa
c9
9a
39
3d
a2
6e
6f
f4
53
33
40
b2
24
c1
65
57
bb
ee
8c
74
b3
e2
84
91
8f
69
64
1d
39
b0
d3
15
06
78
9e
27
75
c5
e9
25
e0
af
04
58
a5
ae
19
32
7b
5c
ae
59
ee
5f
e0
80
d5
2a
c1
be
0e
e4
e3
b4
97
0a
31
35
ca
fb
ae
8b
09
2e
73
2e
8e
1b
0c
94
9a
3d
13
09
70
d9
43
f4
53
26
ea
4f
79
41
90
47
f1
b0
dc
8b
2a
d7
ea
8d
77
fb
f9
8f
40
b2
0e
ed
9b
95
33
6b
7f
f1
0f
f3
e4
d2
59
9c
65
a0
29
43
16
5b
76
05
66
d2
a0
37
3d
95
fe
e6
41
45
70
50
95
9d
d0
ea
11
56
00
54
cf
fb
b3
35
5a
a5
bd
f6
28
df
25
59
08
ed
f8
c7
9b
69
70
17
8e
ce
59
5e
e6
6d
ab
52
07
08
37
eb
be
65
cd
9b
a4
65
67
e4
43
e9
04
00
8d
38
36
6f
ac
a7
16
ca
74
1a
22
86
1a
b8
bd
63
04
3a
b7
97
1f
86
8a
db
82
70
c6
59
40
8c
61
72
87
5e
58
0c
ae
59
5a
f5
f3
ac
09
06
83
d4
c6
3d
79
cb
a0
df
fa
e1
ae
6a
ae
a9
62
34
ec
75
de
0a
12
57
8c
a9
78
04
7a
ec
22
48
f1
64
52
a8
78
44
a2
a7
60
8c
2f
45
02
da
bf
c9
d3
61
1b
ab
19
a1
10
55
df
8e
7f
19
15
78
4a
a5
96
37
b5
05
8f
14
e3
b0
88
e4
55
0f
57
59
24
48
30
8a
c7
31
f7
fc
48
9e
4a
d2
32
e9
43
64
0b
ac
d3
db
1b
f3
cc
b3
36
57
4e
af
63
55
8d
56
ec
0c
3a
8d
8f
e5
30
a0
e1
2a
eb
98
7f
0c
e3
8f
a8
db
1e
b8
3f
bd
fb
4e
f0
7a
2c
f1
e7
80
d7
ac
8e
04
1d
21
38
06
a0
8f
3b
cc
21
27
40
54
1c
51
dc
3d
ef
a0
ab
ae
06
39
98
f9
49
37
ca
9e
67
41
d9
62
3f
d5
25
a4
65
9a
83
06
7d
5a
a4
b3
06
e7
8d
e5
bd
c4
bd
3e
65
30
b8
97
ee
0b
a2
67
66
cf
3b
70
54
66
2d
e8
a6
96
f8
fa
1f
c6
80
48
be
7c
5e
b2
68
a8
3b
14
e4
e8
8f
e9
f5
58
ac
6b
d5
99
d9
54
d4
53
34
11
36
1a
25
83
58
de
e2
20
12
94
65
31
ae
76
fc
10
f6
7a
13
e8
09
db
99
30
28
f9
cb
31
5b
c0
23
ae
f9
f4
8e
70
9c
c0
91
8e
aa
de
22
d6
f4
70
71
6e
3a
96
6a
05
07
c0
af
76
46
f5
55
dd
62
eb
39
60
85
08
e6
98
7b
f9
9c
f4
51
d1
90
2b
0a
13
ac
46
0b
e4
da
45
16
ca
aa
02
8f
6f
48
ef
33
90
bf
f2
7f
4a
87
d9
0f
23
87
13
9e
bc
91
f1
ec
39
db
5e
a3
6c
91
93
00
d6
90
9f
32
40
ce
93
27
4e
7d
7b
89
a4
36
1a
f5
5c
37
e6
01
b9
2a
7c
4d
53
a6
c4
7d
6a
ab
90
86
b8
44
ab
a0
e7
87
0d
00
64
f6
ab
14
4a
0a
09
b9
58
1d
ab
21
fe
8f
6c
6c
96
6f
a2
a9
b9
da
31
27
9b
70
db
d7
bb
c1
f1
ce
6a
a6
f6
44
e0
cd
f6
be
26
f4
cc
bc
dd
da
bb
e1
a9
da
5b
84
bb
23
84
fd
74
73
c3
50
29
91
ed
72
d9
65
d6
d3
e1
1b
47
9a
e7
84
b9
f8
65
41
6c
51
58
af
84
38
51
ef
12
c9
f6
19
70
b4
ea
fa
d7
12
fb
dc
8f
76
3a
b1
6b
6a
71
ae
be
88
c5
d0
b5
bc
37
98
3b
13
39
a9
56
58
45
60
2e
fa
fc
0d
13
da
4f
58
40
e0
58
58
f9
69
64
15
57
0c
be
ea
81
83
a6
a8
9a
be
2d
c5
0b
cb
cc
15
56
66
da
7e
ac
84
04
a1
4e
f0
d3
7d
01
25
c4
cc
87
e5
06
7e
01
99
30
39
9c
60
2a
4a
81
4c
32
d6
e2
ea
ca
70
3c
ef
75
50
c9
d4
3c
2d
c4
fa
a2
34
16
e7
45
1e
00
b5
3b
09
e0
de
f7
cf
29
97
f8
90
df
4f
52
ef
2f
27
a1
d7
a1
3b
0a
90
be
fa
da
b9
38
04
cf
40
22
d9
09
d1
9e
5b
d5
28
90
a5
b9
ef
f1
c8
5f
bf
a2
1c
de
1c
e4
04
f4
06
fb
54
8c
80
a5
09
7a
60
27
6a
c6
25
58
43
07
44
76
d0
c0
18
b7
2b
41
92
b6
42
6f
99
df
92
4a
47
d1
51
46
96
38
c5
c9
cd
84
ca
95
9c
9d
fb
e0
8f
00
9e
b8
8f
1d
be
c0
d1
a2
c8
7b
a8
78
f6
dc
bf
50
a4
90
34
f9
f3
c3
2b
bf
8c
f9
d3
25
b4
3e
be
16
a9
4a
6b
55
3a
06
43
41
46
5a
ad
2a
5d
ab
ab
66
71
72
b8
7a
96
ec
b7
6f
62
a6
cd
bf
a5
c7
48
4c
f5
9f
f3
8f
23
7d
0a
82
11
22
35
4d
af
36
22
c3
27
a0
d4
0e
5f
af
0d
be
fe
0f
70
5b
d8
59
8b
a7
dd
b7
97
af
13
2f
3a
30
9d
41
72
0c
1b
da
ef
2f
49
9b
c8
84
77
2b
8c
5e
18
f3
3b
6d
ab
45
36
3b
ad
6d
75
b4
25
50
91
14
21
85
74
78
97
fe
4b
f6
c3
ee
ba
33
3d
dc
f2
65
62
d7
24
4c
ae
4c
d7
0b
b8
7f
ad
84
e9
97
63
33
53
46
d3
00
3f
8c
1c
f9
65
7c
70
e0
0a
86
13
6c
2b
bd
7d
f1
3c
45
92
30
b7
ec
a6
b9
e6
90
d0
92
b2
78
c5
28
db
73
68
29
10
9e
b8
3d
d5
95
40
7b
a5
59
67
23
e0
b4
8c
34
c3
36
a5
38
a4
f6
48
4a
b4
51
a4
01
03
e8
7e
be
5f
c3
a5
7b
0d
34
b5
69
a2
06
65
65
ce
a9
9f
c9
e5
7b
1e
2e
d1
8e
d2
c5
87
4b
1b
24
4e
be
22
7c
ad
b9
e3
9f
d8
38
76
72
56
aa
c6
a3
f6
51
b5
a0
a2
c5
8a
aa
8e
95
00
f4
f0
77
e9
3a
02
36
33
3b
16
47
77
35
25
37
96
e4
88
1a
cf
40
b7
e5
62
ed
f0
72
a5
13
b9
f2
43
06
b4
e0
13
37
45
ec
f0
0f
a5
27
51
1a
01
b0
d5
d4
f2
0e
23
20
6d
17
65
ef
dd
56
a9
f1
83
31
dd
d0
ec
21
e4
a6
f1
df
90
25
90
cb
76
b6
f4
72
0d
c2
6a
da
6d
00
dc
77
eb
e9
aa
d1
c8
75
c9
f3
ba
fd
0c
d1
4f
b2
2b
61
60
d9
f3
f2
4f
f6
bf
dd
b6
74
db
97
01
bb
19
88
89
e8
5a
bd
70
22
33
3e
17
a6
b7
0e
58
b3
c2
19
a4
91
80
de
fb
47
ba
42
ab
37
3b
8c
d7
2b
db
c2
3c
2b
c3
14
b3
59
f5
ad
36
7b
b0
2b
bc
c3
70
a1
31
5c
8d
73
b5
61
d7
7b
9f
63
d5
0e
2a
b5
0f
d0
3b
bc
09
dc
54
47
a1
f3
2e
e5
29
b9
46
f9
96
7c
14
f5
93
df
2c
33
28
6a
95
b6
66
f5
3a
3e
24
e7
71
dc
b1
6d
ce
34
a6
0b
81
9e
02
87
22
d7
48
1d
1c
24
2a
0f
ef
0a
25
fe
33
58
dc
3f
50
c3
78
c6
1e
a2
b5
39
e9
65
15
4f
9d
d0
f6
24
be
18
f1
bd
62
63
2d
a6
05
e1
ea
0a
be
16
dd
e4
f4
df
df
1b
94
9e
38
c4
c6
e8
19
72
e0
e2
46
da
ef
91
c2
88
34
d2
4b
95
6d
ad
5f
18
99
a4
17
1e
66
e2
d3
85
7e
31
2e
2e
91
aa
88
6d
ae
37
48
68
6d
bb
10
7c
08
4a
f0
40
fa
0f
55
1c
00
37
37
76
64
0b
0a
42
b7
1d
4e
78
9b
ac
84
19
1f
96
d2
52
23
49
75
ad
e4
4f
10
23
50
56
1b
1d
93
bc
8f
83
52
bb
ae
55
d3
ae
dd
2e
06
31
6d
2d
1c
db
f6
6a
ab
74
38
0d
09
38
0a
2b
e2
33
57
96
c0
94
04
4a
19
c1
7f
42
43
2c
42
b0
26
bb
6e
9c
1c
2c
8b
cd
72
1b
cb
a4
df
09
bd
39
73
a1
91
68
4e
f3
2c
f7
99
ca
48
a0
27
e6
03
a3
6c
1c
60
20
dc
7d
a7
33
e4
fb
ae
f2
de
dc
e4
be
91
27
da
99
31
0c
10
d7
92
f6
fa
69
59
b3
8b
ed
b7
ef
42
f3
0d
e9
16
0d
51
02
dc
15
00
e3
f0
21
75
16
81
b3
a9
d5
b3
97
c7
bb
d0
13
f1
85
8f
ed
f5
6b
79
d7
b6
b0
2b
37
02
0f
b0
20
0e
8a
e7
ba
de
29
84
c9
d2
56
23
f0
df
3a
0f
cb
d3
77
ee
8f
f9
fa
00
0b
88
55
29
09
24
1c
cc
d7
0f
d7
c1
d1
00
9b
3f
a2
62
d5
0c
e8
ae
c4
7f
2d
3d
b8
41
0c
e8
69
96
3c
59
27
41
ab
be
ae
af
0c
a8
a7
73
a8
0f
92
e3
81
4d
c5
01
26
ca
8f
98
c0
61
c4
74
16
e0
19
35
45
72
4f
04
b9
e2
44
fc
f3
bd
9a
73
9c
f6
ba
96
51
59
4f
13
5d
07
d3
ea
75
31
8c
a8
6f
c0
ae
4b
2c
25
80
1a
e6
87
36
22
3a
11
e6
04
7e
30
d1
3b
b7
f3
65
cf
47
12
be
c1
cd
bb
c8
66
36
57
eb
83
31
f3
3b
33
0c
97
74
00
60
d5
51
ba
8e
0e
6f
a7
97
35
cb
13
3e
c7
cf
90
0d
5f
b4
ec
0d
c6
e4
d5
33
f5
91
22
08
e3
d9
03
41
81
9c
a4
6c
15
8d
4a
ef
90
ad
5c
7c
ed
fc
aa
7f
b2
1e
22
e3
1a
c8
8f
e6
39
01
60
58
0c
c9
c9
b0
a8
5f
67
b1
df
27
62
70
c0
37
d0
a0
7c
94
c0
eb
86
76
12
86
0d
69
e6
d7
09
0b
1b
d1
6b
a2
43
46
70
dd
c7
9b
91
e8
f7
45
a0
ec
c8
f0
da
80
0c
f0
69
83
09
82
cc
e9
7b
41
eb
8c
72
d3
87
1d
68
3e
48
ae
3e
bc
3e
c8
3c
fe
62
66
8f
d4
11
12
fc
cc
74
e6
48
42
0b
d5
e8
ea
2c
cb
d2
99
b8
03
be
b6
8f
df
5c
71
40
5c
2c
45
26
57
14
3e
ea
67
52
59
db
46
c2
5c
99
38
82
60
8f
df
fb
71
16
83
e9
bb
3b
1c
b0
05
3c
b5
1f
9b
88
34
ea
09
e7
18
c9
f2
fb
42
f1
6b
d7
4c
00
af
97
df
7a
7b
34
36
b2
2d
85
3e
25
25
bf
97
5f
fc
da
6c
ef
bb
ab
cb
7d
a9
f8
0e
0d
1f
74
e3
54
ee
76
3f
75
ce
6d
06
31
34
2f
0b
bf
c2
74
e9
b1
bd
33
39
8c
c2
fe
5f
c3
b0
75
df
7f
36
ee
c0
92
ea
d9
35
d4
3b
e1
0d
99
eb
b3
66
37
7e
dc
bf
6b
1a
e2
80
ab
f7
aa
19
ca
b3
3f
1e
70
ac
78
58
48
72
de
dd
45
2a
21
5d
21
9d
c4
dc
c9
89
72
5d
3b
60
a4
08
f7
96
3f
80
a5
8d
bc
df
f4
91
77
29
3a
9a
14
a0
af
40
52
d2
c8
ad
87
f9
56
56
90
63
08
28
c4
14
48
ef
dc
d3
58
35
f1
11
49
e4
ef
93
ec
5b
2c
18
03
2b
ad
af
db
16
51
4b
15
3f
35
64
80
9e
38
38
55
9d
e9
e2
61
13
38
1b
aa
66
c4
04
ec
5b
87
1a
66
c4
de
4d
2f
73
16
3a
0f
52
8c
88
4f
06
54
52
14
e9
73
9f
5b
8e
9b
4d
8c
25
54
36
64
46
0d
8f
05
cc
33
5e
ac
d2
3e
9f
43
d3
c1
8f
58
2b
2c
a6
22
1d
f5
d8
3a
49
d7
4b
38
5a
0f
d0
3e
b4
81
e4
44
fe
09
1c
18
b5
d7
08
95
0c
72
dd
bb
79
04
33
f4
30
61
bf
66
15
cb
fb
1f
2d
84
c7
2d
d4
83
27
cc
b1
b6
3f
44
27
7e
a7
48
f8
e7
60
ae
0d
94
5d
93
18
f6
7f
2f
21
fe
73
86
73
91
52
26
2f
79
fc
60
21
aa
51
50
73
37
99
13
12
3b
da
eb
de
b3
da
38
e7
c7
ac
f6
42
00
16
29
8b
61
f5
bf
07
e8
c2
e8
50
87
4d
0f
aa
7e
8d
23
a0
ce
c6
53
6d
07
12
17
b7
fb
24
fc
7e
7e
ad
d2
f4
b8
8d
f9
4a
f1
6e
b6
45
69
71
7b
83
3d
39
d4
88
93
9c
3c
de
df
83
81
c7
86
cf
17
a5
17
f4
02
00
96
33
e1
e4
ec
9b
b5
f9
82
ee
64
8e
03
e0
4b
aa
b0
13
86
b2
eb
f4
b8
c7
ba
b8
6b
51
1f
62
fe
ae
51
a4
a5
39
0c
f6
00
fb
93
71
39
b9
0b
d5
f5
22
0d
46
a9
c3
33
d4
41
cd
4f
fd
6a
a1
e9
5d
bd
d1
48
1e
47
69
0b
75
b7
11
27
39
31
78
ec
40
95
4f
c7
f9
b0
cc
9d
55
61
2c
b3
b9
9e
da
d7
65
92
a2
92
8f
49
0e
ac
83
a8
cc
9a
5d
d2
f6
d4
6e
b2
f4
a8
ec
48
c8
ca
10
f1
82
96
69
06
66
5b
b9
a6
c1
79
a0
b8
3a
3b
a6
69
c4
2a
9a
3a
33
f4
b7
e9
72
45
27
e2
f0
95
f5
1c
c8
05
eb
ac
44
54
08
b7
48
68
69
2a
1f
b1
a6
00
49
06
08
68
80
01
c0
47
6d
6f
0b
01
56
ef
fb
3a
a3
9f
c9
2c
17
37
76
97
a7
57
b6
6d
a8
85
3c
9b
1c
75
bb
3b
b3
52
de
30
ad
b3
99
aa
f7
d8
59
31
7c
a1
3c
98
58
79
49
10
00
4c
10
97
f5
b6
f6
5b
73
d0
df
b0
40
8a
a1
17
0f
0b
05
13
af
f0
c9
55
64
45
fb
e9
1f
36
6a
b1
93
ad
12
d0
7b
f1
ef
7f
89
f7
0c
ef
43
8d
7e
58
47
8a
6b
3b
35
d8
29
10
ec
6e
74
8c
8a
f2
43
7e
eb
58
90
17
01
28
d9
a6
d8
f0
81
cd
1d
70
db
32
52
45
5e
e1
42
35
78
08
47
12
b4
35
64
a0
b5
e8
ba
a4
b0
11
d6
93
dd
69
4c
b5
7f
6f
05
3e
7b
85
2a
f4
f5
40
b6
f4
c2
4a
72
bc
48
88
bd
c5
41
58
38
9a
ea
6c
b3
58
0c
78
db
5b
a4
ec
34
f6
9e
aa
83
71
8d
c1
d4
4b
d8
36
49
b6
bf
0b
9d
b3
33
b9
e5
72
27
55
19
04
df
79
f9
e0
84
d8
7b
16
28
60
ec
ac
21
6c
7a
88
d9
e6
2f
1f
df
b0
68
c2
db
87
53
d4
e2
dd
1c
a5
a0
90
eb
44
44
4e
73
aa
cd
04
9b
84
97
5a
3b
09
b6
32
22
15
27
fc
f1
5b
95
d8
b9
ea
4b
07
7b
e9
f3
bb
fa
65
70
77
d9
e0
39
49
ee
35
d1
fd
a4
45
ac
f3
8a
a6
03
d1
37
5b
83
f2
67
d2
bf
30
d3
ac
9a
08
03
01
7f
31
db
99
98
df
87
c9
19
7b
be
bc
33
24
3f
b2
f6
33
23
5c
98
c3
89
3a
a8
fc
db
c1
57
97
d2
e0
b3
4d
83
1d
e0
0d
c4
f8
c2
6e
67
cc
df
7c
55
3b
25
60
e2
79
54
91
a9
fa
c1
bb
b6
ec
28
cc
46
1d
cf
f2
d8
e5
30
8d
cc
37
31
e8
5f
aa
6d
5e
a0
71
d5
1e
e8
45
39
6c
1b
0c
9a
78
1e
f3
60
02
7c
86
07
2d
7e
cc
81
31
c0
3c
5e
43
b9
52
54
97
e1
d6
76
57
74
7d
cb
ef
de
6d
e2
2a
b8
f0
c5
75
2c
ab
15
18
cb
d5
78
c3
ce
32
67
d2
64
ad
f0
aa
7f
94
37
bd
52
f8
36
5c
8f
9a
91
b0
b7
c2
1b
f7
4d
03
42
6b
1e
25
da
5f
16
a8
f1
4c
02
d3
6f
a2
8e
65
12
65
d4
b0
33
32
45
ab
17
ab
55
0a
66
4b
16
eb
b0
e3
a8
1a
2a
01
69
6e
b1
ed
bb
6a
1f
67
31
75
7a
d6
b4
13
8c
b6
e9
14
a6
c7
8a
f3
15
2d
a9
0d
47
0e
fb
a4
4f
8d
4a
c7
05
f8
5e
e4
b2
70
f7
15
a5
de
eb
17
4d
78
08
97
aa
0e
af
29
14
8d
40
4d
34
89
77
af
bd
6b
8a
fc
4e
b6
59
8b
34
ca
56
67
8d
0e
04
eb
81
ea
d2
36
f6
df
a2
ef
95
cf
03
25
4c
c3
00
03
0c
32
f2
74
87
9a
14
66
f4
ca
c3
bc
76
a2
cc
2c
b6
94
c0
b0
ee
12
d9
f1
c2
d4
3d
9c
89
92
19
af
95
1a
67
98
b3
49
32
72
c1
2f
13
60
43
31
05
03
25
a9
a9
07
5b
67
df
8a
52
39
20
38
7c
31
7f
3a
c1
54
cc
e6
b7
5f
7c
45
88
5c
47
b4
78
45
4c
27
9f
ee
41
7a
83
1b
a4
34
7c
70
92
13
ce
bc
fb
ed
d8
8f
a7
5e
73
25
1f
02
5b
9d
ac
dd
5b
db
87
ab
ef
0f
fa
66
cc
fc
35
26
3f
e7
18
43
96
48
34
81
c8
02
d7
44
87
41
94
c9
41
af
de
72
bc
fc
fa
5b
c7
cd
f2
4b
ba
86
0d
e5
77
1c
fa
d9
ae
18
2b
e5
ad
b9
1a
a2
0e
ed
7e
ae
41
6e
57
66
3e
b0
64
84
ec
4f
4b
7a
4a
1e
22
71
8e
0f
58
bd
02
10
82
7f
eb
8f
90
c2
e1
0f
28
c4
cf
67
3a
64
b3
60
12
e8
b9
96
39
90
1f
23
db
0d
3a
8f
ca
67
db
5b
64
8c
28
83
b4
77
de
02
3e
e9
63
b1
38
5e
d3
77
1e
3e
c8
f4
cf
30
53
db
74
f9
f9
74
79
58
c8
e0
2f
60
72
80
21
87
1c
94
a8
83
da
21
b3
8f
f6
d8
3b
ed
8f
de
e1
c9
7c
26
b0
bd
9d
00
39
54
57
b4
f0
ca
08
17
df
17
69
d2
75
22
07
2c
ec
f4
8c
30
49
54
72
90
c1
d2
58
6c
2f
03
90
69
e5
e9
54
9a
b0
4b
cd
4f
13
0b
fb
22
5d
6a
92
a9
99
7f
7a
03
24
cc
f3
b8
99
55
1e
25
a8
9b
72
1e
9a
04
a7
56
c7
7a
5e
c9
2d
9d
cc
6a
ea
2e
85
c0
39
9f
6a
66
2d
cb
6e
f8
10
fd
bf
02
f3
2c
02
54
cc
f8
07
72
dd
eb
e6
2d
e6
36
8c
9f
08
b0
e7
be
a5
f0
60
69
71
87
ba
7b
c0
32
47
68
f6
03
bf
09
06
04
00
ee
7e
be
09
e0
c8
09
c1
f0
90
8d
ef
0f
a6
e1
82
8b
25
6e
f3
5a
e3
a2
8e
8e
eb
3d
e9
fa
54
e5
73
97
88
f4
06
b6
c1
60
b3
fe
5d
9d
61
bb
5b
bc
ca
e0
8f
bd
25
8a
9c
4c
b0
c9
05
a0
3d
7f
73
e1
17
88
74
b4
af
24
e0
84
e3
22
ce
72
60
76
92
58
01
54
85
ef
54
9a
2a
67
7c
00
19
c0
c2
74
21
95
dc
2d
08
0b
75
c5
c4
fe
48
cf
8b
12
2b
66
a5
82
79
ae
72
db
e6
c7
62
ad
4e
f8
4f
61
98
7c
c7
76
5d
16
7c
ed
b4
a2
e4
4a
c0
d6
f4
d7
26
72
32
2f
48
26
a0
fb
61
69
f4
1f
80
f9
6d
0e
9a
c7
e4
5e
9d
71
bd
dc
45
2f
df
d0
12
fb
a2
85
50
5a
0f
8d
aa
81
ab
4a
a6
79
0c
52
87
12
da
8b
7c
3d
f4
bd
93
31
61
87
da
c8
06
50
ed
c3
42
0c
ac
aa
51
c3
03
bc
0d
03
2f
28
6b
8f
82
35
93
59
32
01
d4
43
43
d4
40
de
ef
cd
78
7f
33
9f
db
a2
31
a1
bc
dc
2f
89
8d
7e
18
e5
c0
17
35
7c
f6
51
11
91
be
9a
91
c2
b8
52
d9
18
51
36
d5
5f
10
76
34
f0
ad
c7
b5
05
93
0a
97
cd
68
25
d6
d0
33
24
fa
b2
20
46
59
81
68
85
b1
1c
78
c3
1e
6c
1b
8a
89
80
6e
7f
e2
67
eb
e5
dc
a9
3b
ed
0f
6e
18
a9
62
d6
a5
82
27
66
79
b7
11
2e
36
fa
66
78
60
5a
67
5f
a8
a0
9a
b8
c4
c7
52
c9
0c
71
4a
30
e2
b6
6e
ab
07
42
ad
da
ce
94
5e
00
f5
85
5a
f6
ae
61
38
4a
55
8d
c4
c0
2f
95
17
0f
05
89
56
dd
18
f4
13
6d
58
73
39
1f
69
5b
99
59
1e
30
06
d9
9a
f4
7b
41
cd
c9
fa
f0
d5
52
3e
cd
f2
2e
5b
73
70
2a
0f
70
87
29
89
cc
cc
53
d1
98
28
c8
79
f6
93
0a
f8
4c
7d
d9
72
1e
f2
40
58
46
f6
87
38
78
e7
4c
ce
0b
4c
db
19
63
c7
9e
6d
a6
e5
62
bd
fe
d0
6e
ec
1e
1a
08
b3
f3
3b
fa
c8
15
d6
76
bb
8d
9d
75
13
14
94
53
9a
f3
14
f8
83
57
6e
9a
0c
69
ba
73
38
5e
fd
f8
8e
62
34
61
86
a1
f6
35
24
3e
bb
62
e2
8f
bc
ec
61
c7
8d
5e
11
99
90
d8
bf
4f
10
3a
23
76
e0
38
b9
7a
9e
0e
88
2b
2e
fa
43
e4
a8
20
55
c0
fa
d3
32
88
94
4e
e3
33
d7
14
ea
c4
af
fe
fd
7e
11
d8
11
56
30
d5
62
b4
78
9e
6e
cd
a3
60
cc
1d
05
b1
cd
f4
b0
e6
a0
a4
e0
92
d3
3e
8f
54
3f
21
74
8c
99
9d
28
09
76
0c
65
13
f9
af
9a
c5
fc
85
2e
df
ad
eb
06
b5
85
76
85
3d
d6
32
15
9b
98
1f
b3
c7
be
dd
e2
9b
45
87
8d
3c
5b
01
21
56
15
27
fd
7f
8f
36
5c
02
e9
cd
ea
a1
aa
d6
d2
33
51
4c
d7
d9
2a
fd
d5
64
d8
f1
39
0e
7f
0d
6e
b7
e3
fc
98
d3
a3
50
cc
21
c1
e6
8a
7d
26
ab
5c
07
37
ee
6d
f4
10
4b
82
e7
d3
6c
5e
85
26
30
05
fd
c9
80
df
ce
72
95
31
3c
55
4f
4c
e4
81
c7
71
c6
fd
81
51
09
2a
02
c9
3c
34
d5
00
c7
cf
22
72
61
af
d4
00
44
ef
69
a6
33
28
d6
df
cd
69
4a
ea
b3
37
c6
94
bc
ba
79
11
3b
f0
c8
c0
9f
89
59
b3
63
70
e6
58
97
3c
3a
03
96
83
d1
22
33
11
11
fc
7f
28
f3
f7
b9
c6
76
b4
5d
e4
4c
09
85
f6
4e
60
5a
c8
bd
c1
87
9f
61
e3
d9
78
23
db
50
f4
cf
8f
ca
c9
97
86
50
72
0b
48
13
2f
97
c9
16
3f
d8
3a
40
74
be
ae
8e
7d
c7
4f
d5
b2
1c
30
65
06
d3
2e
94
04
46
09
ee
91
f6
5a
84
5c
1a
0b
94
96
f5
2d
9d
a9
be
d9
fb
57
8e
35
97
1f
38
1f
5b
33
3b
88
33
c0
be
10
c6
35
d6
e7
2e
84
15
68
b0
6c
06
ef
2b
ab
7f
d4
5f
3d
aa
7a
3d
33
d8
09
4c
b6
7a
79
e9
13
e5
0f
0c
23
22
ca
ca
5e
4a
83
a1
6b
3f
1a
be
72
07
b9
3f
2c
4b
1b
ef
e5
ca
c7
71
ae
23
d1
1d
55
2b
f5
53
7b
78
6f
27
c0
be
9e
34
e4
70
f2
a8
08
21
5a
86
79
c5
69
24
a1
e7
1d
6f
8d
71
6c
d7
b3
7e
19
3e
56
28
dc
69
73
6d
4c
09
95
f5
50
6b
b1
58
e6
1b
3a
b5
1f
99
cd
d1
1b
64
c6
b5
e2
63
51
84
3a
92
43
78
df
01
10
d2
80
f7
3f
aa
50
fb
ca
b5
2d
70
13
0b
12
db
eb
e2
db
49
2c
73
5c
56
2f
d6
e3
76
48
2d
3c
74
6f
78
8f
60
e4
d5
c6
71
29
1b
3c
90
b0
64
75
3c
7a
df
18
72
e0
49
65
53
89
44
51
b5
91
4e
e5
93
c2
8c
4e
ea
43
3b
76
3b
b8
a4
d7
03
8c
6c
f0
0b
a3
67
5b
48
f9
9e
8e
62
07
73
79
6f
50
7d
6a
89
67
fc
40
b3
be
29
11
61
a5
0e
b8
40
3d
53
09
76
5c
c7
99
bb
db
87
f0
90
1f
2f
f8
fb
93
00
7c
d2
b1
c8
dd
13
f3
f4
4c
93
e7
d2
9a
b8
ea
52
0f
d0
97
9d
80
df
aa
46
47
85
d9
74
85
c0
52
18
27
e9
e2
71
5d
86
4a
7f
d0
42
ee
03
6d
34
f9
c1
ee
4a
28
7a
51
26
3e
77
2f
c9
f7
9e
bd
0b
c3
64
ab
12
60
04
23
89
8d
6c
31
61
ec
b4
b1
80
90
81
a4
80
d1
f4
99
a5
85
52
6e
93
b1
fe
fb
2b
50
64
cb
0f
36
03
ec
ed
e5
6a
14
11
16
97
fd
ae
c4
6d
4f
02
6e
85
89
ef
7d
85
e6
14
5b
e5
66
69
49
67
3d
c5
ec
79
b5
b1
f4
35
eb
c5
98
dc
d7
c0
13
39
d4
f1
47
f6
39
0a
60
55
a7
e8
7f
93
86
3e
e4
49
5c
05
d9
6d
15
52
45
e7
41
ea
d3
3c
03
b3
9d
7a
76
bb
11
ee
af
f1
9b
56
77
e2
f3
12
5b
6e
95
bf
ee
09
c5
95
dd
4f
1a
ec
31
a7
e0
9d
93
a2
45
f6
bd
db
ed
ec
12
50
04
9a
49
d1
dc
43
30
dd
e6
81
d8
ec
31
bf
04
d8
37
4f
0d
22
18
5b
97
27
bd
33
df
5d
2e
db
92
8e
7d
f0
0a
ec
df
92
e1
81
90
4c
f1
58
c3
c2
f8
35
cd
98
47
ad
28
a4
32
d7
27
49
fd
ae
0a
83
27
2e
c4
b4
60
4c
58
8c
8a
a9
6c
1c
5e
4c
4a
1c
32
52
dd
bd
b2
91
62
41
0b
56
d3
3d
c8
02
e2
0a
00
72
69
c2
bd
8a
e6
fa
3f
05
99
32
a1
b6
30
a2
a1
58
5e
12
3c
9e
1a
f7
ce
8b
6a
f0
e0
86
42
5e
04
82
bd
f4
40
4e
0b
d0
7b
70
eb
d2
06
66
c9
3f
3f
70
87
d3
90
89
05
fe
b4
c8
a7
73
4f
c1
ab
ef
8a
d1
40
e5
32
b6
62
1a
3f
56
5f
e5
2e
7f
7a
38
e4
a5
8c
0a
79
20
38
62
4a
5a
85
9d
a6
3b
7e
33
dc
5e
3a
4f
37
73
97
73
88
2b
40
7f
7f
03
7a
a7
83
b1
5c
be
1d
1d
bf
68
b0
ba
a5
27
a1
13
de
f5
1b
cd
b1
75
16
2c
93
f1
59
a1
70
12
54
e7
80
98
d1
9c
07
90
99
d3
01
15
db
13
3f
a7
43
3d
38
5d
df
f2
b2
59
d7
48
93
88
f0
13
1f
05
b9
85
1e
ef
c9
01
ae
d8
ef
38
58
92
a5
2b
2c
dc
6e
1c
d3
03
03
54
2b
52
fe
d0
c7
8f
ed
b2
fc
c7
6d
49
42
62
59
21
cb
06
c0
af
25
6a
ac
00
a5
2b
41
00
db
77
7a
ec
ec
d4
ad
30
e9
3a
ca
6b
a5
8e
19
50
f1
89
68
de
63
01
92
39
62
bc
a5
f6
9c
c8
3e
3f
5c
f8
29
fb
3e
bf
f4
d0
01
77
69
2c
69
e2
58
83
af
a4
c5
8e
60
be
95
16
c9
38
1e
44
22
df
e4
bb
c5
8c
94
98
a8
f6
5a
fb
63
ec
22
1e
37
84
8b
a7
1c
14
77
2b
34
b4
5b
29
e6
69
f5
94
d3
51
de
5c
19
87
02
97
35
f9
c5
36
0b
ec
2f
2d
22
0e
2b
94
01
39
e3
93
94
74
79
36
d7
3a
d5
ca
53
87
fc
28
1a
dd
93
26
18
f2
67
73
2f
d6
0a
61
fb
4b
7f
b0
83
fb
76
90
77
80
16
eb
df
61
76
a0
1c
76
2c
e0
2b
55
b2
cb
d1
a1
93
f2
07
f6
7a
85
11
cf
61
c4
0f
fc
ed
1f
18
41
62
06
3a
31
d6
2b
09
62
69
ac
5c
dd
75
78
78
28
66
91
41
37
9e
db
84
d0
c9
05
e3
fb
e7
81
91
7f
1a
d2
86
46
5f
57
c8
bf
5e
ef
14
05
59
a3
b7
8f
6a
29
8e
c7
fb
53
29
c3
bc
3b
77
f7
24
a2
5f
e8
52
2b
56
de
2a
17
a6
26
4f
1f
25
7b
d6
6e
2c
43
68
77
8c
75
6b
64
55
0d
3b
62
94
b2
78
2a
2b
f2
d3
0a
18
e7
f2
c9
0d
ec
c8
f4
5f
25
aa
6f
78
41
b7
f1
41
bf
0a
a3
cf
cf
50
a8
17
01
45
d5
c6
c4
ad
90
5c
a6
99
c5
2a
17
cc
00
eb
d5
be
96
05
b3
c5
bc
b4
17
cb
60
b0
99
ac
b1
c3
fc
7e
9c
00
73
c0
7f
7c
4d
07
d5
2f
86
9f
09
0d
2e
13
e9
68
6d
80
7d
0f
ba
82
bb
be
2b
44
0d
03
97
62
7f
45
0a
99
1e
25
db
f1
3a
2b
4d
b9
69
33
65
7d
15
3e
71
55
92
ae
9d
0f
31
f0
e4
e8
9e
ba
5a
4d
63
4e
66
b4
bb
28
8e
0f
77
59
35
9c
f6
a3
72
7b
ef
f1
f3
d5
77
59
61
75
9b
02
c2
79
e2
f9
db
13
10
4c
ee
d0
bc
a8
c4
53
65
bf
6a
ea
2d
d5
40
2d
ab
91
d6
fe
62
2d
c6
43
b5
9a
d1
1a
8e
33
8c
d4
f7
9f
32
9c
2c
5e
c9
f3
f7
27
be
e1
cb
dc
c1
cf
d2
c8
aa
73
25
c5
ce
6d
d4
11
cb
8e
b8
06
b6
95
86
1a
59
7b
c4
43
e9
c8
64
07
bf
48
9c
6b
be
2a
80
e3
d9
5e
89
70
a6
cd
d2
87
cd
cd
ce
5e
93
91
6a
fa
0b
54
11
d9
60
83
f4
70
2c
de
66
70
92
37
c3
5f
ef
ca
41
c7
df
25
0f
76
fb
ec
11
04
f5
92
0c
35
0f
60
0c
98
9e
e2
ab
99
a1
fb
ce
e7
2a
57
bd
02
7b
6d
33
4b
28
1a
a2
09
0e
0a
41
59
c9
12
1f
bc
e8
86
07
b5
af
d0
d1
33
c9
57
7a
aa
c6
63
7b
7c
75
dc
6a
ad
84
86
ad
a5
b9
0e
88
3c
67
db
07
7d
4f
06
75
a2
10
68
46
63
8c
12
5e
b9
68
6e
a3
49
2f
9f
f6
ba
51
33
5d
41
27
6b
9b
28
9b
87
41
4d
62
b9
e8
39
3c
c5
1d
8d
82
2d
c5
02
04
89
ef
7c
05
ce
40
3a
75
0f
11
4a
5d
29
26
58
de
02
ea
de
b7
2d
22
b0
99
65
8b
7a
b6
71
75
65
12
ba
17
85
bd
35
98
ae
c6
7d
ec
82
b9
14
7c
45
6d
8c
56
f7
dd
0e
21
03
21
89
47
8a
bd
d6
82
e3
41
da
5a
dc
12
34
64
7d
a4
36
2c
17
a5
a4
b9
2f
ca
31
58
fc
e9
a2
e3
5e
20
d3
0f
22
75
12
e9
58
5f
af
4c
7b
9e
3a
d3
9b
ea
c7
f8
d9
2f
24
6d
98
0b
49
55
bc
5f
ee
bc
6c
d9
16
4c
3e
19
14
f0
33
9a
70
90
17
a3
6b
1e
f5
71
57
a1
c0
1e
ba
f7
39
67
c8
24
35
05
a1
62
97
21
22
81
07
7a
01
ab
5f
e2
8c
5a
b4
3d
6c
55
fd
9c
af
06
79
31
81
16
26
12
90
c7
be
69
cf
3a
15
65
88
11
0d
52
6e
e7
d8
12
c1
47
8f
9c
e2
69
46
95
37
76
21
84
eb
31
8a
66
c6
a8
5a
b6
f2
ba
20
b4
b5
8a
1a
af
e1
f2
20
72
13
ae
4a
1c
dc
6f
a3
3e
df
ba
e1
db
15
96
aa
56
08
da
ab
02
f8
7b
87
2a
a5
f2
c5
21
5c
61
fb
db
08
22
e1
ec
04
df
1d
e9
73
dd
a8
1c
9a
d5
68
47
74
40
db
5b
6f
97
42
93
5f
83
27
2f
ae
2a
64
31
3f
75
ba
bc
07
27
83
69
c6
34
17
a6
d4
02
2e
17
d8
27
30
9f
ea
b1
29
eb
f6
30
ec
fe
0d
0e
32
b2
52
e3
e4
bb
8b
ea
22
ec
5c
34
dc
70
5c
52
07
16
6a
a5
f0
ed
7e
c0
39
da
33
f1
7f
4f
a7
03
f8
54
fa
d5
63
5c
52
1c
6e
32
1b
43
64
0b
f2
3a
a5
01
7d
7e
6c
ab
15
a4
0b
2b
eb
e4
c3
d0
99
14
05
cf
c9
7b
bb
1b
49
e6
f8
e8
1c
b0
ef
d9
36
0a
f6
e8
60
31
f3
d8
cf
4c
1b
ba
b1
b3
3b
aa
0f
f5
27
a6
b8
e9
72
ba
1f
3a
36
f9
79
0f
e9
8e
19
d9
15
7d
a3
ed
b8
4a
bb
11
39
f6
5c
9d
cd
fd
f7
d8
f6
2c
bf
f3
a7
7f
5e
ea
16
ea
f5
09
0a
2a
8e
30
2c
02
c6
3d
b9
13
40
ab
25
cb
93
e8
9d
cf
ec
ce
ec
cf
b5
8f
89
0f
27
36
ea
2a
bc
84
c1
b5
0e
65
6b
d7
af
40
15
96
41
55
45
29
9c
40
21
3c
cb
5c
83
c5
05
9c
d7
c4
53
2b
8f
f4
fc
de
2d
07
81
5f
e6
4e
5e
d9
84
8f
c2
ee
3f
8e
59
7f
2c
6e
58
d9
4a
b3
9c
22
a5
cb
b0
c0
1c
18
99
b0
a1
b1
d6
81
c3
9b
95
ac
36
41
97
5c
5b
f5
45
31
dc
33
20
52
82
7c
98
e7
2b
18
d2
c8
b8
b6
26
bc
82
a3
23
47
2b
26
5f
95
87
37
49
ac
91
a4
51
c6
ea
f1
40
aa
39
8a
5c
6a
98
00
53
33
8d
d5
e0
f1
6c
f9
69
dc
42
43
c9
7f
01
9b
3f
01
ba
a9
c3
c0
14
5e
da
fa
9d
1b
74
31
66
f2
be
b8
84
f8
08
c6
30
8f
67
3f
73
47
99
b1
5a
3f
ec
20
5e
de
08
d1
9b
6c
55
23
02
2d
bf
bc
a9
bd
3e
55
d0
32
c2
18
f6
91
fe
53
3d
30
46
45
86
30
c5
37
77
1f
a9
2a
35
12
9d
55
e1
93
8a
55
a3
ca
91
b1
32
6b
58
cb
b4
84
d5
d3
74
b1
4a
09
ad
26
3f
18
c9
3f
88
df
07
ce
c5
52
79
07
f1
d5
76
0b
5b
ee
4e
81
4c
86
99
6f
43
2b
ef
a3
e6
aa
c7
db
3f
16
89
1a
da
fb
6d
f0
a3
eb
60
c0
73
e0
95
e3
62
3b
4d
5f
b3
cb
a1
03
99
28
68
4f
77
8b
92
89
e3
6d
9d
f1
01
fd
14
e4
02
4f
f6
03
44
e4
70
e0
ce
bd
b8
78
28
e8
b6
6b
83
21
11
0a
e1
0b
2e
2d
e5
73
43
60
12
9e
1b
e6
6c
fd
43
63
5d
60
8d
8e
f1
07
f8
13
33
b0
0f
39
65
89
6d
ce
2b
af
2e
c6
71
d2
00
ab
5c
eb
b6
15
11
9e
99
70
a1
95
ed
a7
17
59
36
6a
f0
f6
43
59
da
9c
62
2c
e8
6b
1a
6e
4f
c8
98
de
69
0b
6c
d4
d3
d7
05
65
b3
b5
5b
68
88
41
55
1e
0e
ee
b7
f5
41
59
c0
27
8d
2d
9d
93
6a
cb
b7
a6
6a
b9
94
d6
8c
54
e1
4e
39
67
57
bd
f5
31
b0
67
ba
65
d3
2c
2c
3b
2d
34
da
b3
ac
fa
10
f3
7a
f3
1b
bd
3b
c4
cf
0e
da
40
b2
ae
36
10
35
0d
3d
9e
1e
7b
0d
4e
5f
1c
12
57
e8
96
6b
8f
34
8b
f6
c8
bd
3b
00
85
bc
dc
09
52
eb
79
0c
b5
c2
bc
5e
88
88
8b
6c
0d
04
4b
0f
2c
2e
2a
5c
21
3a
15
39
ee
47
02
8b
cf
ef
aa
c0
1d
20
c2
83
18
4d
8f
3b
16
94
96
1c
61
09
2f
c1
8c
b0
35
3a
03
ea
ad
4c
c4
d9
33
d4
f1
a3
74
f3
c2
2d
50
1d
f0
9f
7e
7a
99
46
01
a9
87
c5
5d
fc
08
ad
1a
6e
1f
60
8c
bb
07
03
ad
91
42
6c
ee
cb
44
d4
b6
79
14
16
64
bd
40
85
82
a2
25
32
65
44
82
47
67
01
98
bb
1c
59
6c
56
fd
84
44
5e
ba
e8
c2
25
c5
60
aa
c9
1e
eb
30
80
ea
4f
4f
de
1c
ef
1d
e8
c5
24
bd
b8
42
ab
e8
65
63
0c
0f
a9
30
90
b5
7d
75
ee
1f
3c
9b
7a
a6
70
43
60
50
43
30
cd
f3
a9
d1
b3
7f
2f
14
29
17
a5
ef
98
ae
31
dd
6f
e3
0b
90
44
fa
4d
64
47
08
bb
06
ae
8c
15
db
49
51
2f
76
dd
1f
47
7c
c3
26
0f
5e
a8
b0
f8
7b
7f
60
9d
e3
da
48
69
bc
7c
c8
3b
ad
7d
03
10
76
3c
a8
a9
27
65
e1
75
a7
20
10
c3
61
6f
66
1e
55
88
94
bc
5b
b7
c2
b4
37
9f
d2
40
bb
b7
75
d7
b2
ba
0a
76
0c
9f
f1
b2
f0
b1
82
c3
b4
2d
b6
0d
d3
a4
81
78
85
54
85
bb
2f
d9
99
85
68
ee
4d
52
ca
35
47
4f
d0
45
ad
6c
f5
9c
40
6e
be
a5
49
52
b8
fd
89
f4
65
a1
10
9f
7a
73
10
e4
0c
3d
16
88
bf
f0
0f
33
ed
73
2c
2c
b0
1b
a2
53
72
f6
73
7a
fb
bc
fc
5d
51
02
d0
9b
a9
81
0d
90
b2
68
9b
92
5b
52
27
88
98
6f
64
d5
98
c8
5e
a6
2f
d3
92
99
82
5e
8d
ae
b6
ba
0a
48
af
4f
34
b0
6f
c3
1d
6d
7e
fa
87
e5
f4
d3
18
60
2c
51
9b
2a
39
60
85
fe
cd
6d
55
5c
dd
db
31
d0
18
53
1a
ce
34
8d
8c
40
7d
b5
57
16
36
5d
89
18
a6
44
db
06
6e
78
95
af
70
ee
d6
5c
7b
b7
e8
07
5f
6e
1d
a0
54
55
09
31
bb
0a
eb
6e
6f
85
ab
58
dd
a2
85
2e
a2
5c
2c
06
70
0c
29
f0
d0
2e
95
fe
a6
94
49
17
9d
6e
10
8c
ac
74
0a
4b
5e
ed
80
6c
4c
07
b1
e9
cb
4c
e7
e3
a5
96
f5
4c
e6
f9
f8
05
f5
fd
d2
fc
bf
89
cd
6e
de
97
9e
49
d2
e2
97
fd
5e
15
52
29
eb
10
3e
b4
16
f4
f4
c1
2a
11
80
3e
ad
b8
24
4e
37
f0
66
9b
54
c4
06
87
1e
03
f2
b8
7a
92
b0
ca
37
a3
0d
b1
6b
f9
f1
33
a1
59
e6
78
6a
ab
46
2a
46
f7
b2
d4
82
87
c8
c4
07
97
6a
3b
b1
b0
9b
64
2d
36
80
a6
49
82
20
97
18
5f
65
fe
3f
13
c4
46
56
24
64
ee
c5
4b
b8
cd
d1
54
20
44
4d
eb
a7
06
3d
65
b3
9e
eb
98
80
ab
1d
d6
72
2f
84
45
be
33
94
c6
cd
a1
9b
a6
69
eb
78
d8
44
7e
d1
b8
96
46
02
ce
ef
91
07
9f
38
ad
a8
f4
5a
31
df
d1
54
54
42
ee
cc
5d
b2
19
d6
76
75
d6
66
5c
df
52
ea
40
f8
45
59
73
80
c6
1e
ca
df
5f
96
3c
f8
2f
3b
b5
11
e7
5a
22
b9
54
11
a0
12
54
70
03
83
24
62
6c
b7
97
ca
78
09
63
37
b8
bb
5d
8e
60
33
9d
b4
d3
c5
27
62
e4
55
dd
83
ea
21
2e
8f
3f
f4
11
09
4a
7d
c3
47
65
de
c4
1a
47
c8
17
d3
1c
b1
60
82
d9
05
92
32
07
94
f2
d0
cc
7b
24
70
cd
f3
33
b7
61
25
73
6f
29
9c
85
8b
8e
85
07
22
4c
47
74
38
d0
e3
81
93
f5
02
da
fc
8c
6b
77
4c
02
3e
ea
ed
bd
90
93
a2
21
65
14
a2
03
cf
9f
fe
21
b9
e5
31
02
2e
67
50
b5
3b
4e
1e
2c
d7
e4
62
55
3c
fd
4f
17
b3
da
de
09
19
8b
ed
6a
d9
73
e1
62
ee
f8
22
da
9c
5b
a1
ea
dc
0b
06
8c
2d
1d
0c
b8
5a
3a
2e
81
d5
8d
13
97
81
75
74
bf
55
01
3c
da
ee
0f
7d
18
cd
94
f2
94
fc
a2
99
cb
60
ba
94
ab
ac
4a
b3
b3
51
2c
9a
3f
c4
32
fe
9c
8d
d9
e9
96
69
0e
a9
23
dc
50
04
ce
e3
5b
66
e8
45
2f
44
74
44
06
ef
7b
c9
0e
b3
24
75
59
2f
87
34
a3
20
1c
ce
fc
1b
96
e2
df
d5
12
88
60
33
43
ea
f5
3e
69
fd
b4
20
9b
30
c1
41
ba
0f
46
d5
55
fe
d3
b2
3b
2f
39
bd
01
e9
a2
53
0e
1f
19
b3
83
9e
26
59
cd
95
75
ea
84
70
81
45
47
69
eb
27
3f
8e
ae
c4
34
f7
17
cb
79
d7
d0
ea
a4
d3
67
ed
83
44
47
34
ef
4a
48
e8
78
cf
29
43
45
b8
8f
5b
f2
fe
a1
3e
98
33
44
29
08
4e
6b
47
40
0c
ba
47
66
26
50
e4
c1
70
b8
85
6e
4f
70
b9
f9
e1
8c
3f
c1
d2
95
44
06
c9
b7
5b
46
ad
8d
05
5a
3e
a9
72
7b
4f
ac
b3
36
59
26
6e
bc
92
1a
e0
a1
0e
4c
f7
3b
a7
f9
e5
dc
0c
65
82
2c
c1
03
11
9b
d8
60
56
c8
fa
3d
a8
55
1c
16
6a
e6
8d
40
88
75
66
c7
46
39
92
04
20
75
bc
22
8f
a8
24
d7
be
43
32
d5
21
f0
dd
c0
30
1a
f6
c1
c7
c3
ea
32
3a
0e
18
f2
70
ec
c3
a9
56
38
54
55
bd
ea
58
10
68
d9
03
9d
24
09
27
e6
a2
03
d1
95
de
ed
9f
56
c9
eb
b0
e4
3f
3a
46
a3
1f
15
25
4c
30
8b
bf
54
13
6c
75
d9
7a
56
29
ac
af
54
98
1f
73
b3
a8
8a
e3
a1
44
1d
b9
19
08
d1
78
ac
db
eb
4f
ed
e4
d4
c2
f7
7d
51
87
4f
5a
ef
99
17
0d
4c
63
cc
ce
c1
8d
74
81
a5
ef
c4
26
a7
74
d1
00
c8
16
b2
03
68
a3
29
7f
0f
5f
98
e9
a2
f7
80
f5
f4
aa
c4
90
53
06
e4
89
4e
09
9a
7a
9e
94
08
cb
ea
da
ae
c3
04
25
6d
e2
9d
00
7b
b1
c1
59
34
b3
a6
54
d5
8e
7a
dd
68
89
c3
14
af
15
be
ec
d0
e0
92
5c
52
d6
90
d5
49
f0
4a
81
87
8e
55
5a
49
0c
9e
22
9f
74
58
c8
0a
0d
64
4f
65
9b
ac
8d
56
5b
13
f1
19
b3
7b
09
46
07
0d
e4
df
95
e4
33
44
a9
84
52
f5
df
b5
83
4d
8f
cb
76
03
bd
b3
c4
77
e6
85
14
93
3b
1b
2c
c0
c6
a0
67
11
5a
8a
e8
df
60
b0
9f
9b
a8
0c
fe
32
25
82
d1
50
1e
68
8f
4e
c6
ed
81
5c
f3
f9
c2
3b
1d
81
5c
2d
3f
a8
37
e2
29
14
b5
85
6b
0b
ba
c4
47
54
c1
c3
93
df
61
20
36
3a
fd
61
3d
71
7f
e5
7a
73
b7
ab
56
e6
2e
c4
24
56
bb
1e
86
9a
58
71
56
76
ac
3e
c7
0d
e2
6c
a2
f7
9e
d2
96
16
52
29
79
d0
4a
3f
57
92
63
87
2f
8e
11
25
5c
b1
c1
fd
05
25
8c
7c
92
05
f2
65
57
cc
0b
3b
04
40
8f
dd
48
3e
ac
06
e2
80
7b
ee
6a
5d
19
8b
47
88
58
2f
06
75
3b
3e
aa
b7
ab
ad
6e
6d
c6
86
66
9c
c1
c5
53
62
4f
27
47
3d
e2
af
61
7a
33
19
60
09
07
de
64
0a
4f
26
a3
45
a5
42
17
63
36
60
8d
d9
75
b7
91
56
b3
0f
96
16
71
1f
ab
89
a8
5e
a9
79
72
20
9b
8c
90
e3
75
9f
9d
58
3f
ac
29
89
f5
d0
d7
1a
aa
d1
ab
09
a1
92
91
ad
62
31
17
f3
cb
63
50
c7
20
4b
5e
d4
13
0b
2a
ee
4e
d7
0a
b2
72
3a
46
60
7d
fe
e8
c4
0f
4b
f7
a0
fd
09
21
39
98
24
09
ae
f0
99
64
0c
4e
43
e3
0d
aa
f5
7d
76
42
7e
21
8f
01
4a
96
a4
a0
ef
fb
ef
c7
7c
b7
c7
10
17
2e
4d
0e
fa
e3
21
40
76
1c
b0
30
21
07
34
a2
37
89
11
81
15
ad
30
75
83
d6
4d
eb
59
ed
d6
19
fe
5c
fd
6e
a3
f4
da
98
18
6b
c2
b2
7a
2e
8d
02
97
7e
ad
3c
14
a6
6a
20
14
ad
1a
48
64
e4
48
ca
cf
e3
9c
77
34
a5
28
d4
e5
4a
6e
8c
5d
70
51
a0
8d
41
9c
d1
56
87
e5
29
74
72
2f
8c
3d
90
37
53
d0
7f
df
c2
1e
fa
20
46
2a
52
23
ab
3a
f1
fa
5b
90
a7
c6
2e
d4
5c
43
03
48
85
13
50
3e
e9
d4
ac
92
fc
b1
b9
8e
23
b8
40
5b
76
41
09
50
4c
b3
a2
54
11
a1
bd
0a
41
30
77
b8
dd
0c
75
82
19
8d
a9
a9
29
f5
97
12
85
b7
43
49
32
8c
e4
d1
c4
c3
40
f8
6f
7a
79
f8
82
72
42
68
c5
2e
ee
19
44
58
4c
a8
72
a6
9c
5b
f8
00
7f
0c
6c
49
51
a6
cc
ad
77
44
70
f9
a2
22
94
e2
a6
56
f6
cf
c5
d2
1c
0e
9a
35
ed
07
c0
ab
f9
b2
78
08
7b
ba
59
8c
6c
8d
ae
70
92
2c
76
12
16
f6
4b
f9
6c
a1
42
a7
d5
0c
2b
d3
b4
ca
6c
12
09
8d
d3
a9
7d
40
90
58
76
bb
9c
dc
4e
c1
79
51
4c
94
45
5f
ec
31
80
83
b6
08
2c
1c
45
ab
e0
39
06
1e
8f
b7
91
dc
5f
e5
8c
0c
a6
0b
68
97
c6
17
c4
6c
7f
b7
6b
1a
5c
fc
b2
93
fc
cf
52
ba
8d
a4
49
dd
49
13
28
9a
25
cd
c5
f7
e3
52
26
42
3c
38
77
8c
d1
e8
46
b4
eb
74
45
c6
1b
95
9c
fd
69
c0
40
d4
7c
cd
40
42
ec
6c
34
60
63
29
82
3c
83
14
1c
a2
65
c9
53
5d
c7
5b
8f
18
9d
7d
27
ad
6f
a4
18
3f
be
2b
59
4d
24
80
33
77
0a
e3
76
aa
8c
f8
4e
ed
8b
54
e9
c6
66
2c
ed
5f
b1
2b
f6
f5
79
4c
3d
6a
79
57
a0
6a
8c
63
cb
b0
b9
28
66
d5
4b
20
ac
d6
0c
17
23
9f
81
0c
54
2a
c4
ad
81
66
97
14
83
f8
3f
62
24
a5
11
6a
7d
bb
4c
bb
1c
ad
d3
08
01
3b
5a
78
13
e6
70
02
1b
bd
cd
31
f5
eb
58
f4
c4
09
3e
69
bf
4e
27
f5
e8
9e
61
a8
a4
1c
da
f5
56
19
4b
55
e0
a8
27
5d
6d
1f
a5
91
26
c8
1e
19
d0
d2
13
f8
57
0f
65
ba
c9
96
52
ca
fc
82
93
69
03
8d
8b
f9
08
ec
1d
fc
e8
52
55
7c
7f
7f
19
7c
55
27
b0
2a
22
2c
5b
5e
74
d4
29
d3
c0
b9
34
69
1e
7b
25
5c
01
8d
e7
01
0a
e2
e0
fb
10
06
0f
cd
02
4b
ea
cd
ed
41
d8
96
5b
b4
f1
d4
31
d8
95
4f
0b
0d
93
68
a1
2d
a1
71
83
a8
41
4b
60
0f
d8
e5
2f
4f
bb
7e
33
33
75
70
db
2e
43
5d
01
b8
0f
e1
24
c7
62
41
39
05
00
44
1f
ba
08
1a
8f
2d
a9
7f
de
14
5e
b0
c3
69
b3
24
58
32
25
b0
85
47
61
85
2e
6e
89
47
bf
e3
2f
4e
cf
9b
bb
65
b2
5b
34
08
09
6c
f9
fe
0f
41
71
5b
04
fa
cf
99
cc
ba
d4
b9
c0
02
7f
67
5b
2e
a6
a4
65
8f
b8
f2
6e
3f
2a
7e
da
b4
97
6d
7f
4d
d1
c8
a8
cc
67
e0
6f
8f
52
70
9c
07
2e
51
ee
12
97
aa
59
6f
87
08
91
74
25
21
f7
6c
c7
13
b2
36
27
a7
3f
31
dc
60
2a
1d
f9
bb
85
50
72
1b
cb
bd
1b
52
fb
1d
ed
31
54
04
e1
a9
72
07
e9
6f
39
be
1d
c3
75
d3
5a
9d
16
92
28
6d
ab
34
24
49
3b
7f
d2
bf
fd
7d
87
80
ce
b8
e4
19
4e
11
78
c0
26
c6
46
28
b1
08
6a
f5
a3
5f
45
53
be
4d
91
2b
ae
66
89
55
6b
81
2d
69
8b
a7
98
7a
7a
2d
7e
5a
c0
4e
cd
e8
fd
f3
8b
99
5d
cc
ce
47
dc
09
13
3a
87
c6
36
85
1d
40
d9
b5
de
1f
c9
03
79
46
07
0a
be
ce
f7
a2
af
61
49
92
35
d5
1b
57
78
a6
06
64
a9
45
c1
53
71
0e
08
32
34
75
1d
91
cd
43
fd
84
01
7f
31
68
6a
da
26
cd
58
c6
5e
9d
a3
18
f2
41
42
4d
56
55
f0
23
6c
1e
5b
87
e2
be
54
3f
3f
64
3a
b3
66
bc
3f
48
69
eb
8d
bb
44
fb
5f
2e
e1
e6
7e
26
e4
39
8f
03
f0
9d
1c
c1
7c
b4
c5
27
7f
b0
c0
45
49
14
9c
8d
bb
8e
d1
bb
b2
f8
3b
d0
f6
5d
b3
df
85
4b
57
22
74
62
c7
e6
76
06
38
d0
80
d3
79
1f
0f
ab
09
21
45
f6
5c
9b
25
d7
36
ee
36
1e
41
fa
e3
86
29
38
45
70
21
e5
d9
8e
8a
11
62
b0
5d
c3
fa
2d
ce
14
53
8f
18
a7
23
17
5d
e4
84
ea
d5
4e
9c
43
50
f1
c0
14
71
42
67
e5
1e
04
41
c3
23
1f
8b
c7
d7
2c
49
16
6c
58
3e
62
e7
85
f4
d1
8e
5c
ac
b2
3d
c5
ab
85
90
74
1e
ba
b5
2f
a7
0f
b4
20
59
ac
08
8e
cb
5a
2e
db
15
50
1c
52
84
82
79
7b
35
1d
c4
d2
2e
23
9e
7f
d2
ea
90
24
af
b2
a9
1b
c2
f4
0e
ea
9b
a3
71
03
69
74
21
d6
8e
b8
b7
c1
4b
46
55
44
db
e3
4e
38
a4
c6
84
7a
7b
f3
2b
90
5e
9b
a3
76
a9
c3
43
05
2e
0d
d2
46
fe
d2
f3
a2
58
86
48
05
7a
65
ba
4b
43
b8
84
74
6e
99
d3
58
a8
60
37
90
02
66
70
9c
c6
4e
b9
5b
d0
69
b8
cb
63
82
16
fb
dc
f0
1d
2c
f6
4e
a3
a4
8e
78
c0
2d
5f
58
7b
2e
57
2b
bd
a6
cd
09
a3
6f
2b
95
e2
3d
46
5b
70
38
b2
60
3b
49
c6
df
56
23
99
7a
50
80
cd
45
d0
f2
34
dd
fc
af
70
0b
8e
e0
90
93
d7
74
92
8c
d0
b3
46
7a
cf
b3
52
1b
6b
6c
73
51
d0
9e
4f
c3
f0
a5
5a
dd
bb
71
40
b9
0c
1d
e4
ae
da
6b
40
4e
0d
5b
75
07
bd
8b
30
78
ed
b2
df
fb
ac
de
e8
96
2d
35
b8
6e
12
45
0c
18
b6
a4
14
52
99
12
5a
d1
79
96
3e
e3
84
9a
d0
f3
ce
9a
b7
04
6b
00
1d
ca
b6
b9
f2
9a
47
5c
ba
0f
5a
31
76
1c
f3
06
60
00
e5
eb
d4
a1
a4
6c
09
da
72
2a
b3
18
a3
e0
7c
a3
c5
f6
81
41
fd
cb
a7
95
ce
45
30
e1
57
10
f8
2e
f4
3b
57
cb
67
af
45
43
62
c5
88
9b
9f
33
60
1d
d4
42
52
9b
8c
aa
80
13
4a
81
f4
72
1d
86
83
a5
41
a6
83
06
4a
8a
65
02
2e
b2
40
4c
09
a3
57
f8
38
20
78
39
74
9e
17
6d
0c
b1
11
20
46
84
a5
69
97
b4
b8
2f
60
eb
9d
68
72
2c
90
3f
14
06
9d
be
dd
aa
21
11
28
8a
2d
d8
fd
b1
8a
32
fe
aa
45
0a
9e
04
59
cc
32
9f
96
10
ae
d0
83
8e
a1
fd
3b
28
3d
cb
d8
c0
b4
0f
29
3a
c9
56
b9
d2
7d
23
72
d9
39
85
d3
fe
77
35
c3
49
a9
1a
01
f0
38
6e
e8
93
77
bd
e4
78
ab
4d
6e
f6
03
dc
60
9d
b9
93
f2
e2
54
5d
d7
f6
fb
ae
aa
9a
9e
d9
0f
b7
93
6b
ba
10
a8
c1
d7
62
29
e7
b9
2e
a9
48
77
78
62
b1
25
01
f1
ee
3a
54
d8
c5
dd
f1
3b
c3
b5
a3
e3
86
cb
3e
3d
20
f9
60
07
e0
36
9f
a1
34
9b
f3
e1
cc
2c
97
c0
38
70
87
18
72
3f
7d
20
ac
eb
b0
ca
02
6e
0c
65
54
51
60
c3
a4
17
a7
ed
be
08
24
08
c0
0a
37
bd
64
06
da
de
1d
85
c3
71
34
4f
7f
f0
5c
d1
13
e4
ed
45
c6
6f
28
bf
1d
f6
d6
6f
f5
47
0e
34
7f
13
3e
0e
2e
36
10
53
a2
11
33
0e
54
e4
50
56
69
af
58
62
02
67
1b
bf
72
f8
51
83
e3
a9
7f
db
2b
be
57
52
10
31
8f
04
02
60
e5
13
c2
80
ea
d5
73
d5
b0
78
31
ad
b1
61
b2
50
6d
17
ab
3f
00
7e
84
d1
64
1d
48
79
3a
ce
3a
d6
09
1b
2b
e3
d4
ae
03
ac
0b
80
13
07
ae
e7
7a
27
db
12
01
11
ec
16
8c
f5
9d
43
32
dc
92
8d
7c
7f
74
f4
d8
30
cd
63
6f
09
9e
27
3a
ce
ba
84
9b
84
a8
01
f0
41
fe
7a
f6
d7
b5
b5
66
f3
0c
7a
39
09
33
c6
15
24
eb
0a
8b
a7
80
0b
24
c2
d4
1b
84
c3
89
58
29
67
9b
5b
75
a9
28
6b
d8
e0
9c
27
e3
d8
8f
9d
33
99
5d
cd
da
8c
00
f7
5d
7b
16
ec
e6
ea
06
19
7f
b6
a9
6e
50
fc
b4
ac
76
d7
22
94
b0
6f
2c
a9
2d
21
56
bf
63
0a
1a
77
81
58
fb
bb
ab
c4
0a
48
6f
3f
51
5e
2d
68
48
77
0e
09
ba
6b
3a
f1
eb
96
82
95
61
ad
04
05
3a
46
62
27
f3
4d
2e
6c
16
14
fb
ab
af
0e
91
fa
4f
c8
98
2a
f0
14
ab
e5
32
cf
2b
ed
22
50
c5
25
00
e5
7a
7e
ce
3b
b7
d2
94
81
10
5b
54
2f
8c
37
c6
f6
dc
70
51
00
be
a2
4f
65
e4
66
93
5a
cf
ec
c4
19
16
10
47
78
7d
f6
00
15
7d
f9
4d
1a
ba
d6
34
a7
d6
3e
b2
45
8e
05
e2
11
d8
d3
8b
a5
3b
1e
fe
03
67
b9
96
f9
f9
ce
05
24
96
a0
dc
a7
6d
30
44
52
e8
32
c3
a2
97
c7
19
4d
f7
00
de
fb
fe
61
ca
f9
85
b7
66
eb
4e
3a
00
a4
77
de
b3
57
83
8a
d9
a5
78
bd
6c
f0
da
81
94
52
c5
4b
7a
dc
a0
a6
9c
21
ac
6b
c0
50
1c
ea
81
9e
d0
d4
68
05
94
c5
91
bd
29
e9
ed
5f
36
2d
2d
8b
99
c7
10
97
13
10
84
59
97
af
6f
0f
3f
9d
fa
38
b6
89
a8
48
0a
e3
25
31
66
b3
95
74
42
66
89
09
80
13
a8
61
cc
31
74
4d
b0
fb
28
61
85
9f
0b
86
94
98
6e
1e
92
9c
25
54
c4
cb
4b
63
f1
b5
c6
01
57
3e
6e
49
19
ab
63
33
ae
db
51
64
5d
71
02
7f
cc
61
1b
fa
7b
5f
38
f6
22
a6
72
ad
ac
7d
84
ac
64
d3
75
ac
bf
cd
ae
ae
8f
be
d2
6b
9b
a8
c5
37
e3
a4
a5
ee
bf
cb
79
2c
4d
36
d9
60
9b
12
ea
4c
33
6d
75
72
41
cf
26
ee
bf
d3
07
b6
5e
e0
63
1d
3e
9e
2c
e9
db
9f
9e
39
e0
12
87
f8
3b
17
e0
a2
9a
99
56
bb
c7
af
ac
05
81
bb
e0
d3
ca
3a
e2
88
89
87
47
bf
4f
19
02
2f
34
45
44
d9
5a
16
84
91
ce
d1
b9
19
c9
e4
7a
00
14
67
da
e0
61
50
28
31
39
19
7a
fb
47
1f
82
ea
90
89
29
35
f5
f9
1e
b2
6a
3b
16
29
25
b9
00
83
e6
00
f6
7f
3f
ee
d3
5b
f9
23
9c
6f
60
08
41
a0
40
99
dd
b5
07
e7
39
44
e6
9c
c3
08
bf
a6
a2
e8
8e
c0
b4
3b
78
76
c2
e9
55
c2
b6
f0
0e
f8
c7
2e
7b
1d
2b
36
8f
95
ad
c4
b9
fe
65
8b
46
01
92
b3
dd
fe
57
37
dc
69
de
80
dc
f8
76
6c
a2
56
0d
de
f5
f0
61
55
51
9b
2a
02
d3
6a
97
a2
a0
30
7b
c0
70
5a
e6
0f
f7
73
3a
31
70
d0
81
e2
22
f5
3f
8b
5c
37
f7
d5
e2
53
06
23
36
76
12
53
d1
43
01
ec
1b
50
a9
be
41
ec
05
33
14
f5
8c
fb
f3
92
6d
d1
fd
ba
79
2c
ad
e5
bf
2a
93
aa
6e
1b
c4
75
d7
61
bf
9e
ad
2c
85
39
44
eb
37
70
ef
c0
f9
ae
b3
5e
9e
96
ca
33
a1
48
fb
17
9a
20
c6
b3
f8
ac
5c
0e
a1
63
ab
d1
b2
74
0c
19
00
2b
b5
83
f2
3a
b6
e7
0a
5a
c3
21
b9
08
37
19
96
75
6f
2e
3c
a6
39
2e
23
55
b0
e9
44
ac
42
fa
c0
30
4d
f6
39
53
ed
26
73
47
8f
59
25
99
73
ef
16
b4
02
1a
a7
b7
de
67
a7
48
b1
6f
6b
7c
2b
99
ce
e8
76
21
cd
5b
af
85
9a
8f
1e
62
f3
00
8a
b7
c0
e2
2c
aa
71
96
4b
a9
83
88
3c
d3
c3
32
d7
99
4f
77
c9
c4
d1
6b
77
91
7f
d3
04
0a
2b
7f
8c
cc
e5
a5
c0
f0
f7
c9
c8
af
3f
bd
f3
bd
dc
64
32
27
4e
de
01
f2
99
e6
8d
8e
2c
a7
76
76
ed
99
62
fb
c1
0a
5d
a8
3d
ca
2f
5a
9e
34
f2
d2
44
71
e3
9e
fa
52
f6
de
e6
d5
16
84
e9
03
69
7e
21
38
00
10
9a
c1
f0
a2
52
ca
69
12
41
93
bc
2b
f5
29
f9
e2
a5
a9
16
99
03
48
5a
43
37
d0
e6
ce
e9
e9
82
05
83
71
53
e6
3d
49
1b
01
30
c6
71
00
57
0c
38
15
14
9a
99
e1
1b
db
da
74
15
a5
5e
68
b3
ca
5a
47
72
2d
5d
6a
64
9b
de
26
63
f2
52
a8
de
0b
de
fd
3a
97
76
0d
db
10
3b
cc
e2
7b
b0
86
6d
40
08
0f
71
a3
08
aa
3b
78
8b
92
dd
23
16
2f
2c
a6
7e
4e
b0
e9
da
39
e3
48
b5
1b
b8
9b
fe
c0
de
26
24
68
47
ad
16
df
87
da
3d
4d
31
de
a2
12
46
d7
20
21
93
d9
e2
be
71
9e
fb
fc
63
7a
60
a2
08
26
e3
89
af
f4
2e
9f
57
df
06
fe
0e
cb
94
c8
0e
24
71
fe
3a
3d
bc
77
19
7c
5c
c6
4f
25
29
f6
e1
38
85
d6
79
04
61
5a
3d
3c
60
f0
67
c0
2e
8d
6c
27
69
47
60
f8
a7
f5
6b
24
bb
57
da
e6
ed
e5
45
72
ef
b9
02
f7
ce
70
02
8d
b2
30
e5
07
18
b6
00
45
1e
6b
16
60
5d
ab
c6
65
fb
c4
a6
7e
3e
49
3f
23
cc
0d
a2
fc
92
3f
43
2b
7c
7f
48
6d
ea
76
c0
5e
45
80
a7
3d
32
f1
12
9f
3a
ef
69
47
f8
04
fd
b7
44
7c
0f
7f
9e
16
19
87
42
f8
fe
4e
cb
ed
eb
c5
2e
88
d1
e7
26
5d
3b
2a
88
67
9a
ce
b9
d7
ef
9c
48
b2
96
41
16
3f
f6
af
2e
aa
f5
2c
72
e3
32
2c
17
f6
ec
b9
5b
94
bc
2d
ac
2f
a4
6d
09
56
57
b4
56
6c
63
76
b8
7e
7d
eb
5a
4d
8a
a9
c4
3b
e3
11
62
21
28
95
c3
1b
5b
86
35
29
7b
31
68
41
33
e3
e7
a8
bb
66
bb
28
8e
b4
cd
31
dd
44
dc
35
a9
58
65
7a
34
4e
28
c7
c8
9a
43
67
0e
21
15
f4
dc
c4
9f
06
54
b6
72
ab
fb
97
a2
81
5f
26
80
c5
fe
ab
d0
15
ef
30
34
84
cf
78
12
9c
16
9c
2a
6d
61
8b
3e
c1
1d
a0
a2
a0
f9
f6
9c
3d
bd
ac
67
3f
24
02
8e
16
e2
0c
ae
87
23
f4
7f
4b
ed
75
62
8d
6f
d1
b5
78
f4
83
cd
b1
4e
1e
9b
18
b6
8b
7c
1e
9e
21
2f
23
2a
f5
0a
7d
ab
e6
cb
95
b3
21
20
66
37
d1
b4
aa
11
8f
4a
e7
4a
73
d4
08
f6
56
85
ed
d3
d4
db
8b
ce
3d
45
e0
0c
9c
be
cd
cb
81
b0
f1
82
30
66
4b
12
40
5f
29
f6
ac
98
0c
6a
fa
ca
a6
20
38
1c
81
3d
63
42
27
ee
8e
e2
8e
af
f2
95
85
02
c9
9c
0a
68
e4
f1
c7
79
87
81
b6
47
a6
fa
0d
b0
eb
17
10
67
e6
d4
fe
6b
45
d5
4b
82
ec
42
14
6c
ef
13
74
ce
62
b7
1f
40
1d
4a
fb
b5
b4
a9
63
07
55
40
60
d2
87
03
62
c7
c1
62
49
d9
40
26
37
0a
35
89
6f
f6
f2
69
5a
84
af
7a
6f
5f
2b
d7
18
41
f1
f1
af
01
29
2a
f3
26
0c
aa
11
b4
86
77
b2
0b
4a
52
26
76
39
8e
0c
1f
01
e9
62
e4
60
63
26
78
e7
f9
3c
78
5e
64
57
5a
e7
dd
fd
da
ce
7c
42
7a
1e
c1
2e
1b
96
02
48
af
83
52
f7
19
7d
cb
38
6d
0e
51
07
64
74
02
32
a4
fe
85
6d
84
34
f5
ef
70
6e
79
b0
10
7e
dc
17
92
f9
ef
a1
c8
6f
9d
6f
a6
95
cb
87
ab
d1
59
67
e9
08
b5
c5
80
d4
eb
f4
50
eb
71
6a
94
cc
5b
44
cd
ab
8d
72
fe
02
53
6a
64
fa
36
23
70
57
29
dc
9e
18
d3
1b
13
12
fc
60
ba
91
69
0e
c4
58
5f
02
9c
97
a4
a5
30
5c
ed
25
60
16
df
8a
0a
98
74
1b
64
88
ec
f5
0c
0b
07
3d
97
52
14
90
08
5c
dd
01
b3
a0
a3
be
d8
5c
f1
da
cc
b8
99
b1
de
e2
fb
3f
46
e5
b8
c7
78
6d
2c
f7
34
c3
34
a6
3f
ad
eb
3a
f3
b1
ae
26
99
a6
ee
e3
44
bd
f7
99
50
47
f0
aa
30
a8
3e
0f
28
d5
42
f3
b5
81
d2
d7
84
96
9c
7a
f7
65
ed
a4
d8
9c
c3
c0
83
85
70
da
86
19
98
74
bb
c5
7b
1a
3e
4e
d7
1b
a0
2d
b0
a0
bd
8d
e9
df
7d
da
58
1e
b8
e8
09
f2
57
ba
3a
8b
b4
02
64
0a
10
54
cb
72
3f
57
71
77
ca
ad
dc
24
ec
18
08
f1
73
42
0b
1c
99
0b
bd
14
31
6d
c4
49
86
2d
a8
86
02
08
b3
d5
6f
39
5e
bc
0b
4a
d0
7a
06
c7
a8
fa
43
5e
3f
62
3b
51
95
d5
c7
99
b6
ba
c9
4a
a1
45
b7
fc
bd
75
a9
b4
37
cc
38
83
fd
cd
56
17
07
e7
0f
a1
9c
a1
e0
13
d8
9e
97
95
af
e5
f0
e8
be
7f
44
41
b7
c5
d3
58
e5
f8
2d
fa
ac
06
2b
88
0c
9e
58
83
32
96
95
c0
38
67
79
74
8d
74
83
0c
b2
60
66
19
b9
a7
48
e9
ed
f8
81
fb
86
eb
8a
90
4e
b6
ae
06
ba
16
d1
24
ca
0f
fe
d2
e2
8c
9b
d8
94
7c
89
8b
1e
bc
66
e7
85
61
25
67
86
93
5e
c0
65
c4
62
17
94
a9
9e
fe
e2
02
11
41
65
d2
51
94
12
8d
45
30
89
72
d5
31
99
a0
4f
a3
76
aa
b0
68
b4
74
74
06
a0
a5
18
d4
b3
e7
9f
8d
e1
5e
fd
d1
fd
db
f0
0f
75
70
95
a4
12
1e
63
5d
2d
ce
ed
0a
eb
eb
a1
c7
cd
02
3c
35
38
fd
86
41
33
08
34
18
da
70
7f
00
4e
c7
a2
56
3d
71
f5
15
62
82
fd
8e
44
68
90
73
f7
2d
0f
97
f8
2d
2b
e0
3b
e7
d8
59
84
9e
25
ab
af
e7
be
14
64
19
18
4b
ee
9a
eb
38
6c
39
4f
c3
21
3a
f8
46
bb
d7
65
e8
e9
58
fa
24
85
19
11
8d
19
d8
a7
e3
15
00
4d
64
7f
28
21
96
48
05
10
46
a6
c7
0b
af
5b
9e
94
49
d9
0a
44
e0
a8
f1
b5
d0
d0
92
96
d6
3e
a3
13
a5
75
d8
fb
70
dc
79
c3
db
98
3f
f0
15
39
41
3d
4f
c2
d1
b5
e3
2a
68
32
f6
46
a9
2e
56
d9
a5
de
7b
90
1d
8e
ee
1d
02
7e
7f
7e
08
be
7d
b7
43
82
66
5b
79
ee
4a
96
8a
f0
7d
08
46
84
26
a0
6d
dc
e1
70
13
25
6a
a7
5a
70
02
6e
e6
ca
87
35
e0
e3
9d
75
4f
28
0f
bc
14
73
18
e9
f7
c4
c5
d0
2f
81
39
b9
30
b9
24
a1
b9
f8
a0
34
68
f1
e0
3c
b3
1c
a2
2c
a5
cc
8d
d5
5b
e7
6e
90
3b
33
35
4f
fe
aa
3b
66
73
3d
f4
64
46
6f
14
a3
9d
b1
16
a4
0b
14
3a
9f
d4
2d
fa
85
8c
ac
8e
3b
d2
76
3e
01
ee
82
69
8b
f8
fa
da
96
47
2c
18
2a
9f
9c
83
d4
85
52
77
70
5e
28
59
9a
33
82
d9
b4
dd
26
fe
a6
71
20
1a
8f
e6
1b
b2
c1
30
81
17
5f
07
89
b8
cc
c2
d2
e3
6e
3d
e0
e5
64
3a
78
9e
01
8e
45
cb
9e
42
c7
f2
d4
a6
a2
23
cf
c9
b3
d7
24
b3
65
b3
2e
e0
99
0f
1c
c0
e2
63
10
a4
b4
c0
64
60
6d
a8
b5
34
fc
d7
f2
18
39
6a
19
3e
48
72
10
13
43
7f
fb
55
1a
83
6a
be
f7
ee
10
64
63
8c
da
da
5a
1e
e2
e0
88
dd
5e
c4
f0
db
a4
3d
55
9d
d0
4c
23
60
d8
ca
26
df
ce
ea
b1
af
8e
d9
a0
ce
d4
a7
db
68
01
11
9d
fc
b7
92
3c
d9
fe
a6
60
aa
8b
71
8d
c0
52
3e
bd
83
fe
35
9e
62
78
74
66
6b
85
25
3a
ce
a9
fb
12
77
77
c0
00
ea
46
12
db
ea
cc
da
09
9d
1f
b5
37
2d
ed
71
19
f4
4c
80
9e
b7
23
de
a1
94
48
be
b9
a2
5e
a3
80
ce
63
4b
cd
9d
73
6c
ce
7a
8f
bc
ac
9b
6c
44
5b
c7
23
92
8e
56
f0
2f
e8
fd
c2
ba
b4
5e
02
6e
d8
0b
33
9d
de
31
49
9c
5e
88
03
68
dc
54
05
1b
d5
1d
b9
72
32
76
b8
a0
eb
b5
f6
b0
c2
64
2a
8e
d6
da
f2
89
f9
c4
38
e9
aa
c4
ec
33
be
06
c3
c7
71
c2
75
a9
b1
ce
7d
19
a8
6a
8f
78
bd
78
24
d1
24
87
4b
80
3d
48
c1
33
72
66
fe
0b
a8
7d
f4
70
6a
31
f6
12
57
4d
cd
91
be
5d
8a
94
7a
ba
95
fe
ec
45
9a
06
66
31
27
f9
90
53
d3
ac
5f
02
66
f4
fe
42
e9
77
b0
74
55
46
14
c5
1e
b8
e4
6a
b5
62
76
b3
f7
ec
8c
8b
36
68
37
cf
22
10
7b
ed
f4
02
ce
96
e4
ab
47
24
f4
0e
b8
d4
76
e1
5d
df
3d
a3
e5
ed
30
a7
7f
19
f8
50
14
1f
e0
aa
df
47
49
d2
3a
46
4a
4f
40
b3
c0
b5
49
b0
a2
8a
e4
fc
19
db
05
88
b3
d4
66
13
98
a0
1a
f0
d4
71
27
c5
41
0d
54
5a
00
67
db
4c
6f
16
dc
4b
ca
6f
b2
8d
4a
e5
d8
de
ac
d2
42
31
34
9e
23
d9
00
65
1f
4d
f6
37
36
c8
04
50
30
54
ea
ac
c9
b3
e7
8c
54
65
b0
e0
b0
1b
43
b0
44
e4
62
34
1b
91
af
28
97
4f
5c
fa
16
4c
48
e3
84
0d
d5
a8
fe
45
8e
61
4e
bf
e2
65
89
0b
3b
45
1a
85
89
4f
f9
3e
45
66
97
df
aa
23
16
fc
24
61
14
22
56
c5
0b
29
04
9a
a3
cd
af
86
5c
cb
48
92
97
e4
64
c3
2b
65
20
1f
1b
8c
86
c2
97
48
db
af
2f
a5
3c
53
5f
cc
d5
3b
e0
52
bd
7d
21
4b
c9
85
d2
72
d1
6b
d3
fc
5f
3b
16
6b
d4
e0
51
fd
ba
11
b1
c3
8b
2a
99
39
3e
26
f4
29
94
98
bf
72
d7
ea
dc
2a
da
0a
b5
16
e0
49
d4
2a
fd
3d
b4
21
a0
48
e8
70
1c
1e
c5
6d
00
16
9a
7d
71
0c
f6
47
56
2c
1a
83
48
71
b2
24
92
13
26
32
08
9a
ee
64
0b
d0
71
db
38
30
4c
e5
4b
12
46
e5
62
52
e8
0d
7c
50
09
9c
a9
f5
3c
a5
70
b4
ae
96
04
5a
88
74
89
dd
77
b6
c3
77
ac
ee
59
56
14
2e
e5
8a
a4
d9
1f
4f
c8
12
29
b5
cf
12
37
32
69
99
d1
03
33
7a
04
7c
0b
9a
ef
5a
3d
23
9c
0f
65
9e
eb
b6
77
d3
1e
c6
6c
ab
34
fe
72
cb
c0
01
51
53
ae
f2
b5
70
2a
8e
90
90
ed
f1
fd
39
d6
03
f8
83
7d
95
cb
27
ec
47
bd
be
38
00
bb
05
e4
6e
45
96
7a
e6
60
72
f4
c1
4d
4b
b9
59
f0
0e
51
a1
12
60
60
1d
61
7f
13
52
ef
38
6a
0d
ed
c4
e8
05
4a
1d
5e
1e
f3
88
7a
5c
3c
d8
c0
e7
d5
ee
05
7a
27
c0
8e
d5
16
bb
b3
c0
74
fc
7c
02
0e
6a
09
47
1f
f2
a2
87
02
5c
28
9c
36
5c
5b
d4
91
d0
18
69
fa
a2
02
15
d1
75
f5
8c
fb
f2
c2
cb
52
61
fd
da
c9
c3
39
09
85
02
f9
83
54
bb
b8
2c
df
f0
01
2a
88
02
f1
e3
35
27
2c
a7
16
f6
e2
9c
35
d4
d6
25
55
f9
3c
5b
96
9e
85
48
65
f0
26
2f
d0
69
9f
ee
be
06
cf
22
a6
b1
b0
56
66
47
e2
cd
72
15
d2
fb
31
d6
26
21
99
bb
af
90
bf
7c
e3
b3
aa
f5
c9
b3
8d
4d
7d
86
ae
19
fc
f2
df
d3
ee
d6
1e
8a
86
3c
83
3b
ce
9c
b9
9e
34
8d
fe
bb
ee
28
57
c8
fd
99
77
6c
47
29
5e
cd
fd
91
66
5a
09
4b
97
7d
c7
cb
40
80
5a
41
ee
66
ab
de
96
53
25
f3
bb
f8
4f
6f
37
4c
8d
92
2b
eb
4b
5f
a0
51
63
f0
1e
d1
51
52
13
e6
ce
7c
3b
e0
16
27
20
f1
ab
70
99
26
94
d3
8d
76
df
ee
39
99
f0
0c
21
f4
92
df
1f
d2
17
d8
31
dd
e3
db
3c
2f
96
40
d2
5b
87
04
6b
60
c2
f3
63
12
81
b9
87
12
8a
64
d4
34
0a
e7
26
63
f6
85
97
d9
46
f3
f2
68
16
97
53
54
8c
a7
50
ae
8d
20
e1
c1
4b
71
bb
b3
cc
00
5f
8e
21
9a
3c
bd
25
10
b3
5f
de
65
95
ab
5e
d2
e3
b9
eb
d1
6e
2c
aa
b8
bf
3a
85
46
55
65
bc
49
eb
98
30
3e
05
4c
33
aa
8f
87
88
8f
27
aa
01
74
e2
04
ca
dc
90
35
58
bd
82
df
32
f5
59
d8
f9
9e
c5
e1
33
bc
49
94
e5
5b
48
8a
aa
bd
e0
0c
9b
42
a6
da
39
64
03
07
44
11
fc
68
f4
7b
47
52
9f
f7
f0
47
53
4e
da
7d
57
32
30
c3
bb
01
7e
0f
51
bb
e2
7d
cb
be
c8
c1
5f
77
08
4a
75
ed
cc
55
d1
1e
be
b8
4d
30
e1
f7
bc
7a
6d
70
80
2b
d4
4e
4f
ab
0d
00
6e
14
a1
75
ae
ad
1e
8c
23
19
ca
90
76
8c
0f
d3
9b
be
47
6a
18
a5
6a
f0
f9
7c
40
c1
a5
8d
33
f0
5a
70
13
60
92
23
ba
b6
59
ac
a7
e2
e1
2a
7d
8c
cf
95
f2
e4
bc
5c
89
9e
e6
dc
97
57
49
45
ed
78
3c
88
38
f9
9a
6e
8e
8d
18
ea
f6
65
8c
52
d2
7a
2c
00
61
9f
d2
1c
c8
d9
6b
0c
c1
68
38
bc
75
27
f9
28
91
94
4a
46
fd
d9
04
f2
c4
66
b0
f4
dd
9e
4b
31
ea
72
f3
10
06
60
6d
78
9f
50
12
b0
eb
83
8a
e6
22
fa
18
18
2e
20
a5
80
23
02
e0
ef
4d
58
05
d9
3f
a2
d3
99
52
3b
3f
28
3e
31
f6
f6
e5
1c
c0
38
42
22
da
39
1e
8e
89
56
1b
2c
38
15
71
82
8a
ca
98
40
c6
e2
1c
62
d7
d9
65
0b
02
96
31
3d
0d
4a
3f
00
bf
9d
7b
8c
6d
d1
88
f6
70
49
86
c9
96
83
32
85
50
9a
52
e0
87
4c
de
6c
bd
11
b4
ac
c8
54
74
d2
32
95
f8
0f
92
8d
2a
e9
90
69
86
83
d4
e2
61
b8
67
88
57
be
c5
84
75
f9
7b
53
ab
a9
50
38
dc
76
34
1b
ed
ee
a0
69
ca
8f
54
b4
6b
5c
ce
2e
db
76
80
a7
5a
a4
83
f2
8e
a7
0e
f7
0e
0f
05
e6
45
fc
9b
77
5e
c3
4e
44
bf
ba
57
88
93
48
da
8b
d4
52
b6
5b
18
3a
4a
3e
86
6d
08
2d
41
09
70
7c
a3
ec
2f
e7
60
48
c7
9b
88
e0
ac
1e
37
f9
a8
af
2b
26
8d
1f
d5
c5
eb
a2
9f
0c
b4
6b
c7
ac
cd
77
a1
23
89
54
1b
ca
5d
77
8c
ae
02
61
80
e9
50
5a
2f
f5
4d
8c
00
8c
9f
54
f2
fc
c8
c9
cd
09
ea
a2
59
42
dd
e6
9c
88
5f
25
69
47
30
4f
aa
40
56
d5
95
80
b6
f9
f9
af
d1
db
a6
f7
28
4f
44
c7
86
f4
53
3b
87
81
68
f3
c2
b0
18
1f
c8
ea
40
dd
73
c9
73
e6
56
79
69
9d
26
42
dd
e7
c7
b6
8e
47
41
a9
94
fa
2f
3e
2c
96
f2
68
fa
48
81
73
07
d2
26
de
6b
45
95
15
1f
2e
d2
89
da
db
ba
35
09
4a
dd
88
c2
e3
60
9b
8b
1e
9b
67
00
b7
57
ee
5a
0d
06
0e
df
96
ce
cd
c8
fa
98
6a
e2
12
39
da
6a
4a
66
42
39
81
ea
ac
e3
85
d4
9a
74
69
af
cb
38
1d
02
72
ca
54
a4
08
fa
0e
07
c2
2b
0b
69
c0
d7
02
27
04
7e
1c
7a
3c
da
2d
99
57
b5
16
5c
07
55
5c
d6
8c
b0
3f
4a
3a
8c
36
ac
8c
0c
5c
7c
cf
32
dd
5d
ea
2d
1f
c0
b1
4d
0d
aa
da
74
04
23
ea
e2
6d
ed
3f
f7
15
ab
85
e8
d8
ab
3b
2c
28
f4
82
cc
73
ec
99
2d
05
d4
f4
90
96
b0
9c
8d
3d
51
40
be
ac
2b
90
57
ac
e2
94
1d
66
a7
e2
ca
15
20
46
1c
60
d8
57
c9
b4
75
a5
21
63
b0
b4
e8
31
3f
83
d3
7c
0f
55
ca
d5
63
36
c2
e0
1a
c6
d2
06
ec
4e
cf
de
29
17
1c
c8
a2
d0
e6
4d
3e
a9
6e
9f
d5
d8
13
d9
53
f2
55
8d
4e
65
37
f4
cc
a0
79
d0
34
5a
2b
1d
0e
64
60
77
8e
1e
7a
f9
50
3a
c4
23
47
cd
d5
d5
66
56
d3
b2
cc
83
5b
b9
b4
10
27
7e
4f
74
fb
2c
87
ba
74
4a
9d
bd
dd
9c
17
04
29
c8
05
e2
ca
fb
4d
64
c6
ae
f9
2f
17
82
59
bc
32
23
7c
d9
ef
e0
cf
e0
0f
cf
14
99
b5
be
fa
b7
d1
53
d0
cd
1c
37
42
e3
88
8e
5e
f8
07
a3
c3
3a
ea
7b
54
7b
3e
11
14
bd
cf
49
63
f9
52
05
1b
6d
e6
a1
55
f2
5b
6d
e8
a9
5e
2b
90
46
72
39
38
f9
15
ad
22
e4
97
77
1e
a1
3d
ea
50
b1
11
34
7b
d9
0b
39
3f
42
16
61
de
ca
c8
21
6f
05
69
05
12
28
01
33
e2
7b
b0
80
ac
bc
af
4f
4c
28
93
0c
c8
cc
9d
4a
5a
15
45
4a
cd
7a
bb
b9
6d
d5
7e
1c
8b
e5
c3
66
9d
3f
b6
4c
4c
f0
51
a9
3b
f5
3e
cd
36
cf
97
56
0a
89
bb
62
84
6f
6b
97
82
69
eb
f1
cf
72
c3
aa
3f
9f
7a
dc
ac
42
77
55
76
e1
01
08
82
be
2f
f8
ee
a5
b0
c2
aa
bc
82
3d
0b
49
79
9a
36
af
07
18
db
cb
a6
6b
85
0c
23
4b
74
74
21
84
71
26
2a
83
df
6a
66
02
77
dd
08
28
b8
63
65
72
91
19
c8
61
2b
d2
8f
8a
79
7b
61
69
2a
d7
8b
b3
bc
cd
81
1e
93
62
df
9a
77
0c
d3
c1
90
16
b5
44
99
bc
d4
19
75
31
b9
71
cb
59
d4
c4
f5
8d
7d
8b
e5
27
58
7f
9b
90
cc
79
d9
29
14
26
4a
d3
54
e3
34
47
48
cc
cf
7b
39
0e
4e
e8
dd
cc
44
c8
37
b9
31
6c
b6
86
a4
12
0b
b1
b4
27
af
c9
77
eb
27
1c
82
dd
e1
c2
0c
22
4d
0a
9f
f4
96
4c
a2
d5
36
39
60
d9
35
94
3c
de
ba
8c
5c
d7
4f
18
aa
6a
63
61
f1
52
54
79
bb
3b
85
26
ec
f2
10
76
0e
e2
b7
f5
70
5d
c4
12
80
67
38
63
9a
a4
9f
b8
14
e0
ea
d5
16
ac
6c
9e
3d
ef
be
07
99
5a
a6
88
4f
7f
d9
a3
39
e2
2c
29
dc
9b
39
f0
df
41
c1
dd
5a
43
99
b2
b7
cd
0f
3a
73
ab
6c
a7
91
d3
c6
a6
dd
b1
30
40
26
09
07
1c
5f
cc
c5
bc
5e
ae
50
c4
70
d8
7f
b7
c0
e6
8f
33
03
25
2d
1a
e8
10
aa
8a
b1
bd
3e
e7
43
49
82
6e
cf
0e
37
6e
4b
7f
7d
77
95
cb
0b
94
ae
07
2b
34
9a
26
b0
ec
40
52
a9
c0
dc
50
88
f4
b0
9a
62
8a
6f
b5
41
d3
23
8b
07
35
da
f4
21
96
2e
73
f9
dc
94
f0
db
65
73
d1
0b
7f
88
56
26
80
15
15
1d
d5
39
57
f3
95
b6
6c
8f
22
3c
15
c4
97
40
73
47
d8
dd
02
e0
bc
a0
8b
64
84
d8
54
11
b3
7e
c3
5b
41
4e
1c
d0
61
32
9e
7a
ea
85
a4
78
62
89
89
0e
e6
9b
9f
72
bd
c5
e9
ee
82
d0
26
f8
11
a9
e5
d9
96
8b
d6
e9
83
c5
c6
27
2c
16
9e
e8
38
79
46
46
c4
99
10
4a
6b
db
69
aa
bf
ad
5d
91
e9
26
af
e8
f5
65
1d
71
a6
e2
76
6b
0a
1d
bc
fa
f5
57
1b
65
78
60
8f
03
b0
ca
d1
59
1d
c2
be
26
f5
dd
cd
3b
90
eb
1f
ea
ca
8f
32
23
2e
ae
e8
27
23
3c
5e
67
a0
b3
d3
01
33
f9
5a
ef
c2
a4
ee
42
c3
b3
dd
e9
fc
32
ad
ec
a5
f2
00
40
94
42
8f
24
ec
65
98
b0
c7
fe
80
cf
52
13
e1
22
6c
9f
13
23
59
c2
43
b4
4b
12
30
71
0e
f4
7e
c6
85
ee
f6
54
dc
2c
f9
e3
ab
b1
97
f5
b3
3d
55
b0
b2
53
a9
e1
40
bf
c3
ba
a6
78
fc
3d
57
18
ee
77
96
9d
98
0c
4b
03
00
b2
b7
d1
f9
5c
c7
77
15
5f
29
14
ed
29
79
7c
b8
e0
21
15
c4
3e
74
d1
d5
0a
03
eb
45
6d
48
8a
a0
b1
02
11
e0
bf
78
46
ba
1f
2a
a2
dd
a3
ca
13
d3
97
85
09
0e
e7
df
aa
fa
10
bf
a8
ad
18
30
97
62
ea
9d
3c
69
d3
ad
f7
30
fe
6a
d9
06
f7
12
a4
da
1e
fe
fc
fd
09
72
5b
22
9c
15
2f
de
61
16
a5
b2
22
41
17
65
95
c2
31
95
9c
4e
7e
36
f3
72
17
be
db
6b
ec
be
73
40
36
32
6c
6a
af
b0
52
e8
17
93
17
d0
fc
66
9e
87
a5
a1
b2
a1
92
47
b5
81
da
1a
b8
fc
88
57
9a
71
f1
73
5a
f3
e6
9b
21
94
c6
d2
13
9c
5b
a2
b6
56
41
54
cf
75
43
e7
19
5e
fc
17
a5
1a
be
a5
8b
71
e7
c4
70
0a
90
73
62
c0
1c
71
76
9a
d7
aa
37
c1
00
d5
b9
47
4f
7f
6c
5f
b1
06
af
d4
49
a1
31
56
20
9b
49
75
86
f2
73
60
d0
1d
81
0c
c8
1b
a1
0c
bd
84
44
58
b1
f8
4f
c8
a8
1f
30
f7
6e
7a
4d
9c
a3
4a
39
ed
39
dc
b6
04
54
7c
56
53
95
7b
37
33
0b
b3
9a
4c
57
69
28
3c
bb
fd
79
fa
a6
fd
d7
f5
4f
7c
8d
d5
50
ba
37
71
a1
fa
9f
d8
a6
64
1b
47
96
a8
19
35
5a
af
1e
50
b1
ee
18
36
82
69
96
09
fa
15
aa
51
08
ea
58
af
8e
26
dd
1a
a4
05
d2
16
cf
78
eb
3c
9a
85
23
30
0d
75
d3
1e
b0
12
dc
6c
f6
8d
2b
42
43
08
16
88
21
6b
cb
40
ba
e2
53
ab
62
4c
73
68
4e
f2
fc
96
6a
eb
d0
12
4f
d8
4c
1f
e2
6d
3c
2b
28
2a
4a
fd
c9
a1
80
eb
d7
ed
87
82
21
63
ad
23
9a
59
57
a4
d0
b7
d7
e5
8a
57
ae
3d
3c
2d
ab
e6
78
a5
5d
d4
eb
b6
11
42
d8
ce
3c
65
06
24
da
56
82
8e
89
9d
c8
24
80
10
57
01
5a
03
14
05
fc
e0
35
51
b5
dd
df
43
2b
7d
3a
7a
de
0f
34
de
e3
36
15
13
ab
b0
18
96
aa
b0
80
33
ec
fc
c7
26
9d
19
bb
dd
d7
0a
d3
e9
1e
0e
ea
53
78
67
39
04
8d
60
f9
14
b1
4e
86
8c
bf
51
77
e8
e2
65
98
e3
c3
1e
65
2b
af
b9
50
f7
4c
cc
0f
a7
89
38
f6
cf
51
64
c5
69
fd
5b
cd
f4
b8
73
06
11
79
dd
23
b5
d3
64
5e
53
91
81
77
04
c0
80
f0
08
11
7c
d3
1e
a0
89
41
9e
63
37
ba
b6
d8
39
8b
25
ed
ee
81
b0
0b
1c
c7
bf
79
40
5f
83
ca
72
ec
70
08
a5
b6
6b
5e
85
8a
8a
93
85
06
29
a6
1f
e8
57
4a
32
dd
f2
0e
56
1d
21
b8
7e
b3
38
fb
1e
2f
dd
75
04
a6
0f
6e
76
72
3d
04
e9
28
da
d7
55
ec
da
99
e4
e9
b9
b4
43
89
e9
8c
9c
90
8a
7d
c3
f0
d0
5e
4f
44
20
d2
1d
66
15
7d
c8
1a
37
54
9e
55
46
e3
8c
1d
c0
cd
37
d4
6a
0c
b6
96
1d
5b
2b
4f
e0
34
1f
92
f6
f1
11
54
6b
92
22
b3
28
d9
52
6b
7e
fa
bf
46
31
08
bf
06
f6
5d
97
d5
4a
92
38
3a
3f
ae
b8
df
d2
fd
2d
92
3f
2c
a4
7e
88
1e
b0
e6
94
58
8f
0a
85
14
95
a6
c3
f0
6a
38
78
e2
16
4b
52
52
61
70
fd
aa
20
f9
e7
c6
50
8e
99
48
3a
99
3b
ad
8a
24
f3
61
00
b2
ab
14
dc
73
fc
96
1a
34
92
09
a4
b7
6f
f8
93
fe
5f
5b
09
60
05
42
00
5f
2a
96
a3
7c
ae
14
12
8e
7d
e4
2e
73
6e
2f
95
5e
97
41
80
61
5d
cf
40
9e
0f
a3
9b
16
97
03
78
0b
eb
a3
22
f5
87
62
1c
d1
8a
b0
38
aa
20
e7
8a
00
e6
7b
1c
02
31
ca
b8
e5
c2
d1
52
7e
0e
96
30
97
d2
36
e3
e5
00
64
d3
bb
0c
34
73
22
39
70
82
7c
c4
57
7c
cb
a0
22
e0
eb
1f
de
51
39
ce
3f
9e
eb
3b
41
02
ec
d9
da
91
84
88
93
f5
a0
9c
be
7b
de
58
5b
85
7f
8c
4d
74
e5
59
46
cd
94
c4
8d
8b
d2
29
bc
91
11
3d
16
bc
14
1a
d8
e6
6a
bb
cd
06
df
78
a8
4d
08
5b
e0
9f
cb
ef
d5
07
fd
f9
1f
82
22
e8
a1
79
47
d8
30
d8
39
30
00
9e
a6
e1
4a
ad
d7
b8
e0
b2
d5
8b
50
57
36
05
76
52
ce
b6
21
8d
e2
5b
31
fa
71
44
9d
00
76
f0
6e
5f
f3
f1
6f
42
d4
32
20
3a
7a
75
05
58
03
ad
d6
7f
b9
cf
e0
7d
92
f9
e6
83
dd
c5
a7
f0
68
f9
55
70
61
35
27
a5
ae
7b
40
82
92
e9
74
ea
68
d1
bd
ab
8f
12
de
3e
39
65
aa
e5
81
94
b9
9f
fc
8d
a9
dd
9b
7b
ea
5e
6e
29
b2
96
c7
95
df
b4
8f
99
89
50
32
8a
06
d4
58
60
20
1a
c4
ab
15
8a
6d
97
f7
6f
4d
73
60
0b
ef
f4
2b
f1
8d
27
ab
96
a9
3e
56
77
1f
41
0e
28
e0
1c
ba
cd
09
6c
83
19
17
00
5f
43
a5
33
2d
22
a6
b4
a6
41
ea
9b
78
3c
93
ec
35
be
88
27
b6
89
5d
98
24
13
cb
e6
fa
c8
af
62
16
af
09
c9
64
f4
73
e4
e5
25
df
a4
0b
f4
6f
d9
ba
5a
fb
2c
66
a1
93
51
39
1d
17
2b
17
95
76
03
6f
4f
68
0b
47
0b
83
64
e1
af
cb
19
75
ae
69
79
24
49
b7
be
60
0d
89
19
05
be
21
cf
c8
ac
2d
df
0c
9b
29
ef
e6
56
9e
69
c0
52
fc
1a
7b
29
96
d6
25
23
0d
99
18
32
0a
68
e3
e0
e7
79
52
b5
bd
68
55
dc
b2
92
3b
5c
75
c8
70
54
35
81
b4
42
4b
d8
7c
9a
47
fe
92
a5
da
2c
79
ba
6e
a4
38
ba
df
7a
e0
93
8f
77
30
13
00
28
65
06
f7
d3
b7
03
17
4a
b6
f7
27
38
08
06
4d
e5
2a
ba
48
ac
bf
2a
74
5d
c5
3b
ca
9c
96
7f
4b
14
3e
6a
33
ba
e9
dd
c7
12
ce
83
0f
f6
a2
51
b2
9e
f6
c0
ef
0d
3d
0a
28
f9
db
fc
2a
57
e0
ef
ee
c6
0d
cb
f5
ca
9e
d9
3d
6b
b0
54
e9
ec
36
ae
79
d1
2f
99
23
6f
f1
20
05
b9
1f
24
1d
43
8c
8d
d6
db
ed
3c
0b
65
7f
26
44
6d
6f
03
65
48
03
38
a1
a3
c2
5f
24
b8
1f
39
c7
6b
a2
8f
a3
7e
14
47
e1
f2
62
9a
36
f9
45
8f
5a
2f
cd
2f
7b
19
24
a2
72
81
a0
49
18
d1
7c
5a
bd
60
1c
86
ee
18
4e
04
76
ab
5a
93
b0
b0
a7
21
60
5d
fa
7e
df
e9
32
fc
64
c9
5b
3a
7f
0d
2e
59
46
9f
5a
c8
44
ee
d2
75
fe
1e
78
17
73
cb
88
14
cc
3f
d3
0e
51
a6
cf
61
bc
82
37
c5
84
05
6b
26
86
fd
6d
13
59
37
e5
da
a1
f5
da
cf
ce
ab
89
fc
d1
85
7f
46
15
4f
4e
91
86
66
8d
65
6a
75
53
e6
99
55
2f
00
91
48
53
b4
a3
4e
6a
c9
a1
be
bb
79
11
b7
9a
6d
a2
be
40
88
2c
b2
a7
6b
2f
b7
c4
c5
cf
f7
d5
80
35
b7
28
d1
d5
eb
a9
f5
3a
91
34
5f
32
b9
44
a2
92
8f
ee
65
84
2c
51
b2
2c
95
af
6d
5d
ad
2b
a4
17
54
6d
70
30
5b
98
b4
90
6a
b6
f5
14
1f
8d
77
7c
d7
fc
77
fb
9b
a4
18
1a
59
b8
57
78
d0
1b
43
9c
30
18
4e
97
3a
9e
64
3f
c0
63
8a
75
f2
bb
bf
aa
99
2d
c3
c7
a5
c9
e4
68
6a
9b
3c
4e
f8
df
f6
30
5f
89
02
2a
1e
21
4c
27
81
68
46
94
12
9f
b1
c5
1a
c2
df
96
32
de
fb
28
9c
32
62
91
2f
c7
2d
c0
9f
c3
f1
e7
3e
84
cd
a9
df
d9
a3
28
4e
4b
39
5b
f9
86
d5
4e
c1
d2
91
4f
22
4e
58
b7
81
89
13
24
30
8a
5f
48
99
e9
04
33
88
87
78
4b
6d
92
e5
3e
6a
9a
68
65
b9
7e
85
b6
02
d0
a1
0e
40
4e
56
66
31
ae
75
5e
cb
f7
41
9a
ac
44
08
3f
c2
dd
d6
6a
5a
cc
b0
ab
57
f6
59
53
6b
56
b7
04
cd
3c
bc
97
45
a0
6a
da
41
e7
01
ea
b9
4a
70
97
35
45
fc
21
e0
c5
da
2c
07
0c
97
60
1f
56
a1
54
20
6d
36
9c
6b
ce
bb
fd
75
1f
fc
cc
b5
36
06
e7
d6
91
b9
bb
33
56
10
3b
e8
76
ee
70
e0
55
36
2a
9a
05
6c
2c
3e
be
6e
12
30
93
9a
11
ec
53
05
fa
f2
c5
52
cd
ab
f0
77
eb
0e
68
e7
a1
ea
06
5f
cd
e3
89
b8
55
b3
d6
6c
03
f9
a1
30
1c
ec
42
d3
f8
1a
10
33
1a
71
d7
28
13
fb
37
36
98
70
81
6a
d4
21
44
39
38
97
23
95
5f
95
c1
5e
d6
cd
3a
13
0f
bb
b5
b1
a3
bd
2d
5d
69
46
19
ae
7c
b7
5d
59
ec
46
e0
74
00
d0
3d
60
31
fe
a4
09
02
48
74
53
09
b8
d0
06
aa
b3
c5
15
e0
80
f5
65
38
4a
bb
81
a6
65
ca
92
b0
46
3c
f1
17
28
7a
43
d9
4a
fb
68
34
58
7a
86
a3
24
72
00
5f
0d
f2
15
a6
30
d6
0a
f2
ad
39
e2
16
89
47
4e
4a
bb
06
45
53
aa
21
2f
4a
f2
1e
4d
e6
11
d3
49
9e
ad
bb
50
1f
89
e9
2b
08
72
8d
60
31
e1
98
a1
51
61
de
9b
de
a3
1a
74
90
c0
27
4b
26
da
74
42
00
4a
c6
77
4a
d8
d7
c7
1c
b5
9b
43
43
51
0b
3d
7f
9f
59
8d
20
d6
d0
6c
aa
4f
8c
00
61
b0
e9
b3
cf
7c
b5
8e
70
bb
94
1a
ce
11
d8
88
89
39
24
02
1f
13
5f
81
47
90
75
c2
bd
99
7b
e1
38
7b
2d
8d
b9
a4
31
2b
91
69
e5
e2
f4
d2
5a
52
30
98
d9
99
2f
08
25
fe
ad
c4
3b
8a
a4
80
5f
9b
75
9e
f6
30
38
02
48
c5
cd
2f
fe
89
7e
f4
a1
26
d2
c6
98
3b
63
1d
44
3d
2b
6f
b6
df
9b
a4
fe
d1
d5
10
f2
d7
d6
01
d6
3d
e9
ba
ac
db
fa
bd
85
cf
9e
8a
d9
d8
f4
52
32
f4
3c
db
e4
6b
77
f7
7a
6a
74
8e
c3
67
07
24
07
05
e5
fb
54
ac
d9
93
0b
62
83
a9
db
60
61
2d
ed
31
68
d1
a8
7f
fd
d3
a2
92
b8
95
b2
21
4a
80
81
45
65
1f
7f
a3
04
d5
1e
6a
9e
f3
3a
be
24
ad
9a
d7
a1
7a
fa
64
5f
f7
69
fe
2e
a6
bc
f6
3a
96
01
2f
b4
5d
a6
08
94
b1
94
10
fd
52
de
48
25
fd
88
68
95
66
d2
4d
dc
6f
29
63
a6
f1
e9
8b
96
20
4a
34
4d
bd
bc
55
83
03
c1
a8
89
d1
d2
81
f5
a9
7f
7c
e9
ef
39
81
bd
b9
16
9f
a9
ce
84
06
b7
58
7a
e9
78
a8
46
42
74
12
0e
7a
aa
70
37
b5
44
e8
c0
5f
16
70
da
da
f5
4e
55
f7
13
df
6a
84
fb
0e
c4
76
f6
6a
ec
46
e3
31
69
f2
98
ef
a7
32
ef
32
2f
9a
20
16
7c
b0
a7
84
c4
da
59
54
b3
d3
36
53
92
a1
83
5d
60
7e
a2
6e
40
d5
87
7c
73
72
15
5b
60
74
53
30
9d
bd
96
a0
3e
0c
21
f4
8f
7c
bf
95
15
69
5b
dc
9c
02
3f
e6
60
e2
4d
1d
ba
4f
32
7d
e1
72
22
bc
f9
12
10
3f
ee
80
da
85
a5
c1
c0
e6
64
2b
69
54
31
0d
30
79
a4
a4
e4
9b
ca
47
4b
6a
21
37
8e
9e
83
e1
bd
85
78
8c
4b
38
af
3b
9d
7e
35
8f
98
d8
70
36
88
6a
26
f6
1f
1d
c8
d7
36
77
79
3a
f8
a6
0e
86
83
ed
09
c7
54
db
fc
05
8f
4a
de
9c
b5
46
90
f6
a0
2b
cf
c3
6f
ee
f7
b2
b3
06
7b
b8
ec
b7
c7
b0
b9
70
bb
51
63
8a
e5
bd
e3
8c
2c
c8
51
31
47
51
24
e9
03
e1
d0
ee
ed
c1
c9
e7
2d
40
be
59
55
33
35
d2
9c
26
85
fc
ea
df
97
72
5b
ea
56
03
84
12
89
47
f4
c6
ab
55
25
ae
c7
b5
5c
60
35
c5
2a
08
ac
23
0a
07
a6
3e
15
99
b5
ce
68
22
0e
18
68
98
4f
34
59
ae
09
c0
06
59
cb
f1
78
85
cd
d8
f0
f1
52
88
70
e3
35
14
6e
82
87
75
1f
db
46
ee
09
8e
8f
a2
48
5b
42
31
97
94
5d
dc
a8
c3
e5
d3
7a
05
26
48
9b
d2
d3
63
48
5f
8c
5e
a3
82
0e
d5
d8
61
44
3f
85
cc
65
c0
ad
66
e8
4c
ac
5d
9c
65
ea
f8
4b
5a
5d
a4
7d
84
38
1f
e7
cc
5f
ca
bd
4c
e4
da
1a
2a
00
af
d3
7b
d3
45
1b
d7
dd
ee
ca
d5
9e
4b
69
f9
9a
77
ed
1e
08
6e
3f
2f
66
c9
09
a7
77
0b
71
af
be
a4
b3
44
a1
01
1a
59
58
4d
36
cd
b1
1c
f2
dc
93
13
70
af
7b
62
72
f6
0d
92
66
43
43
9c
a2
56
1d
66
e6
c2
87
4e
73
b3
7c
18
2f
8e
3a
c1
22
0e
0e
68
ce
19
e6
bd
7f
a2
ca
5b
93
08
09
42
06
2e
ce
9b
e6
ef
dd
9d
3e
7e
25
6d
7a
90
cb
f8
ae
85
29
3d
2b
74
b4
a5
da
b5
ea
69
b3
ae
3d
8d
75
db
70
c2
94
76
e5
ce
ce
ec
36
6a
c0
31
ae
36
6d
ac
0c
21
8d
8b
f8
d3
ef
10
d7
ef
0b
2d
42
5c
06
59
f5
1c
97
28
af
ca
27
92
d8
21
9a
db
3a
75
7e
d1
90
67
f8
0d
aa
92
5c
2c
ad
d1
37
2a
42
07
f3
9b
1f
a6
ea
c7
4f
46
74
fa
75
3f
34
f5
22
56
97
d6
ec
3e
56
64
3f
6d
88
62
18
53
90
55
61
66
ec
78
15
cf
81
a0
b9
ad
55
e2
0c
e1
08
82
f5
4a
92
43
77
44
c2
62
50
76
d0
c6
93
74
fc
1a
66
f8
39
5c
23
91
92
17
55
e9
8b
d5
79
02
67
21
c9
88
12
bf
de
92
4e
99
bb
1a
19
50
cc
fc
80
29
d0
a3
46
62
f4
7b
b5
02
af
fc
f8
bf
fa
96
fc
59
fa
6e
1a
6e
7b
81
b3
bb
5a
ef
b5
99
43
fe
03
53
70
7b
82
20
85
47
5e
85
c2
e1
85
31
07
cc
6e
ae
27
eb
90
42
45
7b
b6
ca
c9
08
0b
bc
72
13
4b
d4
57
ba
6f
4a
29
3b
79
e7
6a
98
08
cc
24
6d
a9
4c
a4
00
7c
6c
1c
b9
aa
1c
c7
cb
be
32
ee
4d
a8
bd
b0
83
57
3c
45
b6
f0
01
c5
d7
95
7d
17
1a
41
1f
32
b4
9b
f4
87
8d
ac
bd
50
13
6e
eb
9b
dc
ba
30
4b
a5
8e
a9
80
f7
77
2d
d8
9a
e2
eb
89
27
94
d2
95
f6
cf
0b
90
88
ca
c5
cf
ac
9f
8a
a6
70
57
fb
b9
98
57
56
4a
2f
3b
37
cb
32
7a
86
29
14
47
e0
b2
e8
04
ae
61
cf
78
fe
c2
03
9a
bc
65
bd
db
3b
b8
89
b6
ef
e7
4c
26
c9
36
96
01
eb
3a
95
78
2d
3f
ea
88
a7
20
95
df
6b
88
ce
c3
72
83
57
62
93
25
59
cc
07
1c
a3
ef
e8
14
98
1b
12
ad
cd
13
22
d9
af
29
0e
3f
88
54
f0
1c
fd
b7
3b
d2
1d
2c
ed
fb
5f
df
ed
6c
e0
df
6b
55
4c
6f
29
27
35
e3
c8
98
08
ae
5a
a0
86
85
b3
fc
59
04
9f
36
6d
bd
3b
6f
89
11
09
ef
e5
55
49
30
51
e1
07
2d
2c
7b
ba
2f
e8
83
4f
cc
43
33
e8
a6
ea
dc
ae
3d
85
51
d2
36
ed
c0
b7
46
9f
50
c4
89
d5
ac
b5
66
da
6f
b7
e7
13
57
26
7b
7d
c0
db
a2
c2
e3
c7
71
3a
8e
2c
6a
0c
85
5c
84
28
0a
d5
30
fd
4e
44
d4
57
9b
38
a8
91
c3
e6
f5
a4
84
e7
69
64
73
72
35
cb
7c
66
cf
d7
dc
74
d9
78
9e
2d
b9
94
16
c2
15
ad
44
58
53
f5
5a
fc
61
2d
b6
59
a0
ba
2c
62
0c
cf
16
6d
f5
9a
2a
d4
43
0d
ae
dc
5b
94
4e
c1
3e
09
71
07
2c
60
9e
91
30
a7
e1
0c
07
5b
f3
d0
25
bb
5e
65
4c
42
e9
67
66
4c
cc
83
e7
b4
5d
ec
04
3c
4c
1b
80
30
57
4b
98
0a
b0
98
ca
a3
7e
72
f0
90
f4
8f
37
06
fe
4c
73
ca
ef
ed
57
ac
8d
0d
d7
5b
50
e0
41
73
83
0c
79
de
03
20
b2
b0
59
5e
b4
62
7c
57
b7
f6
be
8a
58
4e
c9
2e
e2
d2
20
f7
6d
6e
db
1f
d7
d7
ee
e4
87
da
19
06
8c
fa
5e
33
69
c9
d6
cf
b6
f7
e8
2a
7a
cf
31
56
62
6c
ee
90
f1
ba
59
28
39
9b
80
04
32
ba
37
78
ec
7f
97
60
75
b2
9f
66
fd
8e
35
a7
4d
9c
59
90
3a
f2
b9
f3
8c
01
4f
69
b1
c3
25
f7
a2
5c
57
92
56
b0
03
0c
0e
90
fc
1f
0e
0b
3f
19
57
84
8b
16
1c
6c
0a
ca
7e
df
17
e5
e9
ee
78
d5
84
0b
11
87
0c
ae
ae
2d
c2
09
43
1c
ed
1d
97
88
4f
95
0c
94
6f
a2
23
57
97
fc
de
9c
b8
4f
45
0b
4c
43
8b
56
ed
a5
6c
83
2a
db
b1
65
22
92
a8
f9
e6
99
2f
a0
ea
e3
ed
49
e4
56
da
79
ec
9c
e9
8e
ab
80
85
57
a5
54
d5
34
54
0c
6c
50
8a
ed
b7
79
e5
3e
8b
83
23
43
2f
30
d6
e9
e6
84
f7
65
c7
67
79
92
ac
b0
7c
b8
ed
3c
38
2a
a9
bd
ad
47
0d
f6
00
89
7a
23
d6
39
16
6e
05
58
09
4d
a5
a6
14
ab
9a
86
12
a3
e1
51
3b
18
4e
3a
6c
a6
a5
1c
c7
2f
14
e0
56
14
44
9a
58
99
cb
fd
bb
41
7e
dd
4e
2e
14
ac
5d
32
e6
3c
6b
e2
d4
b0
83
c8
5c
ee
63
7b
0e
ae
78
cf
fe
49
b4
f3
92
11
61
5e
ce
0e
0a
de
09
85
5b
4b
92
90
00
ae
07
37
f2
61
0a
e9
2b
8a
f0
5a
83
55
02
22
d5
9e
2e
43
62
58
c0
99
c0
85
ec
d1
df
6a
d5
95
f3
f2
04
de
4b
7e
19
4f
9c
73
68
02
a3
03
25
59
8c
6d
c4
34
82
06
66
99
3b
98
92
1c
2e
51
44
18
ee
37
1b
73
54
b5
6f
39
6d
a8
8e
11
f3
06
bc
05
45
1f
4d
88
37
dd
36
64
07
06
98
2e
aa
45
32
a6
db
99
33
85
ee
89
6e
ad
23
36
67
7c
51
ea
29
53
fa
10
6d
5c
8c
ab
0c
84
e0
fc
a7
6f
c7
e9
d4
4e
69
92
32
b4
91
c1
33
dd
33
31
3b
97
5c
3e
9e
ad
7b
49
2f
bb
bb
2e
84
6a
f3
3d
5e
c8
b8
cf
b6
15
0b
99
74
38
0c
5e
a8
df
10
2e
0c
07
40
34
28
2d
4a
ac
63
c7
ad
51
07
c9
f0
86
21
be
95
2b
da
99
ca
b0
0f
ba
5d
47
d2
06
c4
d0
2f
a4
fe
c3
8d
44
bf
5e
ba
b6
ee
14
cf
cd
9d
d7
d4
11
0b
38
84
e9
54
2f
75
e0
ca
73
90
63
54
32
28
5e
f2
62
4b
05
5f
b7
8f
25
70
13
ec
aa
dc
d3
08
06
f5
c7
49
e8
a9
14
6f
5e
4a
36
b2
e1
82
ac
69
f7
a1
39
2c
7b
5a
84
f3
9a
30
58
28
41
69
54
4e
e3
79
25
cf
36
16
ac
53
0d
20
7d
b7
3e
c1
13
61
3a
2d
13
83
89
94
24
64
58
70
67
e3
c0
75
f9
02
fc
13
b8
c7
99
93
59
1c
7b
9f
e5
a4
c1
4f
9d
8b
67
51
98
40
24
7a
01
a3
80
a1
d6
6c
32
b7
4a
d7
69
70
f0
ed
d9
ab
cf
11
a3
7f
8d
f6
d0
14
66
d6
fb
9e
f3
e0
d3
30
6a
a2
b5
39
49
8d
8a
86
11
f2
2e
e0
75
25
0c
95
19
92
a1
96
8a
c7
67
52
a8
25
41
40
ab
f0
df
f7
ad
2e
2e
78
67
c4
48
a2
57
73
c8
75
fa
3d
cb
54
d7
35
6d
ec
84
91
6f
12
2f
7c
21
33
72
06
